<unk>	0
<s>	0
</s>	0
<PAD>	0
<UNK>	0
in	-0
▁k	-1
en	-2
ta	-3
an	-4
is	-5
ll	-6
▁j	-7
▁s	-8
▁h	-9
än	-10
▁m	-11
▁p	-12
tä	-13
▁v	-14
as	-15
▁ja	-16
ka	-17
el	-18
▁t	-19
on	-20
et	-21
sa	-22
at	-23
ut	-24
▁n	-25
it	-26
▁l	-27
si	-28
ti	-29
ik	-30
mm	-31
ol	-32
▁ku	-33
iv	-34
es	-35
ei	-36
sä	-37
▁J	-38
▁ko	-39
aa	-40
ell	-41
uo	-42
er	-43
un	-44
▁r	-45
▁a	-46
▁hän	-47
▁ta	-48
il	-49
utta	-50
▁M	-51
iin	-52
us	-53
▁ka	-54
▁T	-55
uk	-56
ul	-57
ur	-58
▁va	-59
yt	-60
lla	-61
mme	-62
ko	-63
im	-64
▁jo	-65
▁ol	-66
▁S	-67
ää	-68
▁vi	-69
tu	-70
ma	-71
NI	-72
pa	-73
ke	-74
▁mi	-75
▁K	-76
▁o	-77
ät	-78
ir	-79
▁tä	-80
uh	-81
▁on	-82
ksi	-83
▁y	-84
kin	-85
ki	-86
tel	-87
▁pa	-88
ään	-89
eh	-90
ill	-91
▁se	-92
HA	-93
UHA	-94
UHANI	-95
▁JUHANI	-96
to	-97
inä	-98
een	-99
pä	-100
asta	-101
▁Mutta	-102
ja	-103
va	-104
ivat	-105
inen	-106
os	-107
▁kuin	-108
▁A	-109
ista	-110
lle	-111
äs	-112
ten	-113
ih	-114
ks	-115
hd	-116
oi	-117
▁niin	-118
▁he	-119
ty	-120
▁E	-121
▁si	-122
▁H	-123
ansa	-124
äh	-125
▁N	-126
▁ha	-127
▁sa	-128
▁la	-129
uu	-130
ee	-131
▁et	-132
▁ki	-133
elj	-134
yö	-135
yn	-136
llä	-137
oin	-138
em	-139
▁oli	-140
▁tuo	-141
ys	-142
asti	-143
▁en	-144
isen	-145
▁to	-146
▁V	-147
▁nyt	-148
ku	-149
itä	-150
ia	-151
▁mutta	-152
assa	-153
IM	-154
ellä	-155
its	-156
ilm	-157
▁kä	-158
▁as	-159
ein	-160
▁po	-161
kaa	-162
▁hei	-163
dän	-164
ina	-165
tan	-166
▁ei	-167
▁velj	-168
elä	-169
ot	-170
istä	-171
▁pää	-172
pp	-173
▁L	-174
maan	-175
kaan	-176
▁hänen	-177
ien	-178
▁tu	-179
oit	-180
vat	-181
mä	-182
err	-183
▁ma	-184
▁ra	-185
änsä	-186
äl	-187
te	-188
taa	-189
isi	-190
ri	-191
▁mu	-192
▁is	-193
▁kos	-194
▁Ja	-195
▁kaik	-196
är	-197
▁O	-198
▁kat	-199
▁kor	-200
▁su	-201
▁mei	-202
▁tul	-203
▁Niin	-204
▁joka	-205
ella	-206
ne	-207
▁e	-208
▁ky	-209
--	-210
▁san	-211
essa	-212
la	-213
ist	-214
AP	-215
ellen	-216
tiin	-217
ssa	-218
▁kan	-219
▁että	-220
APO	-221
▁AAPO	-222
▁sy	-223
▁nä	-224
kä	-225
▁hu	-226
teli	-227
▁P	-228
hden	-229
uri	-230
▁vaan	-231
▁vielä	-232
▁pä	-233
ev	-234
kel	-235
ön	-236
▁mieh	-237
aan	-238
▁minä	-239
▁sen	-240
ken	-241
▁ti	-242
▁»	-243
▁kir	-244
ui	-245
pe	-246
kas	-247
▁na	-248
elle	-249
ivät	-250
issa	-251
han	-252
uhan	-253
ssä	-254
▁koska	-255
IMO	-256
illä	-257
tui	-258
ukol	-259
ua	-260
▁taas	-261
issä	-262
koon	-263
usta	-264
▁kar	-265
▁TIMO	-266
eni	-267
▁pi	-268
alla	-269
yr	-270
.--	-271
eks	-272
lta	-273
▁koh	-274
ana	-275
uks	-276
▁lu	-277
vät	-278
MA	-279
essä	-280
▁pu	-281
aar	-282
▁kats	-283
mp	-284
▁yl	-285
erran	-286
▁heidän	-287
ime	-288
▁kun	-289
▁mies	-290
▁aina	-291
▁an	-292
▁ju	-293
MAS	-294
den	-295
UO	-296
▁TUO	-297
▁TUOMAS	-298
ha	-299
▁its	-300
▁var	-301
▁vuo	-302
iksi	-303
▁al	-304
▁il	-305
▁met	-306
▁sin	-307
mi	-308
yös	-309
▁päiv	-310
vä	-311
eli	-312
▁yh	-313
▁silm	-314
kar	-315
uom	-316
▁seis	-317
ises	-318
▁par	-319
dä	-320
isin	-321
oa	-322
▁lä	-323
▁te	-324
ensä	-325
▁tal	-326
IME	-327
kö	-328
ONI	-329
▁SIME	-330
▁SIMEONI	-331
emme	-332
iten	-333
taan	-334
▁min	-335
▁ih	-336
kk	-337
tää	-338
▁läh	-339
▁Juhan	-340
hän	-341
▁tar	-342
▁I	-343
nen	-344
▁tämä	-345
▁Jukol	-346
stä	-347
▁har	-348
imein	-349
ikä	-350
iinä	-351
▁maa	-352
vin	-353
▁ä	-354
▁jos	-355
▁Ka	-356
illoin	-357
ita	-358
po	-359
kuin	-360
▁veljeks	-361
män	-362
▁myös	-363
ER	-364
una	-365
kea	-366
ässä	-367
▁sinä	-368
▁vasta	-369
eksi	-370
vi	-371
kää	-372
eet	-373
van	-374
▁kaikki	-375
ky	-376
na	-377
▁le	-378
▁lo	-379
▁kuul	-380
ällä	-381
▁per	-382
ERO	-383
man	-384
▁hy	-385
▁EERO	-386
jan	-387
atta	-388
▁men	-389
▁oik	-390
▁mitä	-391
▁li	-392
▁tie	-393
▁viimein	-394
▁ilm	-395
▁val	-396
▁veljekset	-397
emm	-398
▁tässä	-399
▁no	-400
▁hi	-401
ensa	-402
kka	-403
ikka	-404
mis	-405
▁Ol	-406
imo	-407
uma	-408
estä	-409
mpä	-410
itten	-411
▁niinkuin	-412
▁ul	-413
▁ään	-414
isesti	-415
lan	-416
▁La	-417
▁ar	-418
ve	-419
ös	-420
▁kerran	-421
ip	-422
tti	-423
▁hir	-424
▁van	-425
yy	-426
▁kau	-427
al	-428
▁ri	-429
▁ver	-430
▁miel	-431
▁ympä	-432
▁taasen	-433
ika	-434
▁kohden	-435
or	-436
öy	-437
emän	-438
esta	-439
▁kas	-440
isti	-441
▁kuiten	-442
oni	-443
▁pit	-444
▁häntä	-445
me	-446
▁Minä	-447
ero	-448
▁ah	-449
oika	-450
ukko	-451
▁kyl	-452
tansa	-453
oh	-454
▁Aa	-455
ille	-456
mmen	-457
▁pien	-458
iä	-459
▁jon	-460
asi	-461
kan	-462
ois	-463
▁alas	-464
▁Juhani	-465
ni	-466
oim	-467
▁us	-468
▁Mitä	-469
illa	-470
▁Hän	-471
▁käy	-472
▁meitä	-473
iset	-474
emaan	-475
▁me	-476
▁tei	-477
uor	-478
▁kiv	-479
▁kur	-480
▁taiv	-481
tö	-482
▁ylös	-483
▁pal	-484
▁pel	-485
▁tai	-486
▁Juma	-487
▁ru	-488
etta	-489
▁saa	-490
▁Jukolan	-491
ar	-492
mu	-493
uka	-494
inn	-495
▁puol	-496
▁ennen	-497
äär	-498
▁luk	-499
kon	-500
▁miehen	-501
jat	-502
eltä	-503
▁syn	-504
▁itse	-505
▁juuri	-506
▁teh	-507
▁Timo	-508
änä	-509
▁kuitenkin	-510
yh	-511
▁juo	-512
telivat	-513
RI	-514
oo	-515
urin	-516
▁ole	-517
oitta	-518
kaamme	-519
llut	-520
▁hel	-521
uuta	-522
▁siinä	-523
▁het	-524
▁puh	-525
▁pian	-526
kään	-527
telee	-528
tun	-529
llis	-530
osta	-531
▁ker	-532
▁kes	-533
toi	-534
▁pir	-535
▁Sime	-536
▁siitä	-537
hti	-538
jen	-539
▁aa	-540
▁ot	-541
ossa	-542
▁vas	-543
▁muut	-544
ea	-545
mään	-546
▁Eero	-547
eit	-548
nyt	-549
uun	-550
▁mon	-551
▁ter	-552
▁silloin	-553
tin	-554
▁kol	-555
▁kuu	-556
▁tun	-557
▁jonka	-558
AU	-559
».	-560
▁ni	-561
▁kour	-562
▁hä	-563
olla	-564
ästä	-565
▁kul	-566
▁heitä	-567
▁metsä	-568
▁sitten	-569
▁Se	-570
▁Vi	-571
ähän	-572
uksen	-573
▁istu	-574
▁sillä	-575
▁täällä	-576
▁R	-577
sin	-578
▁un	-579
▁sitä	-580
▁poika	-581
▁oikein	-582
tyi	-583
ettu	-584
oja	-585
sta	-586
▁Si	-587
▁ed	-588
▁eh	-589
▁här	-590
ettiin	-591
ästi	-592
▁seur	-593
▁voim	-594
iva	-595
isten	-596
▁laus	-597
▁ulos	-598
ven	-599
tään	-600
▁tämän	-601
▁vaikka	-602
▁vastaan	-603
ats	-604
▁väl	-605
sivat	-606
▁kohta	-607
▁kanssa	-608
kko	-609
▁Ta	-610
▁koir	-611
nä	-612
▁er	-613
kki	-614
AURI	-615
kaat	-616
▁olen	-617
▁LAURI	-618
▁kuinka	-619
pi	-620
ppa	-621
ikko	-622
▁pys	-623
▁kuol	-624
mät	-625
mpiv	-626
valla	-627
▁kaksi	-628
mpivaar	-629
▁tuolla	-630
ij	-631
mma	-632
ikki	-633
▁kil	-634
▁saat	-635
▁sydä	-636
ud	-637
keä	-638
uomas	-639
▁Impivaar	-640
ittä	-641
▁mat	-642
▁vil	-643
▁Aapo	-644
▁ympär	-645
▁tuossa	-646
isk	-647
pah	-648
äni	-649
onsa	-650
▁hal	-651
▁vuor	-652
uud	-653
▁ve	-654
ulta	-655
isa	-656
▁Ku	-657
▁pol	-658
▁U	-659
ili	-660
tta	-661
▁Ei	-662
▁so	-663
eman	-664
lloin	-665
▁pois	-666
eil	-667
jaa	-668
▁uh	-669
▁siellä	-670
ra	-671
ani	-672
uko	-673
teen	-674
iseen	-675
sansa	-676
men	-677
tuu	-678
▁elä	-679
itsemän	-680
nut	-681
ussa	-682
▁Sen	-683
▁kon	-684
käämme	-685
vo	-686
▁mä	-687
▁ain	-688
▁vih	-689
▁vir	-690
▁jota	-691
▁Lauri	-692
uta	-693
▁Ko	-694
yttä	-695
▁aat	-696
▁käs	-697
▁mikä	-698
▁rupe	-699
▁tahd	-700
▁meille	-701
▁On	-702
▁re	-703
mmin	-704
▁nuor	-705
▁tuon	-706
llinen	-707
▁seiso	-708
▁toinen	-709
▁Simeoni	-710
ikk	-711
kien	-712
änne	-713
▁suo	-714
tanut	-715
tänsä	-716
▁ilman	-717
maa	-718
▁En	-719
oita	-720
▁lei	-721
▁tur	-722
emmin	-723
▁minun	-724
▁muuta	-725
▁päivä	-726
vän	-727
iska	-728
▁kys	-729
▁lap	-730
esten	-731
▁yksi	-732
tia	-733
ula	-734
▁Tul	-735
▁jäl	-736
▁korke	-737
▁kovin	-738
▁To	-739
kasi	-740
köön	-741
▁Tuo	-742
▁läksi	-743
▁seitsemän	-744
pu	-745
sia	-746
tka	-747
tom	-748
▁el	-749
▁pyö	-750
▁tah	-751
vasti	-752
▁aika	-753
▁huom	-754
▁näin	-755
▁suur	-756
ah	-757
▁Tä	-758
että	-759
keli	-760
Mutta	-761
▁Tuomas	-762
ro	-763
nsa	-764
▁Ah	-765
▁lih	-766
▁pil	-767
easti	-768
istel	-769
oilla	-770
sivät	-771
▁alla	-772
▁kiir	-773
▁kunn	-774
▁Impivaaran	-775
ju	-776
lä	-777
kee	-778
▁lö	-779
▁yö	-780
▁jär	-781
▁poik	-782
▁olivat	-783
▁Silloin	-784
▁Va	-785
▁nu	-786
ppas	-787
▁jal	-788
▁sel	-789
▁astu	-790
▁vall	-791
▁Siinä	-792
mmä	-793
pää	-794
itti	-795
siin	-796
unsa	-797
▁haa	-798
▁luo	-799
▁mur	-800
eeksi	-801
matta	-802
▁taka	-803
▁ukko	-804
▁minua	-805
▁tapah	-806
usi	-807
änn	-808
▁No	-809
sien	-810
▁hen	-811
▁karh	-812
▁jossa	-813
▁taivaan	-814
toa	-815
▁kr	-816
olan	-817
▁asi	-818
▁haas	-819
▁sydäm	-820
hin	-821
lli	-822
▁Ki	-823
etty	-824
kein	-825
▁hirmu	-826
▁kyllä	-827
ör	-828
▁Ä	-829
tei	-830
vet	-831
mieh	-832
▁kal	-833
▁nah	-834
▁nim	-835
▁toiv	-836
▁maailm	-837
yä	-838
iden	-839
ukku	-840
▁Nyt	-841
▁ankar	-842
▁jotka	-843
▁sinun	-844
▁tästä	-845
▁hänelle	-846
oon	-847
ehti	-848
kkaa	-849
▁emän	-850
▁sekä	-851
▁viin	-852
jä	-853
osi	-854
pas	-855
▁pe	-856
erra	-857
ihin	-858
ikku	-859
isto	-860
ukka	-861
ulle	-862
▁pah	-863
oista	-864
▁huol	-865
▁huon	-866
▁kiin	-867
▁rauh	-868
▁pojat	-869
▁vähän	-870
▁meidän	-871
▁seisoi	-872
▁takaisin	-873
KK	-874
▁u	-875
dät	-876
▁ke	-877
▁py	-878
▁ty	-879
imme	-880
▁kyn	-881
▁sur	-882
isena	-883
▁ovat	-884
isella	-885
▁viime	-886
▁ympäri	-887
▁veljesten	-888
ann	-889
var	-890
yks	-891
esty	-892
▁arm	-893
▁huo	-894
oinen	-895
▁juur	-896
▁käys	-897
▁eteen	-898
▁olkoon	-899
▁veljet	-900
!»	-901
..	-902
▁ne	-903
▁sis	-904
kisti	-905
▁kauh	-906
▁mets	-907
▁niit	-908
isimme	-909
▁talon	-910
▁Toukol	-911
kun	-912
tän	-913
vaa	-914
ves	-915
▁las	-916
▁olis	-917
▁tuul	-918
▁täyt	-919
▁ihmis	-920
▁istui	-921
▁katso	-922
▁raken	-923
▁tuota	-924
▁vasten	-925
▁Jumalan	-926
▁milloin	-927
»,	-928
▁Y	-929
hta	-930
iko	-931
jon	-932
neet	-933
ottu	-934
▁ent	-935
▁pih	-936
▁ret	-937
▁tem	-938
llansa	-939
tähden	-940
▁ollut	-941
▁sinua	-942
eva	-943
ker	-944
▁it	-945
eitä	-946
ulla	-947
▁Kas	-948
▁muo	-949
▁tus	-950
tunut	-951
▁eikä	-952
▁viha	-953
▁Jumala	-954
▁pitkin	-955
too	-956
▁tuu	-957
▁pyör	-958
▁tuli	-959
▁kauan	-960
▁yhtään	-961
ert	-962
ike	-963
onn	-964
par	-965
etti	-966
ikin	-967
▁ihm	-968
▁lev	-969
▁mar	-970
▁pur	-971
▁tan	-972
llista	-973
▁hetken	-974
▁päästä	-975
mat	-976
eita	-977
ussi	-978
▁Kats	-979
▁äänet	-980
▁heille	-981
ess	-982
▁vä	-983
ikaa	-984
utti	-985
▁Ven	-986
▁kär	-987
▁mer	-988
▁näh	-989
▁poh	-990
▁ruo	-991
▁tot	-992
vassa	-993
▁pirt	-994
▁päät	-995
▁Viert	-996
▁tuosta	-997
▁He	-998
käät	-999
▁her	-1000
▁ken	-1001
▁pöy	-1002
kkaan	-1003
oissa	-1004
▁jälj	-1005
▁laps	-1006
▁noin	-1007
▁josta	-1008
▁Herran	-1009
▁hieman	-1010
▁olemme	-1011
ulu	-1012
▁pö	-1013
isia	-1014
▁Men	-1015
▁kaa	-1016
▁löy	-1017
▁voi	-1018
▁luul	-1019
▁menn	-1020
▁pitä	-1021
▁rien	-1022
▁samm	-1023
▁usein	-1024
▁äkisti	-1025
uhd	-1026
uus	-1027
yrs	-1028
▁jä	-1029
alle	-1030
ihen	-1031
itty	-1032
kais	-1033
ystä	-1034
▁Voi	-1035
▁jyr	-1036
▁nur	-1037
isenä	-1038
▁asia	-1039
▁ruko	-1040
▁Tässä	-1041
▁silmät	-1042
▁Juhanin	-1043
▁maailman	-1044
stu	-1045
▁jy	-1046
päin	-1047
▁aap	-1048
▁hur	-1049
▁kuo	-1050
▁syö	-1051
▁työ	-1052
▁yli	-1053
oitti	-1054
▁ensi	-1055
▁kään	-1056
▁siis	-1057
▁enään	-1058
▁sanon	-1059
▁lausui	-1060
▁koreasti	-1061
ast	-1062
haa	-1063
▁Sa	-1064
▁ruu	-1065
▁tyt	-1066
pulta	-1067
▁koko	-1068
▁kuus	-1069
▁kysy	-1070
▁aurin	-1071
▁katsel	-1072
▁rupesi	-1073
▁seisoivat	-1074
kku	-1075
nus	-1076
utu	-1077
tana	-1078
uden	-1079
▁naa	-1080
▁sun	-1081
▁vis	-1082
▁väh	-1083
mättä	-1084
▁Sinä	-1085
▁asti	-1086
▁yhtä	-1087
▁meillä	-1088
▁seuraa	-1089
▁äänellä	-1090
eä	-1091
käl	-1092
mpa	-1093
oks	-1094
tua	-1095
▁Mu	-1096
vana	-1097
▁Aap	-1098
▁sar	-1099
▁tor	-1100
▁äit	-1101
tänyt	-1102
▁ihan	-1103
▁olet	-1104
▁pääs	-1105
▁siir	-1106
▁taid	-1107
▁Miksi	-1108
▁suuri	-1109
▁tänne	-1110
▁päälle	-1111
KKO	-1112
hon	-1113
iks	-1114
imä	-1115
iss	-1116
kiv	-1117
töm	-1118
vää	-1119
yvä	-1120
▁Ky	-1121
▁os	-1122
isko	-1123
itsi	-1124
otta	-1125
ähti	-1126
▁käd	-1127
▁kein	-1128
iseksi	-1129
▁kolme	-1130
▁miestä	-1131
▁päivän	-1132
▁toisen	-1133
▁enemmin	-1134
llö	-1135
mpi	-1136
ppi	-1137
evan	-1138
ilta	-1139
inka	-1140
itta	-1141
päiv	-1142
tele	-1143
unut	-1144
▁olla	-1145
▁peit	-1146
llisen	-1147
▁astui	-1148
▁tällä	-1149
▁tähden	-1150
▁kohtaan	-1151
nan	-1152
uva	-1153
vas	-1154
vel	-1155
via	-1156
▁Hi	-1157
▁tö	-1158
olta	-1159
ynyt	-1160
▁mel	-1161
▁pan	-1162
▁pro	-1163
▁ran	-1164
▁rin	-1165
iston	-1166
▁Tämä	-1167
▁aino	-1168
▁kaat	-1169
▁korv	-1170
▁löyt	-1171
▁pell	-1172
▁toim	-1173
▁vier	-1174
isesta	-1175
▁kulta	-1176
▁heistä	-1177
▁itsensä	-1178
▁silmänsä	-1179
id	-1180
don	-1181
kis	-1182
kyi	-1183
ltä	-1184
uusi	-1185
▁Val	-1186
▁kah	-1187
▁mun	-1188
▁por	-1189
▁sor	-1190
▁tuh	-1191
▁yhä	-1192
▁pain	-1193
▁pais	-1194
▁usko	-1195
▁vanh	-1196
astaan	-1197
isessa	-1198
▁ettei	-1199
▁hirve	-1200
▁nahka	-1201
▁pysty	-1202
▁teitä	-1203
▁valta	-1204
▁kiinni	-1205
▁vallan	-1206
istellen	-1207
jän	-1208
kiä	-1209
pin	-1210
ppä	-1211
▁aj	-1212
▁ho	-1213
▁äl	-1214
eija	-1215
itte	-1216
mäen	-1217
ältä	-1218
▁hil	-1219
▁kut	-1220
mista	-1221
▁haar	-1222
▁koiv	-1223
▁nous	-1224
▁pime	-1225
▁pyss	-1226
▁siel	-1227
▁tuim	-1228
▁viip	-1229
asivat	-1230
▁Siitä	-1231
▁tietä	-1232
▁vanha	-1233
▁kymmen	-1234
▁lukkar	-1235
▁meistä	-1236
▁tahdon	-1237
le	-1238
ksa	-1239
net	-1240
▁An	-1241
▁Ra	-1242
kari	-1243
▁San	-1244
▁kie	-1245
▁lie	-1246
▁näl	-1247
▁äär	-1248
▁hyvä	-1249
▁isän	-1250
▁laul	-1251
▁maan	-1252
▁tien	-1253
▁eivät	-1254
▁sanoi	-1255
▁sydän	-1256
▁edessä	-1257
▁kaiken	-1258
▁lopulta	-1259
▁lähesty	-1260
EL	-1261
li	-1262
laa	-1263
ola	-1264
▁ry	-1265
ikon	-1266
ppel	-1267
▁kel	-1268
▁kät	-1269
▁syl	-1270
▁tyh	-1271
▁vie	-1272
▁Sitä	-1273
▁käyt	-1274
▁vaik	-1275
oittaa	-1276
▁lähte	-1277
▁emäntä	-1278
▁korkea	-1279
▁paljon	-1280
▁vuoren	-1281
yi	-1282
ilee	-1283
mies	-1284
olle	-1285
paan	-1286
unta	-1287
äksi	-1288
▁Oli	-1289
▁aiv	-1290
▁jää	-1291
▁ras	-1292
▁vah	-1293
masta	-1294
▁päin	-1295
▁rinn	-1296
▁sano	-1297
▁monta	-1298
▁juoksi	-1299
▁siihen	-1300
lo	-1301
ssi	-1302
uja	-1303
uon	-1304
▁Nä	-1305
▁sä	-1306
alta	-1307
ilma	-1308
kana	-1309
toon	-1310
▁kiu	-1311
▁mus	-1312
▁sav	-1313
▁Älä	-1314
emään	-1315
hteli	-1316
oikaa	-1317
ralla	-1318
tonsa	-1319
uteen	-1320
äänsä	-1321
▁heit	-1322
▁hull	-1323
▁kann	-1324
▁oike	-1325
▁vuod	-1326
iselle	-1327
▁Sillä	-1328
▁hampa	-1329
▁juoks	-1330
▁nousi	-1331
▁kautta	-1332
▁miehet	-1333
▁muista	-1334
▁päässä	-1335
▁sammal	-1336
▁koskaan	-1337
▁läksivät	-1338
▁ympärillä	-1339
kut	-1340
tyä	-1341
▁at	-1342
▁oh	-1343
aten	-1344
isiä	-1345
itse	-1346
mmär	-1347
▁ilo	-1348
▁len	-1349
▁pus	-1350
kivät	-1351
lleen	-1352
▁huut	-1353
▁kier	-1354
▁koto	-1355
▁kuts	-1356
▁käsi	-1357
▁naur	-1358
▁vain	-1359
▁Mikko	-1360
▁katsa	-1361
▁leima	-1362
▁musta	-1363
▁pieni	-1364
▁tuhan	-1365
▁tulee	-1366
▁valke	-1367
▁Niinpä	-1368
▁Simeon	-1369
▁pirtti	-1370
▁tuskin	-1371
▁ensimmä	-1372
▁minäkin	-1373
▁veljeni	-1374
▁astuivat	-1375
▁Viertolan	-1376
kat	-1377
mpp	-1378
paa	-1379
▁Hä	-1380
isty	-1381
omme	-1382
osin	-1383
tani	-1384
uori	-1385
▁juh	-1386
▁rak	-1387
▁syv	-1388
▁yön	-1389
jasti	-1390
▁hell	-1391
▁kiit	-1392
▁kiiv	-1393
▁kohd	-1394
▁määr	-1395
▁veli	-1396
teeksi	-1397
▁esiin	-1398
▁monen	-1399
kasivat	-1400
telivät	-1401
▁tiedän	-1402
▁toista	-1403
telemaan	-1404
▁saattoi	-1405
▁istuivat	-1406
▁Sentähden	-1407
ss	-1408
ÄK	-1409
!--	-1410
ELÄ	-1411
ata	-1412
kit	-1413
kos	-1414
pun	-1415
ton	-1416
▁Et	-1417
▁ir	-1418
elta	-1419
ihän	-1420
isev	-1421
koit	-1422
miin	-1423
mman	-1424
unan	-1425
▁Eer	-1426
▁MÄK	-1427
▁aam	-1428
▁lat	-1429
▁pun	-1430
▁tee	-1431
ettaa	-1432
jansa	-1433
llöin	-1434
massa	-1435
▁kiel	-1436
▁kyyn	-1437
▁lopp	-1438
▁saar	-1439
▁vaka	-1440
▁Venla	-1441
▁hyvin	-1442
▁kruun	-1443
▁peija	-1444
▁Kaikki	-1445
▁MÄKELÄ	-1446
▁helvet	-1447
▁perkel	-1448
▁seisoo	-1449
▁melkein	-1450
▁muutoin	-1451
▁tällöin	-1452
▁Toukolan	-1453
hen	-1454
ila	-1455
yyd	-1456
▁LU	-1457
▁or	-1458
▁rä	-1459
evat	-1460
haan	-1461
kkin	-1462
▁akk	-1463
▁hev	-1464
▁myö	-1465
▁pos	-1466
▁raa	-1467
kellä	-1468
telet	-1469
vasta	-1470
▁arma	-1471
▁atri	-1472
▁pauh	-1473
▁saan	-1474
▁talo	-1475
▁tarv	-1476
▁vaar	-1477
▁ystä	-1478
keasti	-1479
ännist	-1480
oittava	-1481
▁Olkoon	-1482
▁kuului	-1483
▁sisään	-1484
▁teille	-1485
▁maailma	-1486
▁tavalla	-1487
▁ympärill	-1488
▁ainoastaan	-1489
ian	-1490
iti	-1491
kus	-1492
mmi	-1493
non	-1494
oka	-1495
peä	-1496
ren	-1497
siä	-1498
yyt	-1499
▁Te	-1500
asen	-1501
aton	-1502
empi	-1503
enpa	-1504
keil	-1505
ohta	-1506
▁Jos	-1507
▁yhd	-1508
poika	-1509
uttaa	-1510
▁Mikä	-1511
▁Raja	-1512
▁UKKO	-1513
▁ehkä	-1514
▁ehti	-1515
▁jout	-1516
▁kasv	-1517
▁löyl	-1518
▁nelj	-1519
▁paik	-1520
▁kauas	-1521
▁lausu	-1522
▁lihaa	-1523
▁miksi	-1524
▁tehty	-1525
▁tyttö	-1526
▁vaimo	-1527
▁voima	-1528
▁ymmär	-1529
▁Jukola	-1530
▁lakkaa	-1531
▁sammale	-1532
▁kourassa	-1533
▁provasti	-1534
he	-1535
ass	-1536
uut	-1537
▁ny	-1538
illi	-1539
ähtä	-1540
▁hon	-1541
▁lik	-1542
▁pee	-1543
▁suk	-1544
▁tuk	-1545
estyi	-1546
jasta	-1547
▁Kiis	-1548
▁Tuli	-1549
▁heng	-1550
▁myrs	-1551
▁oiva	-1552
ilivat	-1553
isteli	-1554
miehen	-1555
▁askel	-1556
▁elämä	-1557
▁herra	-1558
▁konti	-1559
▁kunnes	-1560
▁pienen	-1561
▁pöydän	-1562
▁aurinko	-1563
▁lukkari	-1564
▁metsien	-1565
▁päivänä	-1566
▁lakkaamatta	-1567
LA	-1568
...	-1569
kal	-1570
saa	-1571
ter	-1572
ynn	-1573
▁my	-1574
▁ro	-1575
joit	-1576
poik	-1577
usti	-1578
yssä	-1579
ytti	-1580
▁jän	-1581
▁älä	-1582
aikaa	-1583
eilla	-1584
istaa	-1585
kassa	-1586
▁Pois	-1587
▁linn	-1588
▁pala	-1589
▁tall	-1590
▁teke	-1591
tuivat	-1592
▁Eihän	-1593
▁Herra	-1594
▁erään	-1595
▁oikea	-1596
▁olisi	-1597
▁pääll	-1598
▁silmä	-1599
▁sovin	-1600
▁tiedä	-1601
▁Siellä	-1602
▁koirat	-1603
▁leikki	-1604
▁taivas	-1605
▁teidän	-1606
▁tullut	-1607
llisesti	-1608
▁hänellä	-1609
▁käyskel	-1610
▁kiirehti	-1611
▁tapahtui	-1612
▁tuolloin	-1613
▁eteenpäin	-1614
ie	-1615
uv	-1616
öt	-1617
▁i	-1618
pit	-1619
riä	-1620
sil	-1621
▁Il	-1622
▁kö	-1623
iltä	-1624
isee	-1625
veli	-1626
▁irv	-1627
▁när	-1628
▁oma	-1629
▁taa	-1630
▁tär	-1631
illen	-1632
jassa	-1633
uuden	-1634
▁Tamm	-1635
▁kerr	-1636
▁kova	-1637
▁lain	-1638
▁leiv	-1639
▁onpa	-1640
▁puna	-1641
▁teki	-1642
▁vaip	-1643
▁vihd	-1644
▁viis	-1645
▁yhte	-1646
▁ääni	-1647
iskeli	-1648
llensa	-1649
mmentä	-1650
▁Jussi	-1651
▁ainoa	-1652
▁kalli	-1653
▁taida	-1654
▁tulta	-1655
▁vauhd	-1656
▁verta	-1657
▁asteli	-1658
▁makasi	-1659
▁sieltä	-1660
▁härkien	-1661
▁parasta	-1662
▁vauhdilla	-1663
?»	-1664
IS	-1665
emp	-1666
ipp	-1667
kir	-1668
ttu	-1669
vea	-1670
yhä	-1671
▁ik	-1672
Niin	-1673
jaan	-1674
täni	-1675
önnä	-1676
▁amp	-1677
▁huh	-1678
▁mol	-1679
▁ryn	-1680
▁uud	-1681
itsee	-1682
jalla	-1683
minen	-1684
äällä	-1685
▁Kuul	-1686
▁ahon	-1687
▁kumm	-1688
▁laat	-1689
▁otsa	-1690
▁selj	-1691
▁tava	-1692
▁tyyn	-1693
essaan	-1694
tamaan	-1695
▁hetki	-1696
▁kappa	-1697
▁kissa	-1698
▁kumma	-1699
▁kunni	-1700
▁muist	-1701
▁paken	-1702
▁tahto	-1703
ellensä	-1704
illansa	-1705
▁aholla	-1706
▁kunnia	-1707
▁poikaa	-1708
▁riivat	-1709
▁tiellä	-1710
▁viinaa	-1711
▁katseli	-1712
▁vihdoin	-1713
▁Rajamäen	-1714
▁veljeksi	-1715
▁katsellen	-1716
▁rupesivat	-1717
▁kuitenkaan	-1718
evä	-1719
kkä	-1720
mar	-1721
pen	-1722
tit	-1723
▁mö	-1724
ksin	-1725
kuun	-1726
meen	-1727
oksi	-1728
ppäs	-1729
uuri	-1730
vaan	-1731
▁Oik	-1732
▁Poh	-1733
▁Tim	-1734
▁sat	-1735
▁sul	-1736
▁vin	-1737
eessa	-1738
ellut	-1739
iskir	-1740
kseen	-1741
nunta	-1742
ukana	-1743
uksia	-1744
äinen	-1745
▁eräs	-1746
▁huul	-1747
▁kell	-1748
▁kuiv	-1749
▁kyll	-1750
▁näki	-1751
▁pöll	-1752
▁riem	-1753
inkaan	-1754
sinkin	-1755
▁Valko	-1756
▁antoi	-1757
▁halki	-1758
▁nukku	-1759
▁onnen	-1760
▁rauha	-1761
▁synty	-1762
▁terve	-1763
▁Oikein	-1764
▁metsän	-1765
▁mukaan	-1766
▁jälleen	-1767
▁kruunun	-1768
▁lähellä	-1769
▁sinulle	-1770
▁kymmenen	-1771
▁rauhassa	-1772
ele	-1773
ema	-1774
käs	-1775
raa	-1776
ret	-1777
tet	-1778
▁op	-1779
atto	-1780
kevä	-1781
kkar	-1782
llan	-1783
osti	-1784
vien	-1785
▁Kar	-1786
▁Var	-1787
▁esi	-1788
▁hyv	-1789
▁laa	-1790
▁lyh	-1791
▁nyr	-1792
▁täh	-1793
ittää	-1794
kalta	-1795
telin	-1796
▁Mene	-1797
▁Velj	-1798
▁emme	-1799
▁huud	-1800
▁ilma	-1801
▁keit	-1802
▁kuor	-1803
▁lepä	-1804
▁rats	-1805
▁tuij	-1806
▁vaat	-1807
▁vaih	-1808
isivat	-1809
tyivät	-1810
▁Kaisa	-1811
▁autta	-1812
▁eihän	-1813
▁ensin	-1814
▁huusi	-1815
▁jalka	-1816
▁joita	-1817
▁kanta	-1818
▁kanto	-1819
▁parha	-1820
▁sanot	-1821
▁sinne	-1822
▁suden	-1823
▁tukka	-1824
▁tähän	-1825
illensa	-1826
istansa	-1827
▁Laurin	-1828
▁kallis	-1829
▁kirves	-1830
▁päivää	-1831
▁yhteen	-1832
ännistön	-1833
▁ilmassa	-1834
▁ääressä	-1835
▁kuoleman	-1836
▁käyskeli	-1837
▁lukkarin	-1838
▁riensivät	-1839
jo	-1840
mo	-1841
ps	-1842
se	-1843
▁ö	-1844
ikö	-1845
itt	-1846
kia	-1847
kyn	-1848
tar	-1849
val	-1850
▁Pa	-1851
▁So	-1852
▁vo	-1853
atti	-1854
ikea	-1855
keen	-1856
otti	-1857
tuen	-1858
uksi	-1859
▁hyö	-1860
▁lyö	-1861
▁mie	-1862
▁opp	-1863
▁pen	-1864
▁pov	-1865
▁ryy	-1866
▁sai	-1867
▁son	-1868
attom	-1869
istää	-1870
kasti	-1871
uivat	-1872
▁auta	-1873
▁eipä	-1874
▁lieh	-1875
▁moni	-1876
▁nähd	-1877
▁syks	-1878
tuansa	-1879
▁Kyllä	-1880
▁hevos	-1881
▁joulu	-1882
▁kerto	-1883
▁kirja	-1884
▁kiven	-1885
▁nytpä	-1886
▁nälkä	-1887
▁onnet	-1888
▁perin	-1889
▁sanaa	-1890
▁tekee	-1891
▁uhkea	-1892
itellen	-1893
▁Kiiski	-1894
▁ankara	-1895
▁kartan	-1896
▁maahan	-1897
▁mennyt	-1898
▁mitään	-1899
▁päällä	-1900
▁rukoil	-1901
▁tehnyt	-1902
▁tuumis	-1903
▁Toukola	-1904
▁huomasi	-1905
▁aapiskir	-1906
▁haasteli	-1907
▁sunnunta	-1908
▁totisesti	-1909
ees	-1910
ima	-1911
imp	-1912
pes	-1913
uni	-1914
viä	-1915
▁Me	-1916
▁om	-1917
anta	-1918
ihan	-1919
imen	-1920
puol	-1921
tuna	-1922
▁Tur	-1923
▁amm	-1924
▁jät	-1925
▁mör	-1926
▁ris	-1927
▁roh	-1928
eille	-1929
eillä	-1930
kasta	-1931
llaan	-1932
▁anta	-1933
▁hong	-1934
▁nauk	-1935
▁neit	-1936
▁piir	-1937
▁väär	-1938
essään	-1939
isellä	-1940
mmasta	-1941
tellen	-1942
ymättä	-1943
▁Hänen	-1944
▁Katso	-1945
▁Onhan	-1946
▁hilja	-1947
▁hullu	-1948
▁juhla	-1949
▁kurja	-1950
▁mieli	-1951
▁pauka	-1952
▁pikku	-1953
▁rynkä	-1954
▁tehdä	-1955
▁tulen	-1956
▁viisa	-1957
▁vuote	-1958
uksessa	-1959
▁jotain	-1960
▁kahden	-1961
▁kiukku	-1962
▁tappel	-1963
▁huoneen	-1964
▁pystyssä	-1965
▁äänettöm	-1966
eta	-1967
gon	-1968
kän	-1969
nin	-1970
▁Us	-1971
▁ap	-1972
kean	-1973
kona	-1974
mänä	-1975
▁Vai	-1976
▁ell	-1977
▁kei	-1978
▁käv	-1979
▁pik	-1980
▁vaa	-1981
ellyt	-1982
etaan	-1983
iksen	-1984
kansa	-1985
kensä	-1986
▁ilta	-1987
▁kesä	-1988
▁liha	-1989
▁meni	-1990
▁terä	-1991
▁vill	-1992
ukseen	-1993
▁Killi	-1994
▁kotia	-1995
▁matka	-1996
▁näkyi	-1997
▁synke	-1998
ellensa	-1999
ellänsä	-2000
▁Kuinka	-2001
▁kaikin	-2002
▁kurkku	-2003
▁kyynel	-2004
▁olutta	-2005
▁päivät	-2006
▁päätti	-2007
▁saanut	-2008
▁takana	-2009
▁tanter	-2010
▁tupaan	-2011
▁vasemm	-2012
▁kaukana	-2013
▁miesten	-2014
▁minulle	-2015
▁Simeonin	-2016
▁muutaman	-2017
▁varsinkin	-2018
ga	-2019
ii	-2020
jas	-2021
ota	-2022
sit	-2023
tal	-2024
uan	-2025
uis	-2026
ääs	-2027
öyr	-2028
▁Is	-2029
▁Ma	-2030
▁av	-2031
▁im	-2032
inut	-2033
kkas	-2034
koja	-2035
ysti	-2036
▁Juh	-2037
▁Kos	-2038
▁han	-2039
▁kam	-2040
▁rus	-2041
▁sät	-2042
▁tut	-2043
▁yht	-2044
kseni	-2045
misen	-2046
peitt	-2047
ukset	-2048
yksen	-2049
▁Anna	-2050
▁Sano	-2051
▁aamu	-2052
▁anna	-2053
▁hien	-2054
▁ihme	-2055
▁juon	-2056
▁kaar	-2057
▁kaul	-2058
▁kieh	-2059
▁loim	-2060
▁luon	-2061
▁puuh	-2062
▁sein	-2063
▁suus	-2064
▁tätä	-2065
ksemme	-2066
▁Eeron	-2067
▁etten	-2068
▁huuta	-2069
▁kukko	-2070
▁kuusi	-2071
▁kysym	-2072
▁maata	-2073
▁missä	-2074
▁olipa	-2075
▁paika	-2076
▁toivo	-2077
▁yhden	-2078
▁äitin	-2079
ellemme	-2080
▁Muista	-2081
▁aatoks	-2082
▁huolim	-2083
▁joukko	-2084
▁kirkas	-2085
▁kirkon	-2086
▁korven	-2087
▁mieles	-2088
▁pahoin	-2089
▁perman	-2090
▁pirtin	-2091
▁saatta	-2092
▁tuonne	-2093
htelivat	-2094
▁Viimein	-2095
▁kauhist	-2096
▁kuolema	-2097
▁matkaan	-2098
▁nuoruka	-2099
▁saattaa	-2100
▁sanottu	-2101
▁tarkoit	-2102
▁vastasi	-2103
▁korvessa	-2104
▁metsissä	-2105
▁peijakas	-2106
▁seisomme	-2107
▁korkealla	-2108
▁korkealle	-2109
rä	-2110
yd	-2111
koi	-2112
mer	-2113
pan	-2114
rii	-2115
vit	-2116
▁ur	-2117
▁är	-2118
▁äs	-2119
ehän	-2120
elin	-2121
htaa	-2122
isku	-2123
kkur	-2124
▁Kir	-2125
▁Kor	-2126
▁Par	-2127
▁aik	-2128
▁hav	-2129
▁ket	-2130
▁kev	-2131
▁leh	-2132
▁luu	-2133
▁ope	-2134
▁ota	-2135
▁pyr	-2136
▁rik	-2137
▁til	-2138
isinä	-2139
uessa	-2140
vella	-2141
▁Kuka	-2142
▁Kyös	-2143
▁haam	-2144
▁hauk	-2145
▁leik	-2146
▁lähd	-2147
▁numm	-2148
▁oman	-2149
▁otti	-2150
▁piti	-2151
▁tänä	-2152
ksensa	-2153
taneet	-2154
tyänsä	-2155
▁Aapon	-2156
▁Juuri	-2157
▁Tosin	-2158
▁aikaa	-2159
▁antaa	-2160
▁harju	-2161
▁ilois	-2162
▁kiiva	-2163
▁kilju	-2164
▁laita	-2165
▁laula	-2166
▁neljä	-2167
▁pitää	-2168
▁puhal	-2169
▁rakka	-2170
▁reuna	-2171
▁saman	-2172
▁uskon	-2173
▁Hiiden	-2174
▁Tuossa	-2175
▁edellä	-2176
▁huomas	-2177
▁kaikui	-2178
▁käynyt	-2179
▁lämmin	-2180
▁miehiä	-2181
▁molemm	-2182
▁myrsky	-2183
▁päähän	-2184
▁rauhan	-2185
▁häneltä	-2186
▁lujasti	-2187
▁metsään	-2188
▁turhaan	-2189
▁suinkaan	-2190
▁Tammiston	-2191
▁sentähden	-2192
▁huolimatta	-2193
▁katselivat	-2194
▁nahkapeitt	-2195
ES	-2196
TT	-2197
um	-2198
?--	-2199
esi	-2200
eti	-2201
imm	-2202
kuu	-2203
mal	-2204
tyy	-2205
vuo	-2206
yys	-2207
ätä	-2208
▁Hy	-2209
▁Tu	-2210
▁ai	-2211
aksi	-2212
ette	-2213
istö	-2214
ittu	-2215
ksen	-2216
llen	-2217
voin	-2218
ättä	-2219
▁Ken	-2220
▁Läh	-2221
▁Ter	-2222
▁ann	-2223
▁jun	-2224
▁mor	-2225
▁ryö	-2226
▁sad	-2227
▁sal	-2228
▁sam	-2229
▁vik	-2230
▁väs	-2231
maksi	-2232
uorin	-2233
vaksi	-2234
▁alle	-2235
▁hous	-2236
▁kaun	-2237
▁koti	-2238
▁naap	-2239
▁näky	-2240
▁pinn	-2241
▁pohj	-2242
▁sama	-2243
▁vaiv	-2244
▁veis	-2245
▁vimm	-2246
atkoon	-2247
haaksi	-2248
inensa	-2249
kellen	-2250
▁Koska	-2251
▁askar	-2252
▁huoka	-2253
▁käydä	-2254
▁lapsi	-2255
▁muori	-2256
▁niska	-2257
▁nuori	-2258
▁pitkä	-2259
▁päätä	-2260
▁sonni	-2261
▁syksy	-2262
▁varto	-2263
▁viisi	-2264
ellinen	-2265
ilemaan	-2266
oittaen	-2267
▁isäntä	-2268
▁lailla	-2269
▁luulen	-2270
▁mielin	-2271
▁niinpä	-2272
▁olalla	-2273
▁säteil	-2274
▁tahdot	-2275
▁täytyy	-2276
▁valkea	-2277
kymmentä	-2278
▁koettaa	-2279
▁kuullut	-2280
▁käymään	-2281
▁myöskin	-2282
▁retkeil	-2283
▁talossa	-2284
▁anteeksi	-2285
▁kourissa	-2286
▁Männistön	-2287
▁astelivat	-2288
▁parhaaksi	-2289
▁äänetönnä	-2290
▁seuraavana	-2291
ak	-2292
ho	-2293
rj	-2294
ARI	-2295
del	-2296
kev	-2297
kul	-2298
las	-2299
oid	-2300
ttä	-2301
uen	-2302
uki	-2303
äss	-2304
▁Mä	-2305
isar	-2306
ukon	-2307
ulan	-2308
ynnä	-2309
ämme	-2310
▁Ole	-2311
▁Sin	-2312
▁jul	-2313
▁nis	-2314
▁osa	-2315
▁peh	-2316
▁pyh	-2317
▁äke	-2318
KKARI	-2319
imäen	-2320
nusta	-2321
päivä	-2322
villa	-2323
▁Ensi	-2324
▁Onpa	-2325
▁avar	-2326
▁hall	-2327
▁hill	-2328
▁iske	-2329
▁iski	-2330
▁kivi	-2331
▁luol	-2332
▁miet	-2333
▁onne	-2334
▁papp	-2335
▁pään	-2336
▁reun	-2337
▁suol	-2338
▁synt	-2339
▁äkeä	-2340
issään	-2341
utteli	-2342
▁Sompi	-2343
▁ellei	-2344
▁eukko	-2345
▁ihana	-2346
▁isänn	-2347
▁koira	-2348
▁pelto	-2349
▁saarn	-2350
▁sauna	-2351
▁tarin	-2352
itenkin	-2353
▁Venlan	-2354
▁huomaa	-2355
▁kiekko	-2356
▁läheni	-2357
▁matkan	-2358
▁nummen	-2359
▁porstu	-2360
▁teemme	-2361
▁tervas	-2362
▁toivon	-2363
▁tuulen	-2364
▁ulkona	-2365
▁LUKKARI	-2366
▁harjoit	-2367
▁hänestä	-2368
▁muistel	-2369
▁taistel	-2370
▁auringon	-2371
▁itseänsä	-2372
▁juurella	-2373
▁kaikkein	-2374
▁lähestyi	-2375
▁miehissä	-2376
▁veljensä	-2377
▁hirmuinen	-2378
▁päällensä	-2379
▁viimeisenä	-2380
Ja	-2381
OLA	-2382
dot	-2383
ile	-2384
jet	-2385
juh	-2386
uti	-2387
▁As	-2388
▁Ha	-2389
▁Hm	-2390
▁Mi	-2391
anen	-2392
atin	-2393
eena	-2394
eeni	-2395
etko	-2396
kaas	-2397
kesi	-2398
kill	-2399
koot	-2400
miel	-2401
tuun	-2402
öits	-2403
▁Kun	-2404
▁Kuo	-2405
▁Tie	-2406
▁keh	-2407
▁kom	-2408
▁kön	-2409
▁lan	-2410
▁lin	-2411
▁läv	-2412
▁put	-2413
▁rah	-2414
▁rav	-2415
▁äij	-2416
ikkuu	-2417
isiin	-2418
iskel	-2419
jaksi	-2420
kkari	-2421
kkoon	-2422
mistä	-2423
mppan	-2424
tettu	-2425
▁Aina	-2426
▁Näin	-2427
▁Seis	-2428
▁Suom	-2429
▁aset	-2430
▁enää	-2431
▁hiko	-2432
▁kiro	-2433
▁kuva	-2434
▁kävi	-2435
▁lumi	-2436
▁lämm	-2437
▁main	-2438
▁nope	-2439
▁sana	-2440
▁tapa	-2441
▁teen	-2442
▁vael	-2443
▁vaim	-2444
▁verr	-2445
peästi	-2446
yyteen	-2447
▁Kaksi	-2448
▁Missä	-2449
▁Tämän	-2450
▁asiaa	-2451
▁asian	-2452
▁hyvää	-2453
▁korva	-2454
▁kukin	-2455
▁mistä	-2456
▁murhe	-2457
▁nimis	-2458
▁noita	-2459
▁paita	-2460
▁pojan	-2461
▁pykäl	-2462
▁ralla	-2463
▁ranga	-2464
▁sielu	-2465
▁tyttä	-2466
▁vihan	-2467
▁ystäv	-2468
astansa	-2469
uttelee	-2470
▁asetti	-2471
▁eräänä	-2472
▁heittä	-2473
▁hiljaa	-2474
▁härjän	-2475
▁härkää	-2476
▁ilmaan	-2477
▁kaatui	-2478
▁kappal	-2479
▁kiinte	-2480
▁kohosi	-2481
▁löytyy	-2482
▁marssi	-2483
▁muiden	-2484
▁mustan	-2485
▁nautti	-2486
▁pelast	-2487
▁poikas	-2488
▁poikia	-2489
▁poikki	-2490
▁saunan	-2491
▁seisah	-2492
▁tarina	-2493
▁tuolta	-2494
▁täynnä	-2495
▁valmis	-2496
▁vietti	-2497
▁vikkel	-2498
▁voimin	-2499
▁Tuomaan	-2500
▁iloinen	-2501
▁kaikkia	-2502
▁kädessä	-2503
▁peeveli	-2504
▁vankkur	-2505
istelivat	-2506
▁hammasta	-2507
▁ihmisten	-2508
▁kaikista	-2509
▁kotiansa	-2510
▁kuluessa	-2511
▁paikalla	-2512
▁peloitta	-2513
▁pirttiin	-2514
▁tuhannen	-2515
▁vieläkin	-2516
▁silloinpa	-2517
▁viimeinen	-2518
▁tapahtunut	-2519
▁vähitellen	-2520
re	-2521
era	-2522
eto	-2523
hda	-2524
hka	-2525
jär	-2526
jät	-2527
kim	-2528
koa	-2529
mär	-2530
rin	-2531
tiä	-2532
ytä	-2533
▁ly	-2534
enna	-2535
mmas	-2536
nään	-2537
tuva	-2538
uvan	-2539
vara	-2540
äten	-2541
▁Jaa	-2542
▁Kol	-2543
▁Teh	-2544
▁ala	-2545
▁arv	-2546
▁huu	-2547
▁län	-2548
▁onn	-2549
▁pin	-2550
▁pot	-2551
▁räh	-2552
▁uun	-2553
▁vel	-2554
eensa	-2555
eskel	-2556
htaen	-2557
isina	-2558
iänsä	-2559
jalle	-2560
janka	-2561
lleet	-2562
parka	-2563
▁Hyvä	-2564
▁Juho	-2565
▁Kuin	-2566
▁Tuon	-2567
▁auka	-2568
▁etsi	-2569
▁heil	-2570
▁häpe	-2571
▁höyr	-2572
▁jouk	-2573
▁kaiv	-2574
▁kama	-2575
▁kons	-2576
▁kuoh	-2577
▁kuum	-2578
▁laki	-2579
▁lämp	-2580
▁myhä	-2581
▁saun	-2582
▁savu	-2583
▁syys	-2584
▁uusi	-2585
▁vala	-2586
▁vapa	-2587
▁varj	-2588
▁voit	-2589
isessä	-2590
tenkin	-2591
ähteli	-2592
▁Timon	-2593
▁ahker	-2594
▁aivan	-2595
▁akkun	-2596
▁kansa	-2597
▁karhu	-2598
▁karva	-2599
▁kulke	-2600
▁kärsi	-2601
▁maksa	-2602
▁niitä	-2603
▁parta	-2604
▁pyssy	-2605
▁saata	-2606
▁taloa	-2607
▁tuomi	-2608
▁uneks	-2609
▁uutta	-2610
▁äsken	-2611
istelee	-2612
vettiin	-2613
▁Kerran	-2614
▁aholle	-2615
▁elämän	-2616
▁heidät	-2617
▁heillä	-2618
▁katosi	-2619
▁katsoi	-2620
▁kämmen	-2621
▁leipää	-2622
▁meidät	-2623
▁niittu	-2624
▁nähnyt	-2625
▁ollaan	-2626
▁päiviä	-2627
▁syystä	-2628
▁tahtoo	-2629
▁talven	-2630
▁tieltä	-2631
▁tuohon	-2632
▁veljen	-2633
▁vilpit	-2634
▁kieltää	-2635
▁koirien	-2636
▁minulla	-2637
▁pihalla	-2638
▁ruumiin	-2639
▁selkään	-2640
▁Jukolaan	-2641
▁kylliksi	-2642
▁metsässä	-2643
▁rangaist	-2644
▁ratsasta	-2645
▁sydämeni	-2646
▁tarkasti	-2647
▁vahvasti	-2648
▁vuodatta	-2649
▁juoksivat	-2650
▁menneeksi	-2651
▁korkeuteen	-2652
▁ympärillensä	-2653
KU	-2654
lih	-2655
miä	-2656
ona	-2657
pee	-2658
rik	-2659
ska	-2660
ura	-2661
ver	-2662
äsi	-2663
▁Ke	-2664
▁Kä	-2665
eliä	-2666
evän	-2667
idan	-2668
ilan	-2669
inpa	-2670
itaa	-2671
keni	-2672
kkää	-2673
kmen	-2674
oton	-2675
poon	-2676
ukin	-2677
yksi	-2678
▁Hel	-2679
▁Häh	-2680
▁Saa	-2681
▁hoh	-2682
▁kid	-2683
▁kih	-2684
▁kin	-2685
▁mah	-2686
▁nos	-2687
▁nuo	-2688
▁nyl	-2689
▁ovi	-2690
▁pes	-2691
▁pyy	-2692
▁siv	-2693
▁vap	-2694
▁vär	-2695
etään	-2696
iseva	-2697
istuu	-2698
kiksi	-2699
mästä	-2700
silmä	-2701
tivät	-2702
uutta	-2703
▁Koiv	-2704
▁LUKU	-2705
▁hein	-2706
▁herr	-2707
▁isku	-2708
▁itke	-2709
▁kall	-2710
▁lake	-2711
▁mahd	-2712
▁neuv	-2713
▁oven	-2714
▁saav	-2715
▁suon	-2716
▁tule	-2717
▁tynn	-2718
▁tyyt	-2719
▁unoh	-2720
▁veit	-2721
▁viet	-2722
▁väik	-2723
▁vään	-2724
elivat	-2725
ematta	-2726
essäni	-2727
kkalan	-2728
uttaen	-2729
ättiin	-2730
▁Läksi	-2731
▁Tapah	-2732
▁aatos	-2733
▁harta	-2734
▁hedel	-2735
▁huuto	-2736
▁istuu	-2737
▁johon	-2738
▁kipen	-2739
▁kisko	-2740
▁kuiva	-2741
▁luonn	-2742
▁lysti	-2743
▁makaa	-2744
▁mihin	-2745
▁riipp	-2746
▁santa	-2747
▁sarvi	-2748
▁tarpe	-2749
▁tempa	-2750
▁varti	-2751
▁viina	-2752
telemme	-2753
uksesta	-2754
uksista	-2755
utellen	-2756
▁heitti	-2757
▁ijanka	-2758
▁itseks	-2759
▁katsos	-2760
▁kaupun	-2761
▁kuolem	-2762
▁kuusen	-2763
▁lähteä	-2764
▁näytti	-2765
▁perään	-2766
▁poltta	-2767
▁tanssi	-2768
▁tuijot	-2769
▁täyttä	-2770
▁täältä	-2771
iskellen	-2772
▁Mennään	-2773
▁ainoata	-2774
▁ankaran	-2775
▁askelta	-2776
▁eteensä	-2777
▁ihmiset	-2778
▁kirottu	-2779
▁kävivät	-2780
▁laattia	-2781
▁menneen	-2782
▁mennään	-2783
▁nähtiin	-2784
▁perässä	-2785
▁rynkäsi	-2786
▁tuvassa	-2787
▁hetkellä	-2788
▁pirtissä	-2789
▁puolella	-2790
▁riivattu	-2791
▁seljässä	-2792
▁villitty	-2793
▁Hiidenkiv	-2794
▁Kuitenkin	-2795
▁kiivaasti	-2796
▁palasivat	-2797
▁suustansa	-2798
▁tervaskan	-2799
▁tuumiskel	-2800
▁vihaisesti	-2801
▁viipymättä	-2802
▁ensimmäinen	-2803
fi	-2804
Kas	-2805
ati	-2806
hön	-2807
jal	-2808
kyl	-2809
läh	-2810
mel	-2811
mää	-2812
pal	-2813
täs	-2814
▁It	-2815
▁Jo	-2816
▁Lo	-2817
▁MI	-2818
▁Oh	-2819
▁Po	-2820
▁VA	-2821
▁sö	-2822
annu	-2823
astu	-2824
dään	-2825
eina	-2826
isaa	-2827
isit	-2828
kkia	-2829
kööt	-2830
pasi	-2831
peen	-2832
ppaa	-2833
skaa	-2834
udan	-2835
uska	-2836
viin	-2837
yllä	-2838
▁Kul	-2839
▁Ota	-2840
▁ehd	-2841
▁hym	-2842
▁ill	-2843
▁itä	-2844
▁lem	-2845
▁löi	-2846
▁ren	-2847
▁rys	-2848
▁tap	-2849
▁tek	-2850
▁vai	-2851
▁vet	-2852
▁Ään	-2853
astaa	-2854
eensä	-2855
htivo	-2856
ikkaa	-2857
ikkos	-2858
innut	-2859
istun	-2860
kaisi	-2861
karva	-2862
kemme	-2863
kinen	-2864
kkiin	-2865
lähin	-2866
tensa	-2867
tynyt	-2868
uisen	-2869
yyden	-2870
▁Onko	-2871
▁Pian	-2872
▁Sonn	-2873
▁avat	-2874
▁enkä	-2875
▁hiil	-2876
▁johd	-2877
▁kang	-2878
▁kant	-2879
▁kerä	-2880
▁kolm	-2881
▁kort	-2882
▁koul	-2883
▁kylj	-2884
▁otta	-2885
▁pari	-2886
▁pist	-2887
▁polv	-2888
▁pyyn	-2889
▁riih	-2890
▁siun	-2891
▁sonn	-2892
▁talv	-2893
▁toki	-2894
▁tull	-2895
▁tuuh	-2896
estaan	-2897
isestä	-2898
isitte	-2899
issaan	-2900
itetty	-2901
itteli	-2902
ittäin	-2903
mmaksi	-2904
tuneet	-2905
vesjär	-2906
▁MIKKO	-2907
▁Mikon	-2908
▁Terve	-2909
▁Tästä	-2910
▁VAIMO	-2911
▁annan	-2912
▁armoa	-2913
▁arvel	-2914
▁avara	-2915
▁ehtin	-2916
▁ennus	-2917
▁halla	-2918
▁hohta	-2919
▁huike	-2920
▁kaiku	-2921
▁kasvo	-2922
▁kauka	-2923
▁keika	-2924
▁kelpo	-2925
▁ketun	-2926
▁kiusa	-2927
▁käsky	-2928
▁mennä	-2929
▁onhan	-2930
▁peuka	-2931
▁puhka	-2932
▁riemu	-2933
▁sanoa	-2934
▁sanoo	-2935
▁taiva	-2936
▁tuima	-2937
▁tuoks	-2938
▁vaiti	-2939
▁viska	-2940
▁yksin	-2941
ellansa	-2942
issansa	-2943
ittänyt	-2944
ostansa	-2945
uudessa	-2946
▁Veljet	-2947
▁herran	-2948
▁joiden	-2949
▁jonkun	-2950
▁karhun	-2951
▁kiiltä	-2952
▁kiitos	-2953
▁kirkko	-2954
▁kokoon	-2955
▁lepoon	-2956
▁närkäs	-2957
▁opetan	-2958
▁peevel	-2959
▁pientä	-2960
▁pyssyt	-2961
▁rykmen	-2962
▁tiedät	-2963
▁toiset	-2964
▁tunnus	-2965
▁tuntui	-2966
▁vanhan	-2967
▁viisas	-2968
▁voimaa	-2969
▁Jumalaa	-2970
▁ainakin	-2971
▁asiasta	-2972
▁entinen	-2973
▁ihmisen	-2974
▁jahtivo	-2975
▁leimaus	-2976
▁paikkaa	-2977
▁ristiin	-2978
▁saatana	-2979
▁välillä	-2980
▁äitinsä	-2981
▁Ilvesjär	-2982
▁ennenkin	-2983
▁huomenna	-2984
▁jotenkin	-2985
▁junkkari	-2986
▁metsästä	-2987
▁miehestä	-2988
▁tahdomme	-2989
▁tarvitse	-2990
▁ankarasti	-2991
▁ennenkuin	-2992
▁kallistui	-2993
▁kasvoilla	-2994
▁päättivät	-2995
▁sanaakaan	-2996
▁aapiskirja	-2997
▁itsellemme	-2998
▁karkasivat	-2999
▁maailmassa	-3000
▁äänettöminä	-3001
MI	-3002
hä	-3003
no	-3004
ru	-3005
▁F	-3006
MIS	-3007
TTI	-3008
ise	-3009
kse	-3010
kös	-3011
tus	-3012
tön	-3013
upe	-3014
yön	-3015
▁NI	-3016
▁Oi	-3017
▁Pä	-3018
▁Ul	-3019
▁uu	-3020
AULA	-3021
MIES	-3022
anne	-3023
attu	-3024
elee	-3025
ikan	-3026
ikot	-3027
insa	-3028
isan	-3029
ispa	-3030
istu	-3031
iväs	-3032
kelä	-3033
sten	-3034
täen	-3035
uija	-3036
uita	-3037
ukas	-3038
uttu	-3039
vata	-3040
voja	-3041
▁Vuo	-3042
▁isk	-3043
▁jyl	-3044
▁kov	-3045
▁lah	-3046
▁lum	-3047
▁nok	-3048
▁pär	-3049
▁sud	-3050
▁tel	-3051
▁tir	-3052
▁yöt	-3053
MATTI	-3054
Matin	-3055
emmas	-3056
iensa	-3057
ikkui	-3058
ittaa	-3059
keata	-3060
keita	-3061
koita	-3062
kosta	-3063
mässä	-3064
ppaan	-3065
ppasi	-3066
toman	-3067
tämme	-3068
ukoon	-3069
uomaa	-3070
▁Kaik	-3071
▁Tahd	-3072
▁Yksi	-3073
▁etel	-3074
▁hiih	-3075
▁huoh	-3076
▁impi	-3077
▁joko	-3078
▁kaks	-3079
▁kart	-3080
▁kiih	-3081
▁kirv	-3082
▁kius	-3083
▁koet	-3084
▁kouk	-3085
▁käär	-3086
▁liik	-3087
▁murh	-3088
▁noid	-3089
▁pauk	-3090
▁puhd	-3091
▁ryyp	-3092
▁saal	-3093
▁sala	-3094
▁siiv	-3095
▁suos	-3096
▁suun	-3097
▁taip	-3098
▁tuoh	-3099
▁työn	-3100
▁täys	-3101
▁veri	-3102
inalla	-3103
täneet	-3104
▁NIMIS	-3105
▁Sinne	-3106
▁TAULA	-3107
▁alkoi	-3108
▁heinä	-3109
▁hyvän	-3110
▁härkä	-3111
▁ihmet	-3112
▁kohot	-3113
▁koivu	-3114
▁kuull	-3115
▁kuulu	-3116
▁loppu	-3117
▁millä	-3118
▁muoto	-3119
▁naama	-3120
▁osoit	-3121
▁pussi	-3122
▁rakas	-3123
▁seura	-3124
▁taita	-3125
▁tosin	-3126
▁Äänet	-3127
essänsä	-3128
immiten	-3129
istänsä	-3130
▁Mäkelä	-3131
▁Suomen	-3132
▁Tuolla	-3133
▁Täällä	-3134
▁ainapa	-3135
▁harmaa	-3136
▁hengen	-3137
▁iltana	-3138
▁kertaa	-3139
▁kesken	-3140
▁keskus	-3141
▁kieltä	-3142
▁lepäsi	-3143
▁löylyt	-3144
▁muisto	-3145
▁niitun	-3146
▁nousee	-3147
▁nukkui	-3148
▁olette	-3149
▁peikko	-3150
▁suunsa	-3151
▁suuren	-3152
▁suusta	-3153
▁taivaa	-3154
▁varoit	-3155
▁vuotta	-3156
▁entisen	-3157
▁kontion	-3158
▁näkivät	-3159
▁pihalle	-3160
▁rukoili	-3161
▁seurasi	-3162
▁sinusta	-3163
▁vaikeni	-3164
▁valmiin	-3165
▁Tapahtui	-3166
▁harjulla	-3167
▁keskellä	-3168
▁mielellä	-3169
▁nopeasti	-3170
▁nummella	-3171
▁oikealle	-3172
▁puolesta	-3173
▁silmillä	-3174
▁syyskuun	-3175
▁taidamme	-3176
▁toinento	-3177
▁vakaasti	-3178
▁NIMISMIES	-3179
▁Silloinpa	-3180
▁hirveästi	-3181
▁huoneessa	-3182
▁iloisesti	-3183
▁korkeuden	-3184
▁lepäsivät	-3185
▁sydämensä	-3186
▁huomasivat	-3187
▁kiiriskeli	-3188
▁peloittava	-3189
▁vasemmalle	-3190
▁veljeksistä	-3191
▁vuoteellensa	-3192
EN	-3193
OU	-3194
ry	-3195
up	-3196
yl	-3197
etä	-3198
har	-3199
iit	-3200
iki	-3201
imi	-3202
ing	-3203
jäl	-3204
kät	-3205
met	-3206
min	-3207
nän	-3208
nät	-3209
per	-3210
ran	-3211
ras	-3212
san	-3213
sas	-3214
tyn	-3215
uha	-3216
uul	-3217
ysy	-3218
▁es	-3219
▁uk	-3220
atsa	-3221
hain	-3222
kiin	-3223
llin	-3224
mana	-3225
puna	-3226
raaf	-3227
teet	-3228
tona	-3229
ulaa	-3230
ulun	-3231
unto	-3232
▁Hei	-3233
▁Pel	-3234
▁Tal	-3235
▁avi	-3236
▁jaa	-3237
▁nar	-3238
▁noh	-3239
▁ora	-3240
▁sit	-3241
▁sär	-3242
▁uno	-3243
▁väk	-3244
▁ymp	-3245
eissa	-3246
iinsa	-3247
konen	-3248
lossa	-3249
nahka	-3250
oihin	-3251
oille	-3252
oisen	-3253
toori	-3254
uilla	-3255
▁Eikö	-3256
▁Itse	-3257
▁Otta	-3258
▁Teer	-3259
▁Tule	-3260
▁edes	-3261
▁hara	-3262
▁huhd	-3263
▁hurs	-3264
▁jona	-3265
▁kiil	-3266
▁kirm	-3267
▁lask	-3268
▁lois	-3269
▁läht	-3270
▁maks	-3271
▁myyr	-3272
▁nisk	-3273
▁olut	-3274
▁ovea	-3275
▁raik	-3276
▁sata	-3277
▁seka	-3278
▁suut	-3279
▁tiet	-3280
▁uros	-3281
▁vila	-3282
▁äijä	-3283
enivät	-3284
ettuna	-3285
ettävä	-3286
inällä	-3287
isilla	-3288
isista	-3289
istava	-3290
istäen	-3291
miseen	-3292
tämään	-3293
▁Kenen	-3294
▁Kovin	-3295
▁Mihin	-3296
▁Nytpä	-3297
▁Usein	-3298
▁halko	-3299
▁hurja	-3300
▁kenen	-3301
▁kerro	-3302
▁kestä	-3303
▁kierr	-3304
▁kiitä	-3305
▁krist	-3306
▁kulki	-3307
▁kysyn	-3308
▁laske	-3309
▁lukea	-3310
▁nämät	-3311
▁oljen	-3312
▁ottaa	-3313
▁raska	-3314
▁rinta	-3315
▁riutu	-3316
▁ruumi	-3317
▁sella	-3318
▁taisi	-3319
▁tuomm	-3320
▁tuuli	-3321
▁tuuma	-3322
▁tyyni	-3323
▁työtä	-3324
▁uunin	-3325
▁vaara	-3326
▁viher	-3327
attoman	-3328
estansa	-3329
ikeasti	-3330
illensä	-3331
istimen	-3332
uttanut	-3333
▁Fralla	-3334
▁Kaisan	-3335
▁Olenpa	-3336
▁Sitten	-3337
▁esimer	-3338
▁joista	-3339
▁jykevä	-3340
▁karhua	-3341
▁katsoa	-3342
▁keinoa	-3343
▁kiivas	-3344
▁kuuluu	-3345
▁linnan	-3346
▁luonto	-3347
▁maasta	-3348
▁meteli	-3349
▁palasi	-3350
▁pieksi	-3351
▁pieniä	-3352
▁pitkän	-3353
▁pyörii	-3354
▁päänsä	-3355
▁ruskea	-3356
▁samoin	-3357
▁seiväs	-3358
▁sukkel	-3359
▁teidät	-3360
▁toisin	-3361
▁vanhin	-3362
▁viinan	-3363
▁vimmat	-3364
eskellen	-3365
llakseni	-3366
telemään	-3367
▁ilmesty	-3368
▁iskivät	-3369
▁jotakin	-3370
▁kouraan	-3371
▁kumppan	-3372
▁muutama	-3373
▁muuttui	-3374
▁onneton	-3375
▁paistoi	-3376
▁sovinto	-3377
▁talosta	-3378
▁valkean	-3379
▁Sanoppas	-3380
▁edessään	-3381
▁helvetin	-3382
▁henkensä	-3383
▁juurelle	-3384
▁kertoili	-3385
▁miehelle	-3386
▁mielensä	-3387
▁olekkaan	-3388
▁olivatpa	-3389
▁peevelin	-3390
▁rinnalla	-3391
▁valmiina	-3392
▁voimalla	-3393
▁Kuokkalan	-3394
▁päällemme	-3395
▁silmiänsä	-3396
▁sunnuntai	-3397
▁tekemistä	-3398
▁uudestaan	-3399
▁ympärille	-3400
▁Kolistimen	-3401
▁helvettiin	-3402
▁itsellensä	-3403
▁juoksemaan	-3404
▁lähestyvän	-3405
▁seurasivat	-3406
▁tästälähin	-3407
▁välimmiten	-3408
▁kuultelivat	-3409
▁milloinkaan	-3410
▁nuorukainen	-3411
▁provastimme	-3412
IN	-3413
MÄ	-3414
öh	-3415
enä	-3416
het	-3417
ipa	-3418
kil	-3419
kua	-3420
mus	-3421
pli	-3422
por	-3423
päs	-3424
tor	-3425
tut	-3426
täv	-3427
uoh	-3428
vär	-3429
ynä	-3430
äis	-3431
öyh	-3432
▁Ar	-3433
▁KA	-3434
▁Yl	-3435
INEN	-3436
Mitä	-3437
aama	-3438
daan	-3439
enee	-3440
ettö	-3441
evaa	-3442
evät	-3443
iais	-3444
iina	-3445
itos	-3446
jana	-3447
kinä	-3448
kkiä	-3449
laan	-3450
onen	-3451
pään	-3452
ssia	-3453
tena	-3454
tien	-3455
ties	-3456
ttia	-3457
tuus	-3458
änty	-3459
änyt	-3460
össä	-3461
▁Har	-3462
▁Här	-3463
▁Ker	-3464
▁Met	-3465
▁Sur	-3466
▁Tot	-3467
▁Tun	-3468
▁Vih	-3469
▁epä	-3470
▁häl	-3471
▁isä	-3472
▁jut	-3473
▁jys	-3474
▁mik	-3475
▁muh	-3476
▁mät	-3477
▁ohi	-3478
▁pas	-3479
▁puu	-3480
▁sot	-3481
▁suu	-3482
▁ton	-3483
▁umm	-3484
▁yle	-3485
dolla	-3486
iskaa	-3487
iskan	-3488
iteen	-3489
itsem	-3490
kappa	-3491
oisia	-3492
oivat	-3493
parta	-3494
telen	-3495
toili	-3496
ustan	-3497
vansa	-3498
vehti	-3499
vistä	-3500
vällä	-3501
yttää	-3502
▁Kova	-3503
▁Muut	-3504
▁Siis	-3505
▁Voim	-3506
▁akka	-3507
▁auki	-3508
▁hirv	-3509
▁häij	-3510
▁kill	-3511
▁kome	-3512
▁kore	-3513
▁kuka	-3514
▁kylv	-3515
▁kynn	-3516
▁kyns	-3517
▁käpä	-3518
▁lyhy	-3519
▁mene	-3520
▁mull	-3521
▁mäen	-3522
▁naim	-3523
▁naut	-3524
▁näet	-3525
▁pall	-3526
▁parv	-3527
▁pidä	-3528
▁puus	-3529
▁pyyd	-3530
▁retk	-3531
▁rieh	-3532
▁suor	-3533
▁synn	-3534
▁tarp	-3535
▁temm	-3536
▁toin	-3537
▁tuom	-3538
▁tuor	-3539
▁varo	-3540
▁varr	-3541
▁vikk	-3542
▁visa	-3543
akraaf	-3544
elleet	-3545
isinpa	-3546
mmenen	-3547
▁Matti	-3548
▁Mitäs	-3549
▁Tuhan	-3550
▁Vielä	-3551
▁aamun	-3552
▁ammen	-3553
▁astua	-3554
▁ehtoo	-3555
▁ettet	-3556
▁helti	-3557
▁henki	-3558
▁illan	-3559
▁kanna	-3560
▁keino	-3561
▁kilja	-3562
▁kirve	-3563
▁koura	-3564
▁kuule	-3565
▁kuuli	-3566
▁kylän	-3567
▁laulu	-3568
▁mahta	-3569
▁ohits	-3570
▁paran	-3571
▁paras	-3572
▁pistä	-3573
▁poski	-3574
▁puutu	-3575
▁ratta	-3576
▁ruoka	-3577
▁saali	-3578
▁sanan	-3579
▁tempp	-3580
▁tiesi	-3581
▁tunsi	-3582
▁tähti	-3583
▁uhkaa	-3584
▁vaini	-3585
▁veren	-3586
▁vilja	-3587
▁virta	-3588
▁vuori	-3589
estamen	-3590
illänsä	-3591
issänsä	-3592
ossansa	-3593
tomaksi	-3594
uisasti	-3595
uksensa	-3596
uudella	-3597
▁Hämeen	-3598
▁alakul	-3599
▁edestä	-3600
▁hertta	-3601
▁hirveä	-3602
▁huikea	-3603
▁häpeän	-3604
▁iltaan	-3605
▁joutui	-3606
▁katker	-3607
▁kertoa	-3608
▁kirkka	-3609
▁kiusan	-3610
▁kohtaa	-3611
▁kontio	-3612
▁laitaa	-3613
▁lapset	-3614
▁leivän	-3615
▁luoksi	-3616
▁löytyi	-3617
▁metsät	-3618
▁muorin	-3619
▁määrät	-3620
▁opetta	-3621
▁pakeni	-3622
▁partaa	-3623
▁pellon	-3624
▁pellot	-3625
▁riensi	-3626
▁sankar	-3627
▁susien	-3628
▁sydämm	-3629
▁tahtoi	-3630
▁taloon	-3631
▁teiltä	-3632
▁tulisi	-3633
▁varten	-3634
▁voimme	-3635
▁vuoden	-3636
akraaffi	-3637
ikkoseni	-3638
oillansa	-3639
täkäämme	-3640
▁Sompios	-3641
▁Viertol	-3642
▁ajoissa	-3643
▁ehditty	-3644
▁harvoin	-3645
▁heittää	-3646
▁ihmeitä	-3647
▁istumme	-3648
▁istuvat	-3649
▁kaksois	-3650
▁kallion	-3651
▁karkasi	-3652
▁kenties	-3653
▁kivellä	-3654
▁kotonsa	-3655
▁kysymys	-3656
▁lausuen	-3657
▁mieheen	-3658
▁miehenä	-3659
▁nimessä	-3660
▁niskaan	-3661
▁pahasti	-3662
▁päättyi	-3663
▁silmäni	-3664
▁tulinen	-3665
▁tulkoon	-3666
▁vikkelä	-3667
▁viskasi	-3668
▁välistä	-3669
▁hyväänsä	-3670
▁ihanasti	-3671
▁jäljessä	-3672
▁katsahti	-3673
▁katsella	-3674
▁kauemmas	-3675
▁luulenpa	-3676
▁makeasti	-3677
▁miehensä	-3678
▁onnettom	-3679
▁päätänsä	-3680
▁toisensa	-3681
▁tullessa	-3682
▁vihamieh	-3683
▁vähemmin	-3684
▁Jukolassa	-3685
▁Sonnimäen	-3686
▁hartaasti	-3687
▁ijankaikk	-3688
▁kanttoori	-3689
▁pakenivat	-3690
▁poikaseni	-3691
▁vaiheilla	-3692
▁veljeksiä	-3693
▁viettivät	-3694
▁jäljessään	-3695
▁kyyneleitä	-3696
▁lukkarille	-3697
▁mielestäni	-3698
▁oivallinen	-3699
▁rallaralla	-3700
▁vuodattaen	-3701
▁luullakseni	-3702
▁tervaskanto	-3703
▁veljeksille	-3704
▁ympärillään	-3705
▁nahkapeitturin	-3706
hi	-3707
Tuo	-3708
ain	-3709
ena	-3710
iho	-3711
kii	-3712
kke	-3713
mys	-3714
rit	-3715
tat	-3716
tis	-3717
tär	-3718
uin	-3719
ukk	-3720
uns	-3721
uvo	-3722
väs	-3723
örö	-3724
▁Ih	-3725
▁Na	-3726
▁Pi	-3727
▁VI	-3728
Kats	-3729
Minä	-3730
ahta	-3731
erta	-3732
eätä	-3733
hyvä	-3734
inpä	-3735
inta	-3736
kell	-3737
kuva	-3738
llit	-3739
mmar	-3740
mppa	-3741
onpa	-3742
otko	-3743
pänä	-3744
teva	-3745
tina	-3746
tävä	-3747
uhun	-3748
uraa	-3749
urus	-3750
utaa	-3751
uvat	-3752
vään	-3753
yriä	-3754
yrjä	-3755
äsen	-3756
öntä	-3757
▁Käy	-3758
▁Luk	-3759
▁Tee	-3760
▁Van	-3761
▁häv	-3762
▁kad	-3763
▁lad	-3764
▁man	-3765
▁muu	-3766
▁ome	-3767
▁pul	-3768
▁räm	-3769
▁sil	-3770
▁syt	-3771
▁töm	-3772
▁vit	-3773
annut	-3774
dellä	-3775
evana	-3776
iansa	-3777
immin	-3778
keksi	-3779
kusta	-3780
kähtä	-3781
mahan	-3782
malla	-3783
mänsä	-3784
okaas	-3785
ollis	-3786
tävät	-3787
uneet	-3788
västi	-3789
äästä	-3790
▁Astu	-3791
▁Hell	-3792
▁Meni	-3793
▁Pohj	-3794
▁Rupe	-3795
▁Suus	-3796
▁Usko	-3797
▁ajan	-3798
▁armo	-3799
▁elää	-3800
▁haut	-3801
▁hele	-3802
▁helm	-3803
▁herä	-3804
▁kahd	-3805
▁kaja	-3806
▁kasa	-3807
▁keik	-3808
▁kimm	-3809
▁lait	-3810
▁läpi	-3811
▁nall	-3812
▁niel	-3813
▁onni	-3814
▁opet	-3815
▁paha	-3816
▁polt	-3817
▁pull	-3818
▁purj	-3819
▁pyhä	-3820
▁pääl	-3821
▁raiv	-3822
▁rauk	-3823
▁sija	-3824
▁susi	-3825
▁syrj	-3826
▁teer	-3827
▁unta	-3828
▁vesi	-3829
▁äiti	-3830
aakaan	-3831
ahteli	-3832
empana	-3833
ettava	-3834
isivät	-3835
issani	-3836
istoon	-3837
ittiin	-3838
ivalta	-3839
kaisee	-3840
keästi	-3841
ksensä	-3842
kunnan	-3843
naasti	-3844
poikas	-3845
uttiin	-3846
ydessä	-3847
▁Ahker	-3848
▁Hyvin	-3849
▁Kauan	-3850
▁Turkk	-3851
▁Vaiti	-3852
▁armas	-3853
▁astuu	-3854
▁enkel	-3855
▁havut	-3856
▁hieta	-3857
▁himme	-3858
▁hämär	-3859
▁hävit	-3860
▁jumal	-3861
▁kaina	-3862
▁kanss	-3863
▁kekäl	-3864
▁kesän	-3865
▁kettu	-3866
▁koill	-3867
▁kotoa	-3868
▁kovan	-3869
▁kurit	-3870
▁kylmä	-3871
▁kysyä	-3872
▁laski	-3873
▁läimä	-3874
▁menet	-3875
▁mänty	-3876
▁nummi	-3877
▁nuoti	-3878
▁nähdä	-3879
▁näkee	-3880
▁onkin	-3881
▁oppia	-3882
▁ottel	-3883
▁pahaa	-3884
▁pakan	-3885
▁piika	-3886
▁pitäj	-3887
▁pohja	-3888
▁pääni	-3889
▁riita	-3890
▁runsa	-3891
▁rykel	-3892
▁takaa	-3893
▁tuike	-3894
▁tulis	-3895
▁tulla	-3896
▁tuuhe	-3897
▁ukkos	-3898
▁vakaa	-3899
▁varus	-3900
▁velje	-3901
assansa	-3902
essämme	-3903
iinähän	-3904
istamme	-3905
miesten	-3906
oissaan	-3907
televat	-3908
uksella	-3909
uutensa	-3910
▁Katsos	-3911
▁Kyösti	-3912
▁Oletko	-3913
▁Pohjan	-3914
▁Valkoa	-3915
▁aamuna	-3916
▁hongan	-3917
▁housut	-3918
▁huolin	-3919
▁härjät	-3920
▁järven	-3921
▁karhea	-3922
▁kaunis	-3923
▁kertoi	-3924
▁kertom	-3925
▁kesänä	-3926
▁kiittä	-3927
▁kiusaa	-3928
▁koetta	-3929
▁kolmen	-3930
▁kontti	-3931
▁kotona	-3932
▁kristi	-3933
▁kylään	-3934
▁lammas	-3935
▁loppui	-3936
▁maassa	-3937
▁mielen	-3938
▁mikään	-3939
▁olleet	-3940
▁pohjos	-3941
▁purren	-3942
▁raskas	-3943
▁rauhaa	-3944
▁ruumis	-3945
▁silmän	-3946
▁synkeä	-3947
▁tahton	-3948
▁taitaa	-3949
▁tiedon	-3950
▁tyttär	-3951
▁täytyi	-3952
▁vaipui	-3953
▁viipyi	-3954
▁voitta	-3955
ellyttää	-3956
itsemaan	-3957
oissansa	-3958
uttamaan	-3959
▁armahta	-3960
▁astelee	-3961
▁aukaisi	-3962
▁ehtivät	-3963
▁ensiksi	-3964
▁entistä	-3965
▁huomaan	-3966
▁hurskas	-3967
▁ihmeell	-3968
▁kaiketi	-3969
▁kantain	-3970
▁kappale	-3971
▁katsoen	-3972
▁keikkuu	-3973
▁kunnian	-3974
▁kylästä	-3975
▁käsivar	-3976
▁kääntyi	-3977
▁laatuun	-3978
▁leikkiä	-3979
▁nähdään	-3980
▁pelasta	-3981
▁pelkään	-3982
▁perkele	-3983
▁piankin	-3984
▁pirttin	-3985
▁puhalta	-3986
▁puoleen	-3987
▁rakasta	-3988
▁rakettu	-3989
▁seuraan	-3990
▁siirtyi	-3991
▁synkeän	-3992
▁tempasi	-3993
▁toisten	-3994
▁varjele	-3995
▁vieläpä	-3996
▁ympyrjä	-3997
▁äitimme	-3998
ittelivät	-3999
▁Läksivät	-4000
▁Tuhannen	-4001
▁elämämme	-4002
▁hetkeksi	-4003
▁huolinut	-4004
▁ilmestyi	-4005
▁jäljellä	-4006
▁jäniksen	-4007
▁kallista	-4008
▁kasvonsa	-4009
▁keinolla	-4010
▁kiivasta	-4011
▁kohdussa	-4012
▁kuulteli	-4013
▁lähestyy	-4014
▁menneenä	-4015
▁olisimme	-4016
▁reunalta	-4017
▁rintansa	-4018
▁sovinnon	-4019
▁taivasta	-4020
▁vallitsi	-4021
▁yksimiel	-4022
▁akkunasta	-4023
▁kultainen	-4024
▁käyskelee	-4025
▁makasivat	-4026
▁ollutkaan	-4027
▁paratkoon	-4028
▁runsaasti	-4029
▁saattanut	-4030
▁surkeasti	-4031
▁syvyyteen	-4032
▁kainalossa	-4033
▁kamoittava	-4034
▁kannettiin	-4035
▁muistellen	-4036
▁siirtyivät	-4037
▁vikkelästi	-4038
▁vimmatusti	-4039
▁Toukolaiset	-4040
▁käyskelivät	-4041
▁mieluisasti	-4042
',	-4043
EI	-4044
Se	-4045
TÄ	-4046
py	-4047
öö	-4048
ERT	-4049
ISA	-4050
MÄN	-4051
Nyt	-4052
OUK	-4053
aus	-4054
din	-4055
gen	-4056
ija	-4057
iky	-4058
ino	-4059
ipe	-4060
jel	-4061
jun	-4062
kur	-4063
kär	-4064
lly	-4065
pel	-4066
ria	-4067
ull	-4068
yrä	-4069
▁Eh	-4070
▁Kr	-4071
▁Ne	-4072
▁Sy	-4073
etut	-4074
htia	-4075
inaa	-4076
inyt	-4077
itun	-4078
kall	-4079
kerr	-4080
kääs	-4081
oina	-4082
ojen	-4083
pari	-4084
ssin	-4085
toin	-4086
udin	-4087
ukki	-4088
urit	-4089
uvaa	-4090
voim	-4091
voit	-4092
ytty	-4093
yttö	-4094
ytän	-4095
».--	-4096
änpä	-4097
▁Hir	-4098
▁Kil	-4099
▁Mik	-4100
▁Min	-4101
▁Pal	-4102
▁Por	-4103
▁Ruo	-4104
▁Syn	-4105
▁heh	-4106
▁hyl	-4107
▁ikä	-4108
▁jat	-4109
▁kim	-4110
▁kum	-4111
▁kup	-4112
▁lis	-4113
▁lun	-4114
▁lää	-4115
▁mul	-4116
▁nas	-4117
▁näe	-4118
▁riv	-4119
▁rää	-4120
▁sei	-4121
▁soi	-4122
▁suh	-4123
▁tas	-4124
▁tod	-4125
▁ump	-4126
▁ämm	-4127
Jussi	-4128
eemme	-4129
ekset	-4130
iljaa	-4131
istui	-4132
ivaan	-4133
jilla	-4134
jille	-4135
kalla	-4136
kauan	-4137
keana	-4138
kissa	-4139
kkään	-4140
konsa	-4141
kulta	-4142
lihaa	-4143
milla	-4144
oinut	-4145
ottom	-4146
sille	-4147
tanne	-4148
telis	-4149
tella	-4150
tensä	-4151
tosta	-4152
uansa	-4153
yyttä	-4154
ähtää	-4155
äneet	-4156
öyhen	-4157
▁Emme	-4158
▁Etkö	-4159
▁Istu	-4160
▁Kauh	-4161
▁Kekk	-4162
▁Päiv	-4163
▁TOUK	-4164
▁Ylös	-4165
▁aita	-4166
▁alta	-4167
▁elon	-4168
▁ette	-4169
▁haud	-4170
▁haus	-4171
▁hinn	-4172
▁huma	-4173
▁häir	-4174
▁ilmi	-4175
▁kans	-4176
▁kata	-4177
▁keks	-4178
▁koij	-4179
▁käyd	-4180
▁mata	-4181
▁mula	-4182
▁männ	-4183
▁ojan	-4184
▁osaa	-4185
▁pakk	-4186
▁pehm	-4187
▁pelj	-4188
▁puut	-4189
▁pyrs	-4190
▁rann	-4191
▁reuh	-4192
▁ruoh	-4193
▁sapp	-4194
▁sian	-4195
▁siip	-4196
▁sika	-4197
▁sike	-4198
▁sorm	-4199
▁sula	-4200
▁sääs	-4201
▁tamm	-4202
▁tius	-4203
▁tupa	-4204
▁tutk	-4205
▁tyhm	-4206
▁ulko	-4207
▁vats	-4208
▁vinh	-4209
▁yötä	-4210
ERTOLA	-4211
assani	-4212
essani	-4213
htelee	-4214
iltana	-4215
iltiin	-4216
isille	-4217
isinpä	-4218
istaan	-4219
istaen	-4220
istuen	-4221
kaapas	-4222
kappal	-4223
lliset	-4224
maassa	-4225
mättöm	-4226
poikaa	-4227
televa	-4228
toivat	-4229
tukoon	-4230
udella	-4231
vitaan	-4232
▁KAISA	-4233
▁Kohta	-4234
▁Laula	-4235
▁Onkos	-4236
▁Taula	-4237
▁Tänne	-4238
▁alati	-4239
▁alhaa	-4240
▁aprik	-4241
▁harja	-4242
▁harti	-4243
▁itses	-4244
▁jolla	-4245
▁jäsen	-4246
▁kalve	-4247
▁kaner	-4248
▁kului	-4249
▁kuoli	-4250
▁lakea	-4251
▁lauta	-4252
▁liepe	-4253
▁liian	-4254
▁lumis	-4255
▁luote	-4256
▁lämpy	-4257
▁miell	-4258
▁määrä	-4259
▁neuvo	-4260
▁nisko	-4261
▁nuija	-4262
▁nähty	-4263
▁pehme	-4264
▁pokko	-4265
▁poves	-4266
▁pyörr	-4267
▁päätö	-4268
▁rauta	-4269
▁rinna	-4270
▁ryypp	-4271
▁sataa	-4272
▁savua	-4273
▁selkä	-4274
▁sudet	-4275
▁surma	-4276
▁synti	-4277
▁syytä	-4278
▁tytär	-4279
▁tärke	-4280
▁unohd	-4281
▁uskal	-4282
▁uuden	-4283
▁vahin	-4284
▁valmi	-4285
▁vanhi	-4286
▁virsi	-4287
▁voita	-4288
▁vuosi	-4289
▁yössä	-4290
▁ärhen	-4291
OLAINEN	-4292
essansa	-4293
ettansa	-4294
iltansa	-4295
istossa	-4296
lliseen	-4297
mmäinen	-4298
ukseksi	-4299
▁Heikka	-4300
▁Vuohen	-4301
▁atrian	-4302
▁avulla	-4303
▁höyryä	-4304
▁itseäs	-4305
▁kaikuu	-4306
▁karjan	-4307
▁kiltti	-4308
▁koetti	-4309
▁koiras	-4310
▁kolmas	-4311
▁komero	-4312
▁korvat	-4313
▁kunnon	-4314
▁käsken	-4315
▁käymme	-4316
▁leikin	-4317
▁luolan	-4318
▁lyhykä	-4319
▁lähten	-4320
▁löylyä	-4321
▁maista	-4322
▁meiltä	-4323
▁mentyä	-4324
▁miekka	-4325
▁myöten	-4326
▁mäellä	-4327
▁nuoren	-4328
▁nyrkki	-4329
▁nytkin	-4330
▁olenpa	-4331
▁omasta	-4332
▁paimen	-4333
▁paisti	-4334
▁paitsi	-4335
▁parven	-4336
▁pyssyn	-4337
▁päisin	-4338
▁raamat	-4339
▁rakenn	-4340
▁ruokaa	-4341
▁saimme	-4342
▁sanoin	-4343
▁sanoit	-4344
▁suuria	-4345
▁takaan	-4346
▁tapana	-4347
▁tarkka	-4348
▁terävä	-4349
▁tielle	-4350
▁tietää	-4351
▁tointa	-4352
▁tuikea	-4353
▁tuiska	-4354
▁tuntuu	-4355
▁uhaten	-4356
▁unessa	-4357
▁vainoo	-4358
▁vannon	-4359
▁viherj	-4360
killänsä	-4361
llisella	-4362
oitellen	-4363
oittanut	-4364
ottamaan	-4365
▁Aapelin	-4366
▁Hellitä	-4367
▁Lopulta	-4368
▁Muistel	-4369
▁allansa	-4370
▁ehtinyt	-4371
▁hampaat	-4372
▁hiljais	-4373
▁huikean	-4374
▁ihminen	-4375
▁iloisen	-4376
▁juoneen	-4377
▁järkevä	-4378
▁jäähyvä	-4379
▁katsann	-4380
▁kaukais	-4381
▁kaupung	-4382
▁kenkään	-4383
▁kohtasi	-4384
▁kohtuun	-4385
▁korpeen	-4386
▁korvaan	-4387
▁kuinkas	-4388
▁kuntoon	-4389
▁kuusien	-4390
▁kylässä	-4391
▁kädestä	-4392
▁lankesi	-4393
▁länteen	-4394
▁niinkin	-4395
▁nuorten	-4396
▁parempi	-4397
▁pilkkaa	-4398
▁pilvien	-4399
▁polskaa	-4400
▁rajalla	-4401
▁seitsem	-4402
▁suostun	-4403
▁sydämen	-4404
▁syntymä	-4405
▁tarinan	-4406
▁tarvits	-4407
▁tehdään	-4408
▁toimeen	-4409
▁tuhaksi	-4410
▁tuliais	-4411
▁varhain	-4412
▁varmaan	-4413
▁yhdessä	-4414
ikymmentä	-4415
▁Kekkurin	-4416
▁Simeonia	-4417
▁VIERTOLA	-4418
▁hallitsi	-4419
▁järkähtä	-4420
▁kamoitta	-4421
▁kirkkaan	-4422
▁kirkkoon	-4423
▁korvesta	-4424
▁kotoisin	-4425
▁kunnioit	-4426
▁kuulkaat	-4427
▁molemmat	-4428
▁murheell	-4429
▁paikassa	-4430
▁paljasta	-4431
▁pellolla	-4432
▁pystyval	-4433
▁reunalle	-4434
▁tervehti	-4435
▁tiedämme	-4436
▁tänäpänä	-4437
▁variksen	-4438
▁vieressä	-4439
▁Totisesti	-4440
▁hirmuisen	-4441
▁huikeasti	-4442
▁kanssamme	-4443
▁kanssansa	-4444
▁katsomaan	-4445
▁lähenivät	-4446
▁nimittäin	-4447
▁perkeleet	-4448
▁puhalteli	-4449
▁raskaasti	-4450
▁tapahtuva	-4451
▁tarpeeksi	-4452
▁tarvitaan	-4453
▁veljeänsä	-4454
▁Äänetönnä	-4455
▁haastellen	-4456
▁itseksensä	-4457
▁laattialle	-4458
▁molemmilla	-4459
▁permantoon	-4460
▁ryypättiin	-4461
▁tanterella	-4462
▁tanterelle	-4463
▁veikkoseni	-4464
▁TOUKOLAINEN	-4465
▁lähtekäämme	-4466
▁rakentamaan	-4467
▁sunnuntaina	-4468
▁verrattoman	-4469
▁Muistakaamme	-4470
▁Toukolaisten	-4471
▁kauhistuksen	-4472
▁yksimielisesti	-4473
AH	-4474
Ei	-4475
Ka	-4476
da	-4477
dy	-4478
pö	-4479
so	-4480
ene	-4481
hoo	-4482
hää	-4483
ini	-4484
ira	-4485
jia	-4486
kei	-4487
ksu	-4488
kyt	-4489
len	-4490
mia	-4491
mur	-4492
ous	-4493
sän	-4494
tte	-4495
tur	-4496
usa	-4497
vir	-4498
vun	-4499
yry	-4500
örr	-4501
▁em	-4502
▁od	-4503
Juma	-4504
ahti	-4505
aika	-4506
eili	-4507
esti	-4508
evia	-4509
evit	-4510
hään	-4511
ijaa	-4512
ikky	-4513
iste	-4514
itas	-4515
ivas	-4516
jani	-4517
keat	-4518
koin	-4519
mais	-4520
muun	-4521
pell	-4522
rjus	-4523
skan	-4524
toen	-4525
uria	-4526
utus	-4527
vain	-4528
vimm	-4529
▁...	-4530
▁Aat	-4531
▁Heh	-4532
▁Kes	-4533
▁Kur	-4534
▁Luo	-4535
▁Lyö	-4536
▁Pää	-4537
▁Sel	-4538
▁Sis	-4539
▁aar	-4540
▁aav	-4541
▁ahd	-4542
▁aja	-4543
▁auk	-4544
▁aut	-4545
▁iku	-4546
▁jup	-4547
▁kod	-4548
▁kuh	-4549
▁kyr	-4550
▁kää	-4551
▁läp	-4552
▁myr	-4553
▁nuh	-4554
▁nuk	-4555
▁pet	-4556
▁puk	-4557
▁reh	-4558
▁rei	-4559
▁rot	-4560
▁ruh	-4561
▁ryh	-4562
▁röh	-4563
▁sie	-4564
▁sol	-4565
▁tom	-4566
▁tra	-4567
▁uni	-4568
Jukol	-4569
MÄNTÄ	-4570
aaksi	-4571
astui	-4572
eesti	-4573
ehtii	-4574
eijaa	-4575
eista	-4576
illut	-4577
isilm	-4578
issan	-4579
istys	-4580
kensa	-4581
kerta	-4582
kirja	-4583
kissä	-4584
kossa	-4585
kunta	-4586
kähti	-4587
känsä	-4588
llani	-4589
muori	-4590
mätön	-4591
nalle	-4592
oiksi	-4593
oiska	-4594
pinta	-4595
ppeli	-4596
pusta	-4597
tanpa	-4598
telem	-4599
telia	-4600
telit	-4601
tisen	-4602
tista	-4603
tojen	-4604
ttiin	-4605
tuvan	-4606
uissa	-4607
umaan	-4608
ussin	-4609
utaan	-4610
vaten	-4611
viksi	-4612
öitsi	-4613
örökö	-4614
▁Alas	-4615
▁Eikä	-4616
▁Herr	-4617
▁Iske	-4618
▁Myös	-4619
▁Rien	-4620
▁Ulos	-4621
▁ahoa	-4622
▁alka	-4623
▁ansa	-4624
▁apua	-4625
▁asui	-4626
▁hark	-4627
▁hätä	-4628
▁ilon	-4629
▁jaks	-4630
▁jalo	-4631
▁jauh	-4632
▁joud	-4633
▁järj	-4634
▁kain	-4635
▁katr	-4636
▁kiuk	-4637
▁kont	-4638
▁kulk	-4639
▁lehd	-4640
▁lenn	-4641
▁liit	-4642
▁merk	-4643
▁myön	-4644
▁näit	-4645
▁näke	-4646
▁oksa	-4647
▁omaa	-4648
▁onko	-4649
▁pane	-4650
▁peto	-4651
▁posk	-4652
▁pysä	-4653
▁pörr	-4654
▁rist	-4655
▁ruus	-4656
▁salo	-4657
▁sota	-4658
▁sylj	-4659
▁sysi	-4660
▁tart	-4661
▁telj	-4662
▁tila	-4663
▁tyhj	-4664
▁uhka	-4665
▁valo	-4666
▁vann	-4667
▁verh	-4668
▁viid	-4669
▁yönä	-4670
ansaat	-4671
astani	-4672
astuol	-4673
atkaat	-4674
eitten	-4675
elleni	-4676
ellään	-4677
emisen	-4678
evalla	-4679
ilivät	-4680
isillä	-4681
ittävä	-4682
keassa	-4683
keneet	-4684
koitti	-4685
lainen	-4686
miehet	-4687
miehiä	-4688
mmäksi	-4689
oisina	-4690
osivat	-4691
ossaan	-4692
ottaen	-4693
päistä	-4694
sarjus	-4695
siänsä	-4696
tuuden	-4697
tymään	-4698
udesta	-4699
vastin	-4700
ykseen	-4701
▁Kissa	-4702
▁Kitas	-4703
▁Mistä	-4704
▁Pikku	-4705
▁aapia	-4706
▁ajeli	-4707
▁etelä	-4708
▁haavo	-4709
▁hauta	-4710
▁hirvi	-4711
▁humis	-4712
▁hätää	-4713
▁ilves	-4714
▁jaksa	-4715
▁jonne	-4716
▁jätti	-4717
▁kamar	-4718
▁karja	-4719
▁kaula	-4720
▁kesti	-4721
▁koske	-4722
▁kumar	-4723
▁kuuma	-4724
▁kylvö	-4725
▁kylää	-4726
▁käpäl	-4727
▁käski	-4728
▁laaks	-4729
▁laill	-4730
▁lepää	-4731
▁leuka	-4732
▁liikk	-4733
▁luoma	-4734
▁luoti	-4735
▁lyhyt	-4736
▁lähde	-4737
▁masen	-4738
▁matku	-4739
▁miten	-4740
▁neito	-4741
▁nimet	-4742
▁nurin	-4743
▁näkyy	-4744
▁nälän	-4745
▁onkos	-4746
▁papin	-4747
▁pappi	-4748
▁pauhu	-4749
▁perii	-4750
▁pisar	-4751
▁pisti	-4752
▁raata	-4753
▁rasva	-4754
▁retki	-4755
▁sinko	-4756
▁säken	-4757
▁temma	-4758
▁terva	-4759
▁toimi	-4760
▁totta	-4761
▁tyhjä	-4762
▁tyhmä	-4763
▁uskoa	-4764
▁vaari	-4765
▁vettä	-4766
▁viipy	-4767
▁virka	-4768
▁yöksi	-4769
▁äänen	-4770
▁ääntä	-4771
assamme	-4772
ellessa	-4773
estänsä	-4774
hdellen	-4775
iksensa	-4776
istosta	-4777
kevästi	-4778
kkaasti	-4779
mminkin	-4780
teltiin	-4781
yydessä	-4782
öitsevä	-4783
▁EMÄNTÄ	-4784
▁Heidän	-4785
▁Hiljaa	-4786
▁Kourus	-4787
▁Olemme	-4788
▁Olihan	-4789
▁Seisoi	-4790
▁Siihen	-4791
▁Vallan	-4792
▁erällä	-4793
▁halkon	-4794
▁harjan	-4795
▁höyhen	-4796
▁juomaa	-4797
▁järjen	-4798
▁kamala	-4799
▁kanget	-4800
▁katsan	-4801
▁kissan	-4802
▁koskee	-4803
▁kulkea	-4804
▁kurjan	-4805
▁kysyin	-4806
▁lapsen	-4807
▁lapsia	-4808
▁lempeä	-4809
▁liekki	-4810
▁liikku	-4811
▁maalla	-4812
▁makkar	-4813
▁metsiä	-4814
▁metson	-4815
▁mieltä	-4816
▁männyn	-4817
▁nainen	-4818
▁naiset	-4819
▁naulaa	-4820
▁neuvoa	-4821
▁niistä	-4822
▁oikeus	-4823
▁olikin	-4824
▁omalla	-4825
▁paiste	-4826
▁pakkas	-4827
▁peitti	-4828
▁pensas	-4829
▁peukal	-4830
▁pianpa	-4831
▁pilvet	-4832
▁pistää	-4833
▁saapas	-4834
▁saarna	-4835
▁seison	-4836
▁taidan	-4837
▁tapaus	-4838
▁tiensä	-4839
▁tulita	-4840
▁työhön	-4841
▁uskoon	-4842
▁vakava	-4843
▁veljes	-4844
▁vertaa	-4845
▁voitti	-4846
▁vuoret	-4847
▁ymmärr	-4848
mistansa	-4849
▁Ensiksi	-4850
▁Kyöstin	-4851
▁Niinhän	-4852
▁aamusta	-4853
▁astunut	-4854
▁atrioit	-4855
▁ellemme	-4856
▁ennusta	-4857
▁harmaan	-4858
▁hiiteen	-4859
▁hyvästi	-4860
▁ihmisla	-4861
▁isännän	-4862
▁jalkapu	-4863
▁jääköön	-4864
▁kanerva	-4865
▁kiivaan	-4866
▁kivistä	-4867
▁konstin	-4868
▁kynsiin	-4869
▁liehtoi	-4870
▁läimäyt	-4871
▁menköön	-4872
▁miehinä	-4873
▁monessa	-4874
▁männist	-4875
▁pelasti	-4876
▁perästä	-4877
▁pystyyn	-4878
▁rakensi	-4879
▁samassa	-4880
▁siitäpä	-4881
▁tainnut	-4882
▁tilassa	-4883
▁tuoksua	-4884
▁tyytyvä	-4885
▁voittaa	-4886
▁välissä	-4887
▁äänetön	-4888
oittamaan	-4889
▁Kissalan	-4890
▁Niinkuin	-4891
▁Siinähän	-4892
▁Viertola	-4893
▁alhaalla	-4894
▁hedelmiä	-4895
▁huokaili	-4896
▁huusivat	-4897
▁jokainen	-4898
▁kaikella	-4899
▁kohdassa	-4900
▁kuulivat	-4901
▁kuulunut	-4902
▁kylläkin	-4903
▁kyntensä	-4904
▁kättänsä	-4905
▁kääritty	-4906
▁leimahti	-4907
▁lukemaan	-4908
▁lämmintä	-4909
▁mieheksi	-4910
▁mielinyt	-4911
▁muodolla	-4912
▁oikeuden	-4913
▁poloinen	-4914
▁päivänsä	-4915
▁päätetty	-4916
▁rakentaa	-4917
▁reunalla	-4918
▁riivatun	-4919
▁rukoilen	-4920
▁sarvipää	-4921
▁silmissä	-4922
▁silmällä	-4923
▁suojassa	-4924
▁suureksi	-4925
▁syntinen	-4926
▁taisivat	-4927
▁tapahtuu	-4928
▁toiselle	-4929
▁tukkansa	-4930
▁tuohikon	-4931
▁vaimonsa	-4932
▁veitikka	-4933
▁verraton	-4934
▁Katsokaas	-4935
▁Seitsemän	-4936
▁auttakoon	-4937
▁haamoitti	-4938
▁hampaissa	-4939
▁heräsivät	-4940
▁kappaleen	-4941
▁komsarjus	-4942
▁korvaansa	-4943
▁niinkauan	-4944
▁nimismies	-4945
▁niskaansa	-4946
▁perkeleen	-4947
▁pikkuinen	-4948
▁pirttimme	-4949
▁pirttinsä	-4950
▁seisahtui	-4951
▁sydämellä	-4952
▁tarpeiksi	-4953
▁tarvitsee	-4954
▁tuulenpes	-4955
▁astelemaan	-4956
▁helvetissä	-4957
▁kaikkialle	-4958
▁katsahtaen	-4959
▁keskenänsä	-4960
▁kuolemasta	-4961
▁kuultuansa	-4962
▁miellyttää	-4963
▁muistakaat	-4964
▁parastansa	-4965
▁peijakkaan	-4966
▁rangaistus	-4967
▁tavallinen	-4968
▁vankkurien	-4969
▁yhteisesti	-4970
▁ensimmäistä	-4971
▁esimerkiksi	-4972
▁haastelivat	-4973
▁hirmuisella	-4974
▁hirmuisesti	-4975
▁kaksoispari	-4976
▁matkaansaat	-4977
▁nimismiehen	-4978
▁parakraaffi	-4979
▁retkeilivät	-4980
▁ruumistansa	-4981
▁saarnastuol	-4982
▁voimallinen	-4983
▁neljäkymmentä	-4984
▁paukahtelivat	-4985
▁viisikymmentä	-4986
'.	-4987
Mu	-4988
UU	-4989
ba	-4990
ep	-4991
mö	-4992
AHK	-4993
TTU	-4994
dan	-4995
eer	-4996
ilu	-4997
isä	-4998
ivi	-4999
joo	-5000
löy	-5001
npa	-5002
ono	-5003
pea	-5004
pih	-5005
pil	-5006
psa	-5007
uli	-5008
uur	-5009
yyn	-5010
▁Ai	-5011
▁Yh	-5012
▁ov	-5013
▁ys	-5014
APEI	-5015
aavo	-5016
einä	-5017
elan	-5018
elet	-5019
elia	-5020
eljä	-5021
empa	-5022
esin	-5023
eten	-5024
eviä	-5025
evää	-5026
ikir	-5027
ilen	-5028
iskä	-5029
itkä	-5030
joon	-5031
kina	-5032
kita	-5033
kkua	-5034
löyl	-5035
mien	-5036
myös	-5037
niin	-5038
oiss	-5039
ppia	-5040
pull	-5041
toni	-5042
vaat	-5043
vani	-5044
velj	-5045
yden	-5046
ytyy	-5047
ätti	-5048
▁Hal	-5049
▁Hii	-5050
▁Kön	-5051
▁Luh	-5052
▁Per	-5053
▁Syö	-5054
▁Taa	-5055
▁Tai	-5056
▁aho	-5057
▁ais	-5058
▁ait	-5059
▁ein	-5060
▁eli	-5061
▁ero	-5062
▁etä	-5063
▁euk	-5064
▁hum	-5065
▁ilv	-5066
▁iso	-5067
▁jyn	-5068
▁jäi	-5069
▁lir	-5070
▁lur	-5071
▁muj	-5072
▁mär	-5073
▁nal	-5074
▁näk	-5075
▁oiv	-5076
▁orr	-5077
▁pat	-5078
▁plä	-5079
▁ruk	-5080
▁syy	-5081
▁sää	-5082
▁yks	-5083
▁yti	-5084
Katso	-5085
TTURI	-5086
aamme	-5087
astus	-5088
eesen	-5089
eesta	-5090
ellis	-5091
ellys	-5092
emmän	-5093
emmäs	-5094
ilaan	-5095
inätä	-5096
iskua	-5097
istus	-5098
jalka	-5099
jistä	-5100
jonen	-5101
kelee	-5102
kenut	-5103
lassa	-5104
llään	-5105
mahti	-5106
nisko	-5107
nissa	-5108
oimme	-5109
oitte	-5110
oitus	-5111
oseni	-5112
ppuun	-5113
päitä	-5114
rasta	-5115
sikka	-5116
silla	-5117
teitä	-5118
tinen	-5119
tisti	-5120
tusta	-5121
ukses	-5122
uskan	-5123
ussia	-5124
vamme	-5125
villä	-5126
vissä	-5127
vista	-5128
yrsky	-5129
ysten	-5130
▁Aika	-5131
▁Ehkä	-5132
▁Eipä	-5133
▁Huom	-5134
▁Ihan	-5135
▁Kysy	-5136
▁NAHK	-5137
▁Noin	-5138
▁Nous	-5139
▁Pidä	-5140
▁Pitä	-5141
▁Sama	-5142
▁Tosi	-5143
▁Vaan	-5144
▁ahma	-5145
▁aini	-5146
▁ajat	-5147
▁autu	-5148
▁enpä	-5149
▁harj	-5150
▁hiir	-5151
▁hius	-5152
▁hyyr	-5153
▁julm	-5154
▁juos	-5155
▁juov	-5156
▁jyke	-5157
▁keih	-5158
▁klan	-5159
▁kuih	-5160
▁kula	-5161
▁kulj	-5162
▁käen	-5163
▁kärm	-5164
▁lato	-5165
▁leve	-5166
▁luja	-5167
▁lupa	-5168
▁muka	-5169
▁nimi	-5170
▁nuol	-5171
▁nurm	-5172
▁näen	-5173
▁pann	-5174
▁puls	-5175
▁puss	-5176
▁pysy	-5177
▁rait	-5178
▁reik	-5179
▁reng	-5180
▁sade	-5181
▁sarv	-5182
▁soit	-5183
▁tann	-5184
▁taps	-5185
▁tasa	-5186
▁teur	-5187
▁turh	-5188
▁ulvo	-5189
▁unen	-5190
▁usea	-5191
▁vaku	-5192
▁vell	-5193
▁vetä	-5194
▁vieh	-5195
▁viho	-5196
▁viiv	-5197
▁vilj	-5198
▁viul	-5199
▁yrit	-5200
attiin	-5201
atunut	-5202
detään	-5203
eltävä	-5204
evansa	-5205
häällä	-5206
ikasta	-5207
ilevat	-5208
isensa	-5209
isilmä	-5210
jainen	-5211
joukko	-5212
kaisen	-5213
kaisin	-5214
keensä	-5215
keista	-5216
kkaita	-5217
kkansa	-5218
kkulan	-5219
koivat	-5220
leiksi	-5221
ltansa	-5222
mmalla	-5223
nellen	-5224
ottiin	-5225
päivän	-5226
siämme	-5227
tomina	-5228
tuksen	-5229
tyköön	-5230
tyneet	-5231
uksiin	-5232
unalan	-5233
utensa	-5234
vollis	-5235
ähtäen	-5236
öitsee	-5237
▁Eeroa	-5238
▁Enhän	-5239
▁Entäs	-5240
▁Härkä	-5241
▁Kukas	-5242
▁Näkyi	-5243
▁Ohhoo	-5244
▁Olipa	-5245
▁Pojat	-5246
▁Suuri	-5247
▁Tiedä	-5248
▁Timoa	-5249
▁Tuota	-5250
▁Varro	-5251
▁Vasta	-5252
▁Voima	-5253
▁ampui	-5254
▁avasi	-5255
▁eilen	-5256
▁emänn	-5257
▁enhän	-5258
▁heila	-5259
▁hirsi	-5260
▁huoma	-5261
▁hyvät	-5262
▁ikään	-5263
▁immen	-5264
▁itään	-5265
▁johta	-5266
▁jolle	-5267
▁joutu	-5268
▁jykev	-5269
▁kadot	-5270
▁kalup	-5271
▁kammi	-5272
▁karme	-5273
▁kelme	-5274
▁kerta	-5275
▁kiipe	-5276
▁kirot	-5277
▁kitaa	-5278
▁kiviä	-5279
▁korea	-5280
▁korpi	-5281
▁koste	-5282
▁koulu	-5283
▁kruut	-5284
▁kumis	-5285
▁kuran	-5286
▁kädet	-5287
▁kömpp	-5288
▁laiho	-5289
▁lanta	-5290
▁lapse	-5291
▁leipä	-5292
▁lukua	-5293
▁lähet	-5294
▁lämpö	-5295
▁läpeä	-5296
▁mekin	-5297
▁merki	-5298
▁metel	-5299
▁morsi	-5300
▁muija	-5301
▁muita	-5302
▁muren	-5303
▁murha	-5304
▁orhin	-5305
▁ostaa	-5306
▁pahan	-5307
▁paini	-5308
▁paist	-5309
▁palan	-5310
▁patal	-5311
▁perhe	-5312
▁pilka	-5313
▁pimeä	-5314
▁puner	-5315
▁puoli	-5316
▁putoo	-5317
▁puusk	-5318
▁pyhän	-5319
▁pääse	-5320
▁pääsi	-5321
▁pöydä	-5322
▁rinte	-5323
▁rupee	-5324
▁samma	-5325
▁sauva	-5326
▁sehän	-5327
▁seinä	-5328
▁siera	-5329
▁siner	-5330
▁sokea	-5331
▁suits	-5332
▁suuta	-5333
▁tahdo	-5334
▁talvi	-5335
▁tavar	-5336
▁tekis	-5337
▁tover	-5338
▁tulip	-5339
▁tunke	-5340
▁tunki	-5341
▁tuska	-5342
▁tuvan	-5343
▁tynnö	-5344
▁tähte	-5345
▁tähtä	-5346
▁tälla	-5347
▁töitä	-5348
▁vatsa	-5349
▁väkeä	-5350
▁värss	-5351
▁yönsä	-5352
attomat	-5353
eilivat	-5354
elemaan	-5355
ellähän	-5356
illemme	-5357
illistä	-5358
inkalan	-5359
iskanen	-5360
istössä	-5361
oisesti	-5362
oitettu	-5363
oitteli	-5364
päivinä	-5365
sillaan	-5366
uttelin	-5367
uttivat	-5368
uudesta	-5369
yksellä	-5370
ässänsä	-5371
▁Ainapa	-5372
▁Edellä	-5373
▁Kohden	-5374
▁Kuului	-5375
▁Mörökö	-5376
▁Tuosta	-5377
▁Valkon	-5378
▁akkuna	-5379
▁alussa	-5380
▁asiaan	-5381
▁elikko	-5382
▁elämää	-5383
▁harras	-5384
▁heiltä	-5385
▁huolta	-5386
▁huutaa	-5387
▁hännät	-5388
▁härkiä	-5389
▁isänsä	-5390
▁juopun	-5391
▁jyrinä	-5392
▁jäljet	-5393
▁kaatoi	-5394
▁kammar	-5395
▁kantoi	-5396
▁karvas	-5397
▁kasvat	-5398
▁kelpaa	-5399
▁kerjäl	-5400
▁keräjä	-5401
▁kiitti	-5402
▁kirjat	-5403
▁kohtal	-5404
▁koivun	-5405
▁kolman	-5406
▁kontit	-5407
▁korjat	-5408
▁kuivan	-5409
▁kummas	-5410
▁kuorsa	-5411
▁kutsui	-5412
▁kynnet	-5413
▁käskyn	-5414
▁käyden	-5415
▁käänty	-5416
▁köntti	-5417
▁lasten	-5418
▁laulun	-5419
▁maanti	-5420
▁maksaa	-5421
▁myhäil	-5422
▁naamaa	-5423
▁neitoa	-5424
▁nimeen	-5425
▁niskat	-5426
▁nuorin	-5427
▁nuorta	-5428
▁näistä	-5429
▁näyttä	-5430
▁pienet	-5431
▁piisaa	-5432
▁pilkka	-5433
▁pilven	-5434
▁puhdas	-5435
▁puheen	-5436
▁puoles	-5437
▁pussit	-5438
▁pykälä	-5439
▁päältä	-5440
▁pöllis	-5441
▁pöllyt	-5442
▁reunaa	-5443
▁riehui	-5444
▁rohken	-5445
▁ryyppy	-5446
▁ryövär	-5447
▁saamme	-5448
▁saatan	-5449
▁sappea	-5450
▁sielun	-5451
▁siirry	-5452
▁silmiä	-5453
▁suostu	-5454
▁surkut	-5455
▁suurta	-5456
▁synnin	-5457
▁synnyt	-5458
▁taatto	-5459
▁tallin	-5460
▁tietty	-5461
▁tonttu	-5462
▁tuleen	-5463
▁tunnin	-5464
▁tunsit	-5465
▁tuulis	-5466
▁tyttöä	-5467
▁tähten	-5468
▁tärkeä	-5469
▁unohta	-5470
▁vaelta	-5471
▁vaikea	-5472
▁vartoo	-5473
▁vieras	-5474
▁viikko	-5475
▁virren	-5476
▁voinut	-5477
▁väikky	-5478
▁väliin	-5479
▁väärin	-5480
▁älköön	-5481
ettömänä	-5482
kallansa	-5483
mielinen	-5484
punainen	-5485
puolella	-5486
▁Emmehän	-5487
▁Jukolaa	-5488
▁Mitähän	-5489
▁Useinpa	-5490
▁aatteli	-5491
▁akkunan	-5492
▁emäntää	-5493
▁enemmän	-5494
▁haltuun	-5495
▁huuteli	-5496
▁hyppeli	-5497
▁jalkain	-5498
▁juosten	-5499
▁kajasti	-5500
▁kiljuva	-5501
▁kirjoit	-5502
▁kirmasi	-5503
▁kiukaan	-5504
▁kiveltä	-5505
▁kivisen	-5506
▁korkean	-5507
▁kotomme	-5508
▁kouluun	-5509
▁kuusten	-5510
▁kätensä	-5511
▁käyköön	-5512
▁loistaa	-5513
▁lumessa	-5514
▁lyötiin	-5515
▁maistaa	-5516
▁minulta	-5517
▁muutkin	-5518
▁möräten	-5519
▁oppinut	-5520
▁otsansa	-5521
▁pauhasi	-5522
▁peukalo	-5523
▁poikain	-5524
▁povessa	-5525
▁puitten	-5526
▁punakan	-5527
▁pussiin	-5528
▁pöytään	-5529
▁rahilla	-5530
▁rakenta	-5531
▁rovasti	-5532
▁salojen	-5533
▁sieluni	-5534
▁siinäpä	-5535
▁sinulla	-5536
▁sisällä	-5537
▁suureen	-5538
▁säteili	-5539
▁tapahtu	-5540
▁tehneet	-5541
▁tulevan	-5542
▁tulisen	-5543
▁tulivat	-5544
▁ukkonen	-5545
▁varoten	-5546
▁vastoin	-5547
▁vihansa	-5548
▁vihasta	-5549
▁viheliä	-5550
▁vilkais	-5551
▁virtasi	-5552
▁visusti	-5553
▁vuoroka	-5554
▁väikkyi	-5555
▁yhdestä	-5556
▁yleinen	-5557
▁äänensä	-5558
APEITTURI	-5559
silmäinen	-5560
▁Kourusuo	-5561
▁Kuulkaat	-5562
▁Pohjolan	-5563
▁arvellen	-5564
▁askeleen	-5565
▁etsimään	-5566
▁harjulle	-5567
▁helmassa	-5568
▁henkemme	-5569
▁itsiämme	-5570
▁joukkoon	-5571
▁järjesty	-5572
▁kauemmin	-5573
▁kauhista	-5574
▁kierteli	-5575
▁kiitivät	-5576
▁kiltisti	-5577
▁kotoansa	-5578
▁kourasta	-5579
▁kuoppaan	-5580
▁kyllähän	-5581
▁loimotta	-5582
▁löytynyt	-5583
▁mieleeni	-5584
▁muotonsa	-5585
▁naapurin	-5586
▁niitulla	-5587
▁nurkasta	-5588
▁pakkanen	-5589
▁pappilan	-5590
▁peltojen	-5591
▁permanto	-5592
▁pinnalla	-5593
▁pirtistä	-5594
▁puhaltaa	-5595
▁puoleksi	-5596
▁puolelle	-5597
▁päivältä	-5598
▁päälleni	-5599
▁rannalla	-5600
▁saattaen	-5601
▁taakseen	-5602
▁talvella	-5603
▁tekemään	-5604
▁testamen	-5605
▁toiseksi	-5606
▁totisena	-5607
▁totuuden	-5608
▁tulevana	-5609
▁tuoretta	-5610
▁tuostapa	-5611
▁useinkin	-5612
▁varustet	-5613
▁veljestä	-5614
▁veriseen	-5615
▁vuodessa	-5616
▁vuorelle	-5617
▁Heiskanen	-5618
▁Impivaara	-5619
▁Jukolasta	-5620
▁Karkkulan	-5621
▁Teerimäen	-5622
▁Veljekset	-5623
▁Vuohenkal	-5624
▁ahkerasti	-5625
▁ainiaaksi	-5626
▁edessämme	-5627
▁havutukin	-5628
▁heittivät	-5629
▁hiljainen	-5630
▁hongiston	-5631
▁kankeasti	-5632
▁kauhistus	-5633
▁kenenkään	-5634
▁kestäessä	-5635
▁kiireesti	-5636
▁kirvesvar	-5637
▁kristitty	-5638
▁kumminkin	-5639
▁käykäämme	-5640
▁myhäillen	-5641
▁ohitsensa	-5642
▁parhaiten	-5643
▁pyörryttä	-5644
▁rakettiin	-5645
▁rykmentti	-5646
▁seuraavan	-5647
▁sydämemme	-5648
▁sydämessä	-5649
▁taivaassa	-5650
▁tukkaansa	-5651
▁tulisijan	-5652
▁tulitakan	-5653
▁tultuansa	-5654
▁vaipuivat	-5655
▁vartomaan	-5656
▁viimeisen	-5657
▁viisautta	-5658
▁Kuninkalan	-5659
▁aatoksensa	-5660
▁ehtimiseen	-5661
▁lausumatta	-5662
▁liikkeille	-5663
▁oivallisen	-5664
▁pyöriskeli	-5665
▁rynkäsivät	-5666
▁siunatkoon	-5667
▁tuliaisjuh	-5668
▁uskaltanut	-5669
▁vasemmalla	-5670
▁viimeiseen	-5671
▁armahtakoon	-5672
▁jahtivoudin	-5673
▁miehellensä	-5674
▁nuorukaisen	-5675
▁seuraavalla	-5676
▁taistelivat	-5677
▁vilauksessa	-5678
▁heittäkäämme	-5679
▁tavallisesti	-5680
▁tervehtimään	-5681
▁NAHKAPEITTURI	-5682
▁rangaistuksen	-5683
EK	-5684
▁f	-5685
,--	-5686
EKS	-5687
ELJ	-5688
IST	-5689
UUT	-5690
dyn	-5691
ehd	-5692
eja	-5693
ete	-5694
hah	-5695
hal	-5696
hir	-5697
hto	-5698
ipu	-5699
ito	-5700
jus	-5701
ket	-5702
mun	-5703
mut	-5704
ole	-5705
oss	-5706
puh	-5707
pöy	-5708
sat	-5709
suo	-5710
tai	-5711
tul	-5712
vih	-5713
yin	-5714
ysi	-5715
▁Ti	-5716
▁id	-5717
▁in	-5718
▁mo	-5719
▁Äl	-5720
Mikä	-5721
ehen	-5722
elsi	-5723
eraa	-5724
esen	-5725
etun	-5726
etön	-5727
feer	-5728
huon	-5729
ikat	-5730
ilet	-5731
ityt	-5732
ival	-5733
jain	-5734
jeni	-5735
kani	-5736
kasa	-5737
keus	-5738
kian	-5739
kiel	-5740
kivi	-5741
koij	-5742
kses	-5743
kset	-5744
linn	-5745
llän	-5746
lläs	-5747
mmäs	-5748
moin	-5749
onna	-5750
onta	-5751
osen	-5752
otte	-5753
oval	-5754
pete	-5755
psen	-5756
teer	-5757
toja	-5758
toor	-5759
ttää	-5760
tyne	-5761
ulin	-5762
unsv	-5763
vina	-5764
yrin	-5765
yten	-5766
yönä	-5767
älle	-5768
ääni	-5769
äänä	-5770
▁Juo	-5771
▁Kah	-5772
▁Kau	-5773
▁Kuu	-5774
▁Pah	-5775
▁Pan	-5776
▁Puh	-5777
▁Sal	-5778
▁Suo	-5779
▁Tar	-5780
▁Tus	-5781
▁Työ	-5782
▁Vir	-5783
▁Väh	-5784
▁Yhd	-5785
▁aal	-5786
▁aid	-5787
▁erä	-5788
▁hat	-5789
▁hik	-5790
▁huk	-5791
▁joh	-5792
▁jol	-5793
▁jyt	-5794
▁jäy	-5795
▁kit	-5796
▁kot	-5797
▁kro	-5798
▁kyy	-5799
▁käh	-5800
▁köl	-5801
▁mut	-5802
▁nei	-5803
▁noi	-5804
▁oto	-5805
▁pii	-5806
▁pim	-5807
▁pri	-5808
▁pyl	-5809
▁rat	-5810
▁rem	-5811
▁rev	-5812
▁röy	-5813
▁säl	-5814
▁töy	-5815
▁uhr	-5816
▁upp	-5817
▁vei	-5818
▁ves	-5819
▁vää	-5820
aalla	-5821
aneet	-5822
assoo	-5823
eihin	-5824
eipää	-5825
eisin	-5826
empaa	-5827
errus	-5828
gissä	-5829
hattu	-5830
häntä	-5831
iaksi	-5832
imaan	-5833
inata	-5834
ineen	-5835
inesi	-5836
iseni	-5837
isevä	-5838
isnut	-5839
istoa	-5840
istön	-5841
kaana	-5842
kaise	-5843
kalan	-5844
kasin	-5845
kettä	-5846
mansa	-5847
mpäri	-5848
nusti	-5849
oitan	-5850
okset	-5851
olais	-5852
onnut	-5853
pojan	-5854
rilla	-5855
sinen	-5856
sitta	-5857
teita	-5858
tietä	-5859
timme	-5860
tinas	-5861
tivat	-5862
tomme	-5863
tuaan	-5864
vatpa	-5865
velta	-5866
ykset	-5867
yksiä	-5868
yneet	-5869
yteen	-5870
ännyt	-5871
▁Ilma	-5872
▁Joka	-5873
▁Kill	-5874
▁Koir	-5875
▁Lusi	-5876
▁MUUT	-5877
▁Mies	-5878
▁Oiva	-5879
▁Olet	-5880
▁Seba	-5881
▁Tuom	-5882
▁Viha	-5883
▁ahte	-5884
▁aike	-5885
▁haih	-5886
▁hala	-5887
▁hava	-5888
▁illa	-5889
▁irti	-5890
▁jala	-5891
▁juhd	-5892
▁juom	-5893
▁kaad	-5894
▁kepp	-5895
▁kila	-5896
▁kita	-5897
▁kiul	-5898
▁koip	-5899
▁kuko	-5900
▁kuma	-5901
▁kumo	-5902
▁kylp	-5903
▁kääp	-5904
▁lahj	-5905
▁lamm	-5906
▁loil	-5907
▁louk	-5908
▁luku	-5909
▁luot	-5910
▁länn	-5911
▁maat	-5912
▁mars	-5913
▁muon	-5914
▁muor	-5915
▁mäik	-5916
▁ojen	-5917
▁olin	-5918
▁omat	-5919
▁otan	-5920
▁otus	-5921
▁pata	-5922
▁paul	-5923
▁piim	-5924
▁ponn	-5925
▁päre	-5926
▁raat	-5927
▁ruis	-5928
▁samo	-5929
▁summ	-5930
▁syyn	-5931
▁säik	-5932
▁tein	-5933
▁tirk	-5934
▁tois	-5935
▁turp	-5936
▁työs	-5937
▁tähd	-5938
▁vais	-5939
▁valv	-5940
▁viil	-5941
▁ving	-5942
▁vuoh	-5943
▁ylpe	-5944
aamaan	-5945
ahtaen	-5946
annuol	-5947
astiin	-5948
donnut	-5949
ellesi	-5950
elläni	-5951
enässä	-5952
estiin	-5953
ikossa	-5954
impaan	-5955
iseltä	-5956
isevat	-5957
isevia	-5958
isevän	-5959
isistä	-5960
itansa	-5961
ittäen	-5962
itusta	-5963
ivätpä	-5964
jennut	-5965
kealla	-5966
llisia	-5967
llistä	-5968
misten	-5969
mmalta	-5970
muorin	-5971
nemmin	-5972
oiseen	-5973
oratta	-5974
pellon	-5975
puolen	-5976
pääksi	-5977
taanpa	-5978
tasten	-5979
tuunsa	-5980
täällä	-5981
uriita	-5982
urille	-5983
uvassa	-5984
ynällä	-5985
yytyvä	-5986
▁Heitä	-5987
▁Hänpä	-5988
▁Jumal	-5989
▁Kannu	-5990
▁Kiiva	-5991
▁Kilja	-5992
▁Kiusa	-5993
▁Koivi	-5994
▁Kukko	-5995
▁Lapin	-5996
▁Lähte	-5997
▁Malta	-5998
▁Meitä	-5999
▁Metsä	-6000
▁Nousi	-6001
▁Sella	-6002
▁Tietä	-6003
▁Vaikk	-6004
▁Viime	-6005
▁Vähän	-6006
▁armon	-6007
▁asiat	-6008
▁atrio	-6009
▁haamu	-6010
▁haara	-6011
▁huhka	-6012
▁humma	-6013
▁hunsv	-6014
▁huoli	-6015
▁häiri	-6016
▁ihmee	-6017
▁isken	-6018
▁istua	-6019
▁istut	-6020
▁itkeä	-6021
▁jokin	-6022
▁kaapa	-6023
▁kakar	-6024
▁kalta	-6025
▁kannu	-6026
▁kapin	-6027
▁karan	-6028
▁kasta	-6029
▁katum	-6030
▁kello	-6031
▁kivet	-6032
▁kiveä	-6033
▁kodon	-6034
▁koeta	-6035
▁kosto	-6036
▁kurju	-6037
▁kynsi	-6038
▁kysyi	-6039
▁kärme	-6040
▁käypä	-6041
▁latvo	-6042
▁lause	-6043
▁leikk	-6044
▁levot	-6045
▁lihan	-6046
▁linna	-6047
▁löydy	-6048
▁löysi	-6049
▁meren	-6050
▁monin	-6051
▁mulko	-6052
▁mäkeä	-6053
▁mäkiä	-6054
▁mälli	-6055
▁nappa	-6056
▁nauku	-6057
▁nosti	-6058
▁näitä	-6059
▁omaan	-6060
▁onnea	-6061
▁paina	-6062
▁paksu	-6063
▁palaa	-6064
▁panee	-6065
▁parin	-6066
▁pedot	-6067
▁peura	-6068
▁piian	-6069
▁pikiä	-6070
▁pipli	-6071
▁potka	-6072
▁pouta	-6073
▁pöllö	-6074
▁ravin	-6075
▁riihi	-6076
▁räisk	-6077
▁sadat	-6078
▁sakea	-6079
▁sappi	-6080
▁siivo	-6081
▁suoja	-6082
▁surut	-6083
▁sylei	-6084
▁synte	-6085
▁säkki	-6086
▁tulik	-6087
▁tulin	-6088
▁ulkoa	-6089
▁uneen	-6090
▁uusia	-6091
▁vaikk	-6092
▁vaiva	-6093
▁valan	-6094
▁vapaa	-6095
▁verip	-6096
▁villa	-6097
▁väsyn	-6098
astamme	-6099
eltansa	-6100
essänne	-6101
ettyinä	-6102
istunut	-6103
ittelee	-6104
ittävän	-6105
kerroin	-6106
koittaa	-6107
llisten	-6108
mmaista	-6109
oinneet	-6110
oisella	-6111
oisessa	-6112
ollista	-6113
plikaan	-6114
sittain	-6115
tuneena	-6116
uksemme	-6117
urkassa	-6118
ustansa	-6119
utuksen	-6120
uvantai	-6121
veljeni	-6122
yydestä	-6123
ähtivät	-6124
ältänsä	-6125
▁Aapeli	-6126
▁Huomaa	-6127
▁Kiitos	-6128
▁Lukkar	-6129
▁Päivää	-6130
▁Samoin	-6131
▁Sepete	-6132
▁Sieltä	-6133
▁Sinäkö	-6134
▁Sisään	-6135
▁Tahdon	-6136
▁Tuonne	-6137
▁Vaikka	-6138
▁aikaan	-6139
▁aikana	-6140
▁alusta	-6141
▁ampuma	-6142
▁armaat	-6143
▁armoit	-6144
▁asunto	-6145
▁avattu	-6146
▁etsien	-6147
▁haavan	-6148
▁harkit	-6149
▁haudan	-6150
▁hirret	-6151
▁huulet	-6152
▁hämmäs	-6153
▁hänkin	-6154
▁ihanan	-6155
▁ilveks	-6156
▁istuen	-6157
▁joihin	-6158
▁juurta	-6159
▁jyrisi	-6160
▁jälkiä	-6161
▁jäniks	-6162
▁kaataa	-6163
▁kaikua	-6164
▁kaksin	-6165
▁kannan	-6166
▁karjaa	-6167
▁kasken	-6168
▁keikut	-6169
▁keinon	-6170
▁kellot	-6171
▁kestää	-6172
▁kierto	-6173
▁kiväär	-6174
▁kohisi	-6175
▁kohtuu	-6176
▁koiran	-6177
▁koiria	-6178
▁kuivat	-6179
▁kulkee	-6180
▁kuopan	-6181
▁kutsua	-6182
▁kuulin	-6183
▁kuumen	-6184
▁kärsim	-6185
▁käsitä	-6186
▁käyvän	-6187
▁käänsi	-6188
▁laiska	-6189
▁laitum	-6190
▁laulaa	-6191
▁lausuu	-6192
▁lievit	-6193
▁lunttu	-6194
▁maalle	-6195
▁maksoi	-6196
▁metsäs	-6197
▁muille	-6198
▁muodon	-6199
▁mustaa	-6200
▁mustia	-6201
▁muutta	-6202
▁mäelle	-6203
▁naapur	-6204
▁naisen	-6205
▁naudan	-6206
▁nauris	-6207
▁niitut	-6208
▁noiden	-6209
▁nurkan	-6210
▁näinpä	-6211
▁oikean	-6212
▁oletpa	-6213
▁olisin	-6214
▁ometan	-6215
▁omista	-6216
▁otamme	-6217
▁otsaan	-6218
▁pakana	-6219
▁palkin	-6220
▁peljäs	-6221
▁piirin	-6222
▁pimeät	-6223
▁pintaa	-6224
▁pitäen	-6225
▁pohmel	-6226
▁pullis	-6227
▁puolen	-6228
▁raivat	-6229
▁riihen	-6230
▁saatpa	-6231
▁samaan	-6232
▁seinän	-6233
▁seistä	-6234
▁surkea	-6235
▁suurin	-6236
▁syllän	-6237
▁syntiä	-6238
▁syvimm	-6239
▁syvään	-6240
▁syömme	-6241
▁taakse	-6242
▁taidat	-6243
▁tarhan	-6244
▁tehtäv	-6245
▁teillä	-6246
▁teimme	-6247
▁tietoa	-6248
▁toimit	-6249
▁travia	-6250
▁tuhlaa	-6251
▁tuleva	-6252
▁tunten	-6253
▁tuuman	-6254
▁tynnör	-6255
▁tyynen	-6256
▁tähteä	-6257
▁täytti	-6258
▁vaatii	-6259
▁vanhaa	-6260
▁vanhat	-6261
▁varoja	-6262
▁viikon	-6263
▁viipyä	-6264
▁viitta	-6265
▁vilkka	-6266
▁viulun	-6267
▁voiman	-6268
▁vuosia	-6269
▁ylitse	-6270
▁ystävä	-6271
▁äkeänä	-6272
ettavana	-6273
oistansa	-6274
parvella	-6275
poikanen	-6276
ukkainen	-6277
ähtämään	-6278
▁Juhania	-6279
▁Kaiketi	-6280
▁Minähän	-6281
▁Muutoin	-6282
▁Sitähän	-6283
▁Teerimä	-6284
▁Tässäpä	-6285
▁Tästäpä	-6286
▁Vieläpä	-6287
▁aatella	-6288
▁ajoista	-6289
▁allamme	-6290
▁antanut	-6291
▁asioita	-6292
▁einettä	-6293
▁halkoja	-6294
▁harteva	-6295
▁hetkenä	-6296
▁hevosen	-6297
▁hevoset	-6298
▁hevosta	-6299
▁hirveän	-6300
▁huoaten	-6301
▁huutaen	-6302
▁huutain	-6303
▁ilmasta	-6304
▁iloista	-6305
▁irvissä	-6306
▁irvistä	-6307
▁juurien	-6308
▁jälkeen	-6309
▁jätämme	-6310
▁kahdeks	-6311
▁kahteen	-6312
▁kalliin	-6313
▁kantapä	-6314
▁kestiin	-6315
▁kidasta	-6316
▁kiihtyi	-6317
▁kiinteä	-6318
▁kiipesi	-6319
▁kirmais	-6320
▁kirveet	-6321
▁kivestä	-6322
▁klaneet	-6323
▁kuollut	-6324
▁kuormaa	-6325
▁kylkeen	-6326
▁kylläpä	-6327
▁kärmeen	-6328
▁käsissä	-6329
▁kääntyä	-6330
▁levoton	-6331
▁liikkui	-6332
▁mahtava	-6333
▁maistuu	-6334
▁mieleni	-6335
▁muuttaa	-6336
▁myöhään	-6337
▁nojalla	-6338
▁nuotion	-6339
▁nuuskan	-6340
▁nähneet	-6341
▁oliskin	-6342
▁oljilla	-6343
▁osoitti	-6344
▁perusta	-6345
▁pirttiä	-6346
▁poikien	-6347
▁päivään	-6348
▁pääkall	-6349
▁rastiin	-6350
▁raukeni	-6351
▁riippui	-6352
▁rukoile	-6353
▁rämeitä	-6354
▁saadaan	-6355
▁saakoon	-6356
▁saarnaa	-6357
▁samalla	-6358
▁sanonpa	-6359
▁sieraim	-6360
▁sivulle	-6361
▁sorttia	-6362
▁tanssii	-6363
▁tehkäät	-6364
▁temppel	-6365
▁tulessa	-6366
▁tullaan	-6367
▁ummessa	-6368
▁uskomme	-6369
▁uudista	-6370
▁verinen	-6371
▁viritti	-6372
▁vuosien	-6373
▁välille	-6374
▁yhdeksi	-6375
▁ystävät	-6376
ahtelivat	-6377
attomasti	-6378
ellessaan	-6379
feeruksen	-6380
istuneena	-6381
kaltainen	-6382
päiväinen	-6383
▁Kerranpa	-6384
▁Kymmenen	-6385
▁Seunalan	-6386
▁Tuomasta	-6387
▁Tuonelan	-6388
▁aattelee	-6389
▁aattelet	-6390
▁auttanut	-6391
▁ehtineet	-6392
▁etelässä	-6393
▁haaralta	-6394
▁helmasta	-6395
▁hikoilee	-6396
▁hinnalla	-6397
▁hirveätä	-6398
▁hurjasti	-6399
▁hyvääkin	-6400
▁istumaan	-6401
▁itsiänsä	-6402
▁joukossa	-6403
▁kaatanut	-6404
▁kannalta	-6405
▁kielellä	-6406
▁koivisto	-6407
▁kouraani	-6408
▁kouransa	-6409
▁kurkkuun	-6410
▁kynsistä	-6411
▁käytteli	-6412
▁leikissä	-6413
▁luolissa	-6414
▁lähestyä	-6415
▁lähtenyt	-6416
▁maananta	-6417
▁matkusta	-6418
▁menettää	-6419
▁miehellä	-6420
▁minunkin	-6421
▁mustassa	-6422
▁nauriita	-6423
▁nauttien	-6424
▁niinmyös	-6425
▁nurkassa	-6426
▁närkästy	-6427
▁ottamaan	-6428
▁paatunut	-6429
▁pienestä	-6430
▁pimeässä	-6431
▁pohjonen	-6432
▁poikansa	-6433
▁poskensa	-6434
▁puhkaten	-6435
▁punoitta	-6436
▁puolusta	-6437
▁päissään	-6438
▁päiväksi	-6439
▁ratsasti	-6440
▁retkeili	-6441
▁ristissä	-6442
▁sateessa	-6443
▁seisovan	-6444
▁seurassa	-6445
▁sieltäpä	-6446
▁sielunsa	-6447
▁sudentar	-6448
▁suloinen	-6449
▁syntynyt	-6450
▁sysikoij	-6451
▁tahdotte	-6452
▁tahtoisi	-6453
▁tahtonut	-6454
▁taistelo	-6455
▁tappelus	-6456
▁toisella	-6457
▁toivomme	-6458
▁tuimasti	-6459
▁tunkeusi	-6460
▁tyttären	-6461
▁ukkospil	-6462
▁vaatteet	-6463
▁vaipunut	-6464
▁vallassa	-6465
▁vanhasta	-6466
▁vapauden	-6467
▁vietävät	-6468
▁vilpittö	-6469
▁vinhasti	-6470
▁viskatta	-6471
▁vuodeksi	-6472
▁vuorella	-6473
▁vuoresta	-6474
▁yhteinen	-6475
▁yksikään	-6476
▁ylhäällä	-6477
▁Ilvesjärv	-6478
▁Kiivaasti	-6479
▁Käykäämme	-6480
▁Mörökölli	-6481
▁Rupesivat	-6482
▁Sompiosuo	-6483
▁Tehkäämme	-6484
▁Tuossahan	-6485
▁ensinkään	-6486
▁hirmuista	-6487
▁hunsvotti	-6488
▁itsekseen	-6489
▁itsepinta	-6490
▁jälkeensä	-6491
▁jäähyväis	-6492
▁kalupuita	-6493
▁karvainen	-6494
▁katosivat	-6495
▁katsoivat	-6496
▁kerkeästi	-6497
▁kernaasti	-6498
▁keskustel	-6499
▁kiertoili	-6500
▁kirkonkyl	-6501
▁korttelia	-6502
▁kultaista	-6503
▁kuninkaan	-6504
▁lainehtii	-6505
▁muistelee	-6506
▁naamaansa	-6507
▁niskoilla	-6508
▁nukkumaan	-6509
▁parastani	-6510
▁partaalla	-6511
▁paukahtaa	-6512
▁peittivät	-6513
▁pieksivät	-6514
▁provastin	-6515
▁puhaltaen	-6516
▁päältänsä	-6517
▁rakkauden	-6518
▁rinteellä	-6519
▁ruumiinsa	-6520
▁saaliiksi	-6521
▁sellaista	-6522
▁tahtoisin	-6523
▁tehkäämme	-6524
▁tietäkäät	-6525
▁tulisella	-6526
▁tuossahan	-6527
▁tutkistel	-6528
▁täyttivät	-6529
▁uhkeammin	-6530
▁unohdettu	-6531
▁vainiolla	-6532
▁valtainen	-6533
▁valtaisen	-6534
▁vanhimman	-6535
▁velvollis	-6536
▁veressään	-6537
▁viisaasti	-6538
▁viskellen	-6539
▁väkivalta	-6540
▁ympäristö	-6541
▁ystävänsä	-6542
▁ärhenteli	-6543
▁Hämeenlinn	-6544
▁Impivaaraa	-6545
▁Sompiosuon	-6546
▁Viertolaan	-6547
▁hiljaisuus	-6548
▁hulluuksia	-6549
▁jahtivouti	-6550
▁jalallansa	-6551
▁kartanosta	-6552
▁kauhistuen	-6553
▁kiinteästi	-6554
▁kirmasivat	-6555
▁kuullellen	-6556
▁kääntyivät	-6557
▁käärittynä	-6558
▁lämpymässä	-6559
▁mietiskeli	-6560
▁noidannuol	-6561
▁otsaltansa	-6562
▁tavallista	-6563
▁tuommoinen	-6564
▁Frallaralla	-6565
▁Hiidenkiven	-6566
▁Ilvesjärven	-6567
▁Sepeteuksen	-6568
▁ehdittyänsä	-6569
▁ensimmäisen	-6570
▁huohoittaen	-6571
▁huomaamatta	-6572
▁ihmeellinen	-6573
▁kummallista	-6574
▁lapsellensa	-6575
▁muistelivat	-6576
▁nuuskanaama	-6577
▁parveilivat	-6578
▁pelastuksen	-6579
▁peloittavan	-6580
▁polvillensa	-6581
▁puolellamme	-6582
▁silmistänsä	-6583
▁sinkoilivat	-6584
▁tuohikontit	-6585
▁veljeksillä	-6586
▁veljillensä	-6587
▁vihoissansa	-6588
▁äänettömyys	-6589
▁Impivaarasta	-6590
▁kasvoiltansa	-6591
▁kiittäkäämme	-6592
▁kiukkuisesti	-6593
▁koettakaamme	-6594
▁kulkeissansa	-6595
▁mietiskellen	-6596
▁oljentelivat	-6597
▁pullistuivat	-6598
▁päästäksemme	-6599
▁rientäkäämme	-6600
▁seisahtuivat	-6601
▁syljeskellen	-6602
▁varustettuna	-6603
▁Lusifeeruksen	-6604
▁peloittavalla	-6605
▁rallarallalaa	-6606
▁sammaleisella	-6607
▁sammaleisessa	-6608
▁tuijottelivat	-6609
▁kunnioitettava	-6610
HD	-6611
He	-6612
Ku	-6613
On	-6614
TI	-6615
TO	-6616
hn	-6617
my	-6618
▁Ö	-6619
Oli	-6620
akk	-6621
all	-6622
eno	-6623
gel	-6624
iso	-6625
kau	-6626
kra	-6627
kui	-6628
kuo	-6629
kys	-6630
käy	-6631
köt	-6632
lat	-6633
mmh	-6634
mpu	-6635
nia	-6636
orm	-6637
pat	-6638
poh	-6639
pos	-6640
psi	-6641
psä	-6642
pöt	-6643
sar	-6644
ske	-6645
syn	-6646
tio	-6647
tuo	-6648
vot	-6649
yss	-6650
yyh	-6651
ähd	-6652
äng	-6653
äst	-6654
öön	-6655
▁Al	-6656
▁Er	-6657
▁Hu	-6658
▁Lä	-6659
▁Ni	-6660
▁Pu	-6661
▁Ri	-6662
▁au	-6663
▁ij	-6664
▁kn	-6665
▁oj	-6666
▁pl	-6667
▁äh	-6668
Eero	-6669
ISTA	-6670
aamu	-6671
anut	-6672
arit	-6673
atko	-6674
elit	-6675
etki	-6676
etkö	-6677
hana	-6678
heen	-6679
ikel	-6680
ikeä	-6681
ikös	-6682
insä	-6683
intä	-6684
ipeä	-6685
ippa	-6686
isla	-6687
jata	-6688
jona	-6689
juon	-6690
kala	-6691
kama	-6692
kela	-6693
kenä	-6694
kism	-6695
kkui	-6696
kkuu	-6697
kola	-6698
koni	-6699
kuen	-6700
kunn	-6701
kynä	-6702
käli	-6703
käsi	-6704
lais	-6705
llas	-6706
lämä	-6707
maat	-6708
mesi	-6709
mitä	-6710
mmat	-6711
mmea	-6712
mpah	-6713
mppu	-6714
muna	-6715
ojan	-6716
okas	-6717
otus	-6718
pann	-6719
pesä	-6720
ppur	-6721
ppös	-6722
raha	-6723
saat	-6724
sina	-6725
taen	-6726
tall	-6727
tenä	-6728
tisa	-6729
tsin	-6730
ttua	-6731
tynn	-6732
täin	-6733
tänä	-6734
töön	-6735
udat	-6736
udet	-6737
uisa	-6738
ulma	-6739
uloa	-6740
umme	-6741
usko	-6742
utor	-6743
utui	-6744
uuli	-6745
vapa	-6746
ymme	-6747
ysty	-6748
änis	-6749
äntä	-6750
äärä	-6751
ääsy	-6752
öitä	-6753
▁Eni	-6754
▁Kaa	-6755
▁Koh	-6756
▁Kon	-6757
▁Maa	-6758
▁Mer	-6759
▁Noh	-6760
▁Näh	-6761
▁Näl	-6762
▁Pee	-6763
▁Pil	-6764
▁Pir	-6765
▁Sip	-6766
▁Tuh	-6767
▁Yli	-6768
▁eks	-6769
▁etu	-6770
▁haj	-6771
▁hem	-6772
▁him	-6773
▁hoi	-6774
▁hul	-6775
▁hut	-6776
▁ilk	-6777
▁itk	-6778
▁kyt	-6779
▁köy	-6780
▁lau	-6781
▁lep	-6782
▁lop	-6783
▁lot	-6784
▁läs	-6785
▁lör	-6786
▁meh	-6787
▁mua	-6788
▁nel	-6789
▁nyö	-6790
▁olk	-6791
▁oll	-6792
▁olu	-6793
▁paa	-6794
▁pid	-6795
▁pät	-6796
▁rep	-6797
▁rup	-6798
▁sep	-6799
▁soh	-6800
▁syh	-6801
▁toi	-6802
▁ved	-6803
▁äyr	-6804
Juhan	-6805
Kyllä	-6806
Siinä	-6807
aisit	-6808
anoja	-6809
asten	-6810
dossa	-6811
dässä	-6812
eidän	-6813
einsä	-6814
empiä	-6815
eroja	-6816
ettui	-6817
evänä	-6818
htipa	-6819
iekan	-6820
iinsä	-6821
iksiä	-6822
iköön	-6823
imies	-6824
impia	-6825
impiä	-6826
inkul	-6827
innyt	-6828
isikö	-6829
istyy	-6830
itaan	-6831
itkin	-6832
ittäm	-6833
janoo	-6834
juhla	-6835
jänsä	-6836
kaset	-6837
keitä	-6838
kelin	-6839
keltä	-6840
kimme	-6841
kiväl	-6842
kkasi	-6843
kkejä	-6844
kkien	-6845
kkäsi	-6846
kunut	-6847
kyllä	-6848
kästä	-6849
lasku	-6850
makar	-6851
meksi	-6852
mesta	-6853
mmepa	-6854
mähän	-6855
mällä	-6856
mättö	-6857
nettu	-6858
oilta	-6859
oitsi	-6860
oksia	-6861
oliit	-6862
parvi	-6863
passa	-6864
ppiin	-6865
puoli	-6866
pussi	-6867
päätä	-6868
rassa	-6869
rukka	-6870
sista	-6871
tarin	-6872
teera	-6873
telev	-6874
tettä	-6875
tiksi	-6876
tistä	-6877
tolan	-6878
tunsa	-6879
täisi	-6880
uijan	-6881
uista	-6882
ukkua	-6883
uohia	-6884
uonna	-6885
ustaa	-6886
utoja	-6887
uttua	-6888
veina	-6889
vetti	-6890
vissa	-6891
vältä	-6892
vänsä	-6893
äästi	-6894
▁Aata	-6895
▁Ahaa	-6896
▁Että	-6897
▁Haas	-6898
▁Hein	-6899
▁Hemm	-6900
▁Hmmh	-6901
▁Häme	-6902
▁Laul	-6903
▁Laus	-6904
▁Loim	-6905
▁Luul	-6906
▁Mets	-6907
▁Ojan	-6908
▁Ovat	-6909
▁Päin	-6910
▁Ruko	-6911
▁Seur	-6912
▁Siiv	-6913
▁Ukko	-6914
▁Veli	-6915
▁ahne	-6916
▁aivo	-6917
▁alan	-6918
▁arvo	-6919
▁asun	-6920
▁eteh	-6921
▁eväs	-6922
▁heku	-6923
▁hern	-6924
▁heti	-6925
▁hiki	-6926
▁houk	-6927
▁hymy	-6928
▁hyöd	-6929
▁ikäv	-6930
▁iloa	-6931
▁juma	-6932
▁kaha	-6933
▁kara	-6934
▁kava	-6935
▁kesk	-6936
▁kruu	-6937
▁kukk	-6938
▁kuur	-6939
▁kylm	-6940
▁kyrä	-6941
▁kärp	-6942
▁laim	-6943
▁lann	-6944
▁leks	-6945
▁lepp	-6946
▁liem	-6947
▁liin	-6948
▁liiv	-6949
▁liki	-6950
▁liuk	-6951
▁luih	-6952
▁luki	-6953
▁luod	-6954
▁lyyh	-6955
▁maar	-6956
▁maja	-6957
▁mela	-6958
▁meno	-6959
▁muin	-6960
▁muta	-6961
▁muun	-6962
▁myll	-6963
▁naar	-6964
▁nenä	-6965
▁noki	-6966
▁nuhd	-6967
▁nysä	-6968
▁näre	-6969
▁ompi	-6970
▁oppi	-6971
▁oras	-6972
▁orhi	-6973
▁otsi	-6974
▁otso	-6975
▁palk	-6976
▁piha	-6977
▁pilv	-6978
▁prof	-6979
▁puhu	-6980
▁puja	-6981
▁puuk	-6982
▁pääk	-6983
▁pöyh	-6984
▁raja	-6985
▁rema	-6986
▁riis	-6987
▁risu	-6988
▁ruki	-6989
▁ryys	-6990
▁röyh	-6991
▁selv	-6992
▁sepä	-6993
▁seud	-6994
▁siev	-6995
▁sila	-6996
▁soim	-6997
▁sotk	-6998
▁sumu	-6999
▁säpä	-7000
▁tait	-7001
▁teuh	-7002
▁tieh	-7003
▁tiim	-7004
▁tina	-7005
▁tosi	-7006
▁tytö	-7007
▁töyr	-7008
▁ukon	-7009
▁ulja	-7010
▁vahv	-7011
▁vasa	-7012
▁veti	-7013
▁vien	-7014
▁virs	-7015
▁vuos	-7016
▁väki	-7017
Jumala	-7018
TOISTA	-7019
atonta	-7020
empaan	-7021
empänä	-7022
enivat	-7023
hallit	-7024
htivat	-7025
ikkoja	-7026
ikoksi	-7027
illesi	-7028
inensä	-7029
inneet	-7030
isarja	-7031
isissä	-7032
kannut	-7033
keillä	-7034
kemmin	-7035
kemään	-7036
kiitos	-7037
kkarit	-7038
kkinsa	-7039
kkinsä	-7040
kkisen	-7041
koitta	-7042
kuansa	-7043
laiset	-7044
leissa	-7045
llähän	-7046
llänsä	-7047
maalla	-7048
mattom	-7049
mistui	-7050
mmalle	-7051
mmassa	-7052
mmiten	-7053
moisen	-7054
myrsky	-7055
neistä	-7056
oinkin	-7057
pannun	-7058
päinen	-7059
taaksi	-7060
taalla	-7061
teella	-7062
teinen	-7063
tellut	-7064
tumaan	-7065
töminä	-7066
udassa	-7067
ukasta	-7068
ukkari	-7069
ukkoja	-7070
ukkoni	-7071
usivat	-7072
utusta	-7073
uuteen	-7074
änneet	-7075
öökinä	-7076
▁Astui	-7077
▁Eteen	-7078
▁Ethän	-7079
▁Hirve	-7080
▁Huuta	-7081
▁Häntä	-7082
▁Ilman	-7083
▁Kotia	-7084
▁Kuule	-7085
▁Minun	-7086
▁Pauka	-7087
▁Peija	-7088
▁Ymmär	-7089
▁aalto	-7090
▁aidan	-7091
▁armot	-7092
▁ehtii	-7093
▁eläin	-7094
▁hatta	-7095
▁heleä	-7096
▁hieno	-7097
▁hikeä	-7098
▁hinka	-7099
▁hohti	-7100
▁huhta	-7101
▁huima	-7102
▁humal	-7103
▁huono	-7104
▁huuda	-7105
▁hävyt	-7106
▁ikänä	-7107
▁ilmaa	-7108
▁iloit	-7109
▁ilole	-7110
▁iltaa	-7111
▁iskee	-7112
▁iskeä	-7113
▁jatka	-7114
▁jyske	-7115
▁jälki	-7116
▁järvi	-7117
▁kalua	-7118
▁kanan	-7119
▁karsi	-7120
▁kasar	-7121
▁katse	-7122
▁katti	-7123
▁keksi	-7124
▁kella	-7125
▁kiell	-7126
▁kihla	-7127
▁kiire	-7128
▁kilka	-7129
▁kiroo	-7130
▁kuisk	-7131
▁kummi	-7132
▁kurkk	-7133
▁kuuta	-7134
▁kyliä	-7135
▁kylki	-7136
▁kylvi	-7137
▁käske	-7138
▁kätkö	-7139
▁kättä	-7140
▁käytö	-7141
▁lalla	-7142
▁lauka	-7143
▁leimu	-7144
▁leveä	-7145
▁lieha	-7146
▁liina	-7147
▁lilli	-7148
▁lintu	-7149
▁louna	-7150
▁lunta	-7151
▁luola	-7152
▁löyty	-7153
▁maini	-7154
▁massa	-7155
▁menen	-7156
▁menoa	-7157
▁minne	-7158
▁mitta	-7159
▁multa	-7160
▁mörää	-7161
▁nakut	-7162
▁nopea	-7163
▁nouse	-7164
▁olkia	-7165
▁ometa	-7166
▁omien	-7167
▁opeta	-7168
▁perus	-7169
▁pidät	-7170
▁pihan	-7171
▁pihla	-7172
▁piimä	-7173
▁piipp	-7174
▁pikim	-7175
▁pilvi	-7176
▁porti	-7177
▁pulle	-7178
▁puuha	-7179
▁puuta	-7180
▁pyynn	-7181
▁pyöri	-7182
▁päitä	-7183
▁rikko	-7184
▁rohti	-7185
▁rotat	-7186
▁rupes	-7187
▁ryysy	-7188
▁saada	-7189
▁saatu	-7190
▁saipa	-7191
▁salli	-7192
▁samaa	-7193
▁sijaa	-7194
▁sille	-7195
▁sisar	-7196
▁siuna	-7197
▁soita	-7198
▁suksi	-7199
▁suope	-7200
▁syödä	-7201
▁takan	-7202
▁takki	-7203
▁tanss	-7204
▁toime	-7205
▁tunne	-7206
▁turpe	-7207
▁tytön	-7208
▁tälle	-7209
▁uumen	-7210
▁vahva	-7211
▁valeh	-7212
▁valko	-7213
▁vanke	-7214
▁varaa	-7215
▁varka	-7216
▁varma	-7217
▁varro	-7218
▁veits	-7219
▁vihaa	-7220
▁viile	-7221
▁vissi	-7222
▁viulu	-7223
▁voisi	-7224
▁vouti	-7225
▁vuoro	-7226
▁vähen	-7227
▁ällis	-7228
▁ämmiä	-7229
▁äyriä	-7230
▁ääret	-7231
astella	-7232
eleppas	-7233
ellistä	-7234
emmäksi	-7235
eskelee	-7236
ettuina	-7237
gahteli	-7238
ikkinen	-7239
ikoissa	-7240
isemaan	-7241
iskumma	-7242
issämme	-7243
istelet	-7244
istella	-7245
istuisi	-7246
jetessa	-7247
jettiin	-7248
kaisten	-7249
kkaalla	-7250
kkiansa	-7251
miehenä	-7252
misensä	-7253
mppania	-7254
niskoin	-7255
oitamme	-7256
oitansa	-7257
ottivat	-7258
pajassa	-7259
päisinä	-7260
taanpas	-7261
taivaan	-7262
telikin	-7263
tettuja	-7264
tisauva	-7265
tyneinä	-7266
vetuloa	-7267
yksensä	-7268
yksessä	-7269
ähtelee	-7270
äleipää	-7271
ätysten	-7272
▁Heisaa	-7273
▁Jassoo	-7274
▁Kahden	-7275
▁Kahvia	-7276
▁Katsel	-7277
▁Kirkas	-7278
▁Kirous	-7279
▁Olisko	-7280
▁Olivat	-7281
▁Riennä	-7282
▁Seuraa	-7283
▁Taivas	-7284
▁Tuskin	-7285
▁Täytyy	-7286
▁Ympäri	-7287
▁aattel	-7288
▁aholta	-7289
▁ajaksi	-7290
▁ammuin	-7291
▁arveli	-7292
▁asetus	-7293
▁askare	-7294
▁auttaa	-7295
▁edesta	-7296
▁elikon	-7297
▁elikot	-7298
▁enkeli	-7299
▁erästä	-7300
▁eukkoa	-7301
▁hallan	-7302
▁heiniä	-7303
▁heinää	-7304
▁heitto	-7305
▁heitän	-7306
▁hillit	-7307
▁hirren	-7308
▁hirsiä	-7309
▁hirviö	-7310
▁hohtaa	-7311
▁hullut	-7312
▁huolet	-7313
▁huudon	-7314
▁hyppel	-7315
▁hyyrte	-7316
▁hyötyä	-7317
▁häijyn	-7318
▁häiriö	-7319
▁häissä	-7320
▁hälinä	-7321
▁häneen	-7322
▁ilmoja	-7323
▁iskuja	-7324
▁istuim	-7325
▁istuin	-7326
▁isämme	-7327
▁itkien	-7328
▁itkuun	-7329
▁jaarit	-7330
▁johdat	-7331
▁joilla	-7332
▁joutsi	-7333
▁juuret	-7334
▁jyrkän	-7335
▁järkeä	-7336
▁kahvin	-7337
▁kaisla	-7338
▁kalvea	-7339
▁kamppa	-7340
▁karkel	-7341
▁kasvan	-7342
▁kasvoi	-7343
▁keikku	-7344
▁kellas	-7345
▁kellen	-7346
▁kenkät	-7347
▁kiehui	-7348
▁kiljun	-7349
▁kiltaa	-7350
▁kipenä	-7351
▁kiukaa	-7352
▁kohaus	-7353
▁koitti	-7354
▁korjaa	-7355
▁kosken	-7356
▁koston	-7357
▁kruunu	-7358
▁kuiska	-7359
▁kuivaa	-7360
▁kukkas	-7361
▁kullan	-7362
▁kummia	-7363
▁kunkin	-7364
▁kuorma	-7365
▁kurjet	-7366
▁kuuhun	-7367
▁kylmän	-7368
▁kylmää	-7369
▁kyseli	-7370
▁kysyen	-7371
▁kyynär	-7372
▁käsiin	-7373
▁käskis	-7374
▁kävisi	-7375
▁käyvät	-7376
▁lakais	-7377
▁lating	-7378
▁liekin	-7379
▁linnun	-7380
▁loista	-7381
▁loukku	-7382
▁luokse	-7383
▁lähtee	-7384
▁matala	-7385
▁matkus	-7386
▁meihin	-7387
▁merkit	-7388
▁metsää	-7389
▁minäkö	-7390
▁mullis	-7391
▁murhaa	-7392
▁murtui	-7393
▁myyrän	-7394
▁myöden	-7395
▁määrää	-7396
▁nalkut	-7397
▁nautaa	-7398
▁neidon	-7399
▁niiden	-7400
▁nostaa	-7401
▁nummea	-7402
▁nuuska	-7403
▁näemme	-7404
▁näette	-7405
▁näiden	-7406
▁näillä	-7407
▁näimme	-7408
▁näytän	-7409
▁olevan	-7410
▁oltiin	-7411
▁ontuen	-7412
▁osaksi	-7413
▁ovesta	-7414
▁paeten	-7415
▁paikka	-7416
▁painoi	-7417
▁pakola	-7418
▁pamppa	-7419
▁parane	-7420
▁parann	-7421
▁pauhaa	-7422
▁peikon	-7423
▁piimää	-7424
▁piteli	-7425
▁pitkät	-7426
▁poistu	-7427
▁poltti	-7428
▁putosi	-7429
▁puuttu	-7430
▁päreen	-7431
▁päämme	-7432
▁pääsem	-7433
▁pöllyä	-7434
▁raikas	-7435
▁raitis	-7436
▁riemun	-7437
▁roiska	-7438
▁ruoska	-7439
▁ryöhää	-7440
▁rähinä	-7441
▁samana	-7442
▁sarven	-7443
▁sarvet	-7444
▁sekaan	-7445
▁siirty	-7446
▁sijaan	-7447
▁silmäs	-7448
▁sonnin	-7449
▁suohon	-7450
▁suojel	-7451
▁suolaa	-7452
▁surman	-7453
▁syltää	-7454
▁syntyy	-7455
▁söivät	-7456
▁taakka	-7457
▁talluk	-7458
▁tanner	-7459
▁taskus	-7460
▁tavoin	-7461
▁teeren	-7462
▁tehden	-7463
▁temppu	-7464
▁tempun	-7465
▁tervaa	-7466
▁tiemme	-7467
▁toimen	-7468
▁torkku	-7469
▁tunnen	-7470
▁tuomio	-7471
▁tupakk	-7472
▁tuskaa	-7473
▁tuuhea	-7474
▁tyhjen	-7475
▁tyttön	-7476
▁töissä	-7477
▁tömisi	-7478
▁uhkean	-7479
▁vaaran	-7480
▁vaelsi	-7481
▁vainon	-7482
▁vapisi	-7483
▁vartoa	-7484
▁veitsi	-7485
▁viltti	-7486
▁vinkuu	-7487
▁voimat	-7488
▁voimia	-7489
▁vuohip	-7490
▁vuotei	-7491
▁välttä	-7492
ellyksen	-7493
istuksen	-7494
ittämään	-7495
ittäneet	-7496
keltänsä	-7497
kistelee	-7498
llisessa	-7499
llisesta	-7500
mattoman	-7501
mieheksi	-7502
mmäisenä	-7503
oittivat	-7504
poikaset	-7505
tornissa	-7506
▁Enemmin	-7507
▁Kaukana	-7508
▁Kiiskin	-7509
▁Luhtani	-7510
▁Milloin	-7511
▁Ojaniit	-7512
▁Olethan	-7513
▁Peeveli	-7514
▁Rukoile	-7515
▁Selkään	-7516
▁Sinnepä	-7517
▁Tehkäät	-7518
▁Tyytyvä	-7519
▁aamulla	-7520
▁akkansa	-7521
▁annettu	-7522
▁armahin	-7523
▁armoton	-7524
▁asiamme	-7525
▁asiassa	-7526
▁eivätkä	-7527
▁eivätpä	-7528
▁emännän	-7529
▁enimmin	-7530
▁etelään	-7531
▁haamuna	-7532
▁haavoit	-7533
▁haavoja	-7534
▁harakan	-7535
▁harkita	-7536
▁hedelmä	-7537
▁hehkuva	-7538
▁helmeil	-7539
▁helähti	-7540
▁hillits	-7541
▁hillitä	-7542
▁hirteen	-7543
▁hiuskar	-7544
▁hulluja	-7545
▁huoneet	-7546
▁hymyten	-7547
▁härkäli	-7548
▁iloisia	-7549
▁itsemme	-7550
▁itseäsi	-7551
▁jalosti	-7552
▁juoksee	-7553
▁juoksua	-7554
▁juotiin	-7555
▁kaiveli	-7556
▁kanssas	-7557
▁kanteen	-7558
▁kanteli	-7559
▁karkoit	-7560
▁katajan	-7561
▁katrill	-7562
▁katsahd	-7563
▁keräjän	-7564
▁kiekkoa	-7565
▁kiiltää	-7566
▁kirjava	-7567
▁kohtuus	-7568
▁kovempi	-7569
▁kuiskaa	-7570
▁kuloval	-7571
▁kuohuva	-7572
▁kuoppaa	-7573
▁kuorman	-7574
▁kuritus	-7575
▁kylissä	-7576
▁kädellä	-7577
▁kärmeet	-7578
▁kärsivä	-7579
▁käskien	-7580
▁käyttää	-7581
▁laajeni	-7582
▁laaksot	-7583
▁lenteli	-7584
▁lähetti	-7585
▁markkin	-7586
▁marssii	-7587
▁mitähän	-7588
▁muistan	-7589
▁myrskyä	-7590
▁märehti	-7591
▁naapuri	-7592
▁naimaan	-7593
▁neuvoja	-7594
▁niittua	-7595
▁näyttää	-7596
▁ottanut	-7597
▁ottivat	-7598
▁paistaa	-7599
▁pallero	-7600
▁pantiin	-7601
▁peittää	-7602
▁permann	-7603
▁pitäjän	-7604
▁pitäjää	-7605
▁pohjaan	-7606
▁poistaa	-7607
▁povella	-7608
▁povensa	-7609
▁priiska	-7610
▁pykälää	-7611
▁pyrkien	-7612
▁pyörään	-7613
▁ratkais	-7614
▁ravisti	-7615
▁rikkaan	-7616
▁riutuva	-7617
▁rohkeni	-7618
▁saaliin	-7619
▁saarnan	-7620
▁sankari	-7621
▁sanonut	-7622
▁sanotte	-7623
▁santaan	-7624
▁seinään	-7625
▁sekamel	-7626
▁sinäkin	-7627
▁sitähän	-7628
▁synnyin	-7629
▁syrjään	-7630
▁syömään	-7631
▁sälähti	-7632
▁tarhaan	-7633
▁tehtiin	-7634
▁tehtävä	-7635
▁tekisin	-7636
▁tekivät	-7637
▁tempaus	-7638
▁temppua	-7639
▁toisenm	-7640
▁totinen	-7641
▁tulelle	-7642
▁tulisia	-7643
▁tulista	-7644
▁tuomion	-7645
▁tuuleen	-7646
▁tuumisk	-7647
▁tuvasta	-7648
▁työsken	-7649
▁täyttää	-7650
▁unohtaa	-7651
▁uskalta	-7652
▁vaeltaa	-7653
▁vaikene	-7654
▁vainosi	-7655
▁valkeat	-7656
▁valkeus	-7657
▁valmiit	-7658
▁valossa	-7659
▁verensä	-7660
▁veristä	-7661
▁vieköön	-7662
▁viettää	-7663
▁viinaan	-7664
▁virtana	-7665
▁vissiin	-7666
▁väristy	-7667
▁väsynyt	-7668
▁ymmärtä	-7669
▁äläppäs	-7670
▁äänettä	-7671
ettäväksi	-7672
inoastaan	-7673
miestensä	-7674
psuttelee	-7675
telisimme	-7676
▁Ahkeruus	-7677
▁Annappas	-7678
▁Astuivat	-7679
▁Heleijaa	-7680
▁Koreasti	-7681
▁Peijakas	-7682
▁Siivosti	-7683
▁Sompioni	-7684
▁Tahdonpa	-7685
▁aatokset	-7686
▁aattelen	-7687
▁aattelin	-7688
▁aikeissa	-7689
▁antakoon	-7690
▁astellen	-7691
▁astukaat	-7692
▁avarassa	-7693
▁avioliit	-7694
▁edessäni	-7695
▁elämänsä	-7696
▁etehemme	-7697
▁haukunta	-7698
▁hellitti	-7699
▁helvetti	-7700
▁hienolla	-7701
▁hongisto	-7702
▁huhdassa	-7703
▁huomassa	-7704
▁huonetta	-7705
▁härjistä	-7706
▁höyryävä	-7707
▁iloiseen	-7708
▁iloisena	-7709
▁iloisina	-7710
▁ilveksen	-7711
▁johdatti	-7712
▁jokaisen	-7713
▁joltisen	-7714
▁juovutta	-7715
▁jäljestä	-7716
▁jättänyt	-7717
▁kadonnut	-7718
▁kaikesta	-7719
▁kaikille	-7720
▁kammarin	-7721
▁kannalla	-7722
▁kannesta	-7723
▁kanssani	-7724
▁karsivat	-7725
▁kartanon	-7726
▁katselee	-7727
▁kauhistu	-7728
▁kaunista	-7729
▁keksinyt	-7730
▁kerralla	-7731
▁kerranpa	-7732
▁kerrotta	-7733
▁keskiväl	-7734
▁kipeästi	-7735
▁kirkasta	-7736
▁koetamme	-7737
▁koivutor	-7738
▁kontissa	-7739
▁kortteer	-7740
▁kuivalla	-7741
▁kulkivat	-7742
▁kulmakar	-7743
▁kumartui	-7744
▁kuolleen	-7745
▁kuranssa	-7746
▁kutsuttu	-7747
▁käsittää	-7748
▁käskemme	-7749
▁käteensä	-7750
▁latvasta	-7751
▁lausuili	-7752
▁liikettä	-7753
▁loimotti	-7754
▁lyyhyssä	-7755
▁löylytys	-7756
▁maksamme	-7757
▁meitäkin	-7758
▁mielestä	-7759
▁mieluisa	-7760
▁muistele	-7761
▁muisteli	-7762
▁murhetta	-7763
▁muutakin	-7764
▁myristen	-7765
▁määrätty	-7766
▁neitonen	-7767
▁neitosen	-7768
▁niskasta	-7769
▁nouskoon	-7770
▁nummelle	-7771
▁nuorempi	-7772
▁nurkkaan	-7773
▁oikeinpa	-7774
▁oikeutta	-7775
▁olisivat	-7776
▁paikkaan	-7777
▁painissa	-7778
▁parvelle	-7779
▁pasteera	-7780
▁peeveliä	-7781
▁peninkul	-7782
▁pienistä	-7783
▁pimeyden	-7784
▁pitäneet	-7785
▁polttama	-7786
▁puolelta	-7787
▁purjehti	-7788
▁pyyntiin	-7789
▁pöydällä	-7790
▁raamatun	-7791
▁raikasta	-7792
▁ratasten	-7793
▁retkelle	-7794
▁rupeemme	-7795
▁saisimme	-7796
▁satamaan	-7797
▁seuraava	-7798
▁sielumme	-7799
▁sieppasi	-7800
▁siivosti	-7801
▁sijaansa	-7802
▁sovintoa	-7803
▁suuntaan	-7804
▁sydämesi	-7805
▁säteilee	-7806
▁tahtonsa	-7807
▁tallukka	-7808
▁tekeillä	-7809
▁tempusta	-7810
▁tiesivät	-7811
▁tuimalla	-7812
▁tuntenut	-7813
▁tuoreita	-7814
▁tyttöjen	-7815
▁tässähän	-7816
▁täydessä	-7817
▁varoitan	-7818
▁varrella	-7819
▁vastakyn	-7820
▁vihainen	-7821
▁vihaisen	-7822
▁vilpitön	-7823
▁yhtäkään	-7824
▁Ahkerasti	-7825
▁Eteenpäin	-7826
▁Härkämäen	-7827
▁Jumalalle	-7828
▁Katsokaat	-7829
▁Kernaasti	-7830
▁Koiviston	-7831
▁Muistanpa	-7832
▁Olemmehan	-7833
▁Tultuansa	-7834
▁Tuollahan	-7835
▁askarteli	-7836
▁eriskumma	-7837
▁haastelit	-7838
▁haltuunsa	-7839
▁herraansa	-7840
▁hevosensa	-7841
▁hikoillen	-7842
▁huohoitta	-7843
▁härjänvuo	-7844
▁ilkivalta	-7845
▁ilmoittaa	-7846
▁itseäskin	-7847
▁jatkoivat	-7848
▁jätettiin	-7849
▁kaattuvan	-7850
▁kahdeksan	-7851
▁kanssapuh	-7852
▁kantoisen	-7853
▁kasakoita	-7854
▁kauankaan	-7855
▁kauheasti	-7856
▁kaulaansa	-7857
▁kertoilee	-7858
▁kiiriskel	-7859
▁kivisellä	-7860
▁koivuinen	-7861
▁kouraansa	-7862
▁kulkemaan	-7863
▁kultaisen	-7864
▁kunnialla	-7865
▁kuolemaan	-7866
▁kuorsaten	-7867
▁kuusiston	-7868
▁laskemaan	-7869
▁laskiessa	-7870
▁laskuansa	-7871
▁lauvantai	-7872
▁lempeästi	-7873
▁lähteköön	-7874
▁matkuetta	-7875
▁merkitsee	-7876
▁mielineet	-7877
▁miellytti	-7878
▁mieltänsä	-7879
▁mietiskel	-7880
▁muuttunut	-7881
▁mälliänsä	-7882
▁männistön	-7883
▁nähtyänsä	-7884
▁olemmehan	-7885
▁pataljoon	-7886
▁pieksiäis	-7887
▁pienempiä	-7888
▁pimeyteen	-7889
▁pohjoseen	-7890
▁porstuvan	-7891
▁provastia	-7892
▁puhtaaksi	-7893
▁puoleensa	-7894
▁puplikaan	-7895
▁puuttunut	-7896
▁ravisteli	-7897
▁rinnoilla	-7898
▁rykmentin	-7899
▁sanottiin	-7900
▁sovintoon	-7901
▁syleillen	-7902
▁syntymäko	-7903
▁taistelon	-7904
▁taivaalla	-7905
▁taivaalle	-7906
▁tarkemmin	-7907
▁tarttunut	-7908
▁tekisimme	-7909
▁terveisiä	-7910
▁testament	-7911
▁tiedetään	-7912
▁toistansa	-7913
▁toivoivat	-7914
▁tunnustan	-7915
▁ulvominen	-7916
▁unestansa	-7917
▁vaelsivat	-7918
▁valkeutta	-7919
▁vartoivat	-7920
▁velisarja	-7921
▁vuoteella	-7922
▁välähteli	-7923
▁Ottakaamme	-7924
▁arvelemaan	-7925
▁ehdittyään	-7926
▁hirvittävä	-7927
▁jokaisella	-7928
▁	-7929
a	-7930
i	-7931
n	-7932
t	-7933
e	-7934
s	-7935
l	-7936
k	-7937
ä	-7938
u	-7939
o	-7940
m	-7941
h	-7942
v	-7943
r	-7944
p	-7945
,	-7946
j	-7947
.	-7948
y	-7949
d	-7950
M	-7951
A	-7952
ö	-7953
I	-7954
J	-7955
N	-7956
O	-7957
T	-7958
S	-7959
H	-7960
U	-7961
-	-7962
K	-7963
!	-7964
E	-7965
;	-7966
?	-7967
P	-7968
»	-7969
V	-7970
L	-7971
R	-7972
:	-7973
g	-7974
'	-7975
Ä	-7976
Y	-7977
f	-7978
b	-7979
F	-7980
D	-7981
c	-7982
Ö	-7983
0	-7984
1	-7985
8	-7986
C	-7987
Z	-7988
3	-7989
7	-7990
B	-7991
G	-7992
_	-7993
9	-7994
