<unk>	0
<s>	0
</s>	0
<PAD>	0
<UNK>	0
in	-0
▁k	-1
en	-2
ta	-3
an	-4
is	-5
ll	-6
▁j	-7
▁s	-8
▁h	-9
än	-10
▁m	-11
▁p	-12
tä	-13
▁v	-14
as	-15
▁ja	-16
ka	-17
el	-18
▁t	-19
on	-20
et	-21
sa	-22
at	-23
ut	-24
▁n	-25
it	-26
▁l	-27
si	-28
ti	-29
ik	-30
mm	-31
ol	-32
▁ku	-33
iv	-34
es	-35
ei	-36
sä	-37
▁J	-38
▁ko	-39
aa	-40
ell	-41
uo	-42
er	-43
un	-44
▁r	-45
▁a	-46
▁hän	-47
▁ta	-48
il	-49
utta	-50
▁M	-51
iin	-52
us	-53
▁ka	-54
▁T	-55
uk	-56
ul	-57
ur	-58
▁va	-59
yt	-60
lla	-61
mme	-62
ko	-63
im	-64
▁jo	-65
▁ol	-66
▁S	-67
ää	-68
▁vi	-69
tu	-70
ma	-71
NI	-72
pa	-73
ke	-74
▁mi	-75
▁K	-76
▁o	-77
ät	-78
ir	-79
▁tä	-80
uh	-81
▁on	-82
ksi	-83
▁y	-84
kin	-85
ki	-86
tel	-87
▁pa	-88
ään	-89
eh	-90
ill	-91
▁se	-92
HA	-93
UHA	-94
UHANI	-95
▁JUHANI	-96
to	-97
inä	-98
een	-99
pä	-100
asta	-101
▁Mutta	-102
ja	-103
va	-104
ivat	-105
inen	-106
os	-107
▁kuin	-108
▁A	-109
ista	-110
lle	-111
äs	-112
ten	-113
ih	-114
ks	-115
hd	-116
oi	-117
▁niin	-118
▁he	-119
ty	-120
▁E	-121
▁si	-122
▁H	-123
ansa	-124
äh	-125
▁N	-126
▁ha	-127
▁sa	-128
▁la	-129
uu	-130
ee	-131
▁et	-132
▁ki	-133
elj	-134
yö	-135
yn	-136
llä	-137
oin	-138
em	-139
▁oli	-140
▁tuo	-141
ys	-142
asti	-143
▁en	-144
isen	-145
▁to	-146
▁V	-147
▁nyt	-148
ku	-149
itä	-150
ia	-151
▁mutta	-152
assa	-153
IM	-154
ellä	-155
its	-156
ilm	-157
▁kä	-158
▁as	-159
ein	-160
▁po	-161
kaa	-162
▁hei	-163
dän	-164
ina	-165
tan	-166
▁ei	-167
▁velj	-168
elä	-169
ot	-170
istä	-171
▁pää	-172
pp	-173
▁L	-174
maan	-175
kaan	-176
▁hänen	-177
ien	-178
▁tu	-179
oit	-180
vat	-181
mä	-182
err	-183
▁ma	-184
▁ra	-185
änsä	-186
äl	-187
te	-188
taa	-189
isi	-190
ri	-191
▁mu	-192
▁is	-193
▁kos	-194
▁Ja	-195
▁kaik	-196
är	-197
▁O	-198
▁kat	-199
▁kor	-200
▁su	-201
▁mei	-202
▁tul	-203
▁Niin	-204
▁joka	-205
ella	-206
ne	-207
▁e	-208
▁ky	-209
--	-210
▁san	-211
essa	-212
la	-213
ist	-214
AP	-215
ellen	-216
tiin	-217
ssa	-218
▁kan	-219
▁että	-220
APO	-221
▁AAPO	-222
▁sy	-223
▁nä	-224
kä	-225
▁hu	-226
teli	-227
▁P	-228
hden	-229
uri	-230
▁vaan	-231
▁vielä	-232
▁pä	-233
ev	-234
kel	-235
ön	-236
▁mieh	-237
aan	-238
▁minä	-239
▁sen	-240
ken	-241
▁ti	-242
▁»	-243
▁kir	-244
ui	-245
pe	-246
kas	-247
▁na	-248
elle	-249
ivät	-250
issa	-251
han	-252
uhan	-253
ssä	-254
▁koska	-255
IMO	-256
illä	-257
tui	-258
ukol	-259
ua	-260
▁taas	-261
issä	-262
koon	-263
usta	-264
▁kar	-265
▁TIMO	-266
eni	-267
▁pi	-268
alla	-269
yr	-270
.--	-271
eks	-272
lta	-273
▁koh	-274
ana	-275
uks	-276
▁lu	-277
vät	-278
MA	-279
essä	-280
▁pu	-281
aar	-282
▁kats	-283
mp	-284
▁yl	-285
erran	-286
▁heidän	-287
ime	-288
▁kun	-289
▁mies	-290
▁aina	-291
▁an	-292
▁ju	-293
MAS	-294
den	-295
UO	-296
▁TUO	-297
▁TUOMAS	-298
ha	-299
▁its	-300
▁var	-301
▁vuo	-302
iksi	-303
▁al	-304
▁il	-305
▁met	-306
▁sin	-307
mi	-308
yös	-309
▁päiv	-310
vä	-311
eli	-312
▁yh	-313
▁silm	-314
kar	-315
uom	-316
▁seis	-317
ises	-318
▁par	-319
dä	-320
isin	-321
oa	-322
▁lä	-323
▁te	-324
ensä	-325
▁tal	-326
IME	-327
kö	-328
ONI	-329
▁SIME	-330
▁SIMEONI	-331
emme	-332
iten	-333
taan	-334
▁min	-335
▁ih	-336
kk	-337
tää	-338
▁läh	-339
▁Juhan	-340
hän	-341
▁tar	-342
▁I	-343
nen	-344
▁tämä	-345
▁Jukol	-346
stä	-347
▁har	-348
imein	-349
ikä	-350
iinä	-351
▁maa	-352
vin	-353
▁ä	-354
▁jos	-355
▁Ka	-356
illoin	-357
ita	-358
po	-359
kuin	-360
▁veljeks	-361
män	-362
▁myös	-363
ER	-364
una	-365
kea	-366
ässä	-367
▁sinä	-368
▁vasta	-369
eksi	-370
vi	-371
kää	-372
eet	-373
van	-374
▁kaikki	-375
ky	-376
na	-377
▁le	-378
▁lo	-379
▁kuul	-380
ällä	-381
▁per	-382
ERO	-383
man	-384
▁hy	-385
▁EERO	-386
jan	-387
atta	-388
▁men	-389
▁oik	-390
▁mitä	-391
▁li	-392
▁tie	-393
▁viimein	-394
▁ilm	-395
▁val	-396
▁veljekset	-397
emm	-398
▁tässä	-399
▁no	-400
▁hi	-401
ensa	-402
kka	-403
ikka	-404
mis	-405
▁Ol	-406
imo	-407
uma	-408
estä	-409
mpä	-410
itten	-411
▁niinkuin	-412
▁ul	-413
▁ään	-414
isesti	-415
lan	-416
▁La	-417
▁ar	-418
ve	-419
ös	-420
▁kerran	-421
ip	-422
tti	-423
▁hir	-424
▁van	-425
yy	-426
▁kau	-427
al	-428
▁ri	-429
▁ver	-430
▁miel	-431
▁ympä	-432
▁taasen	-433
ika	-434
▁kohden	-435
or	-436
öy	-437
emän	-438
esta	-439
▁kas	-440
isti	-441
▁kuiten	-442
oni	-443
▁pit	-444
▁häntä	-445
me	-446
▁Minä	-447
ero	-448
▁ah	-449
oika	-450
ukko	-451
▁kyl	-452
tansa	-453
oh	-454
▁Aa	-455
ille	-456
mmen	-457
▁pien	-458
iä	-459
▁jon	-460
asi	-461
kan	-462
ois	-463
▁alas	-464
▁Juhani	-465
ni	-466
oim	-467
▁us	-468
▁Mitä	-469
illa	-470
▁Hän	-471
▁käy	-472
▁meitä	-473
iset	-474
emaan	-475
▁me	-476
▁tei	-477
uor	-478
▁kiv	-479
▁kur	-480
▁taiv	-481
tö	-482
▁ylös	-483
▁pal	-484
▁pel	-485
▁tai	-486
▁Juma	-487
▁ru	-488
etta	-489
▁saa	-490
▁Jukolan	-491
ar	-492
mu	-493
uka	-494
inn	-495
▁puol	-496
▁ennen	-497
äär	-498
▁luk	-499
kon	-500
▁miehen	-501
jat	-502
eltä	-503
▁syn	-504
▁itse	-505
▁juuri	-506
▁teh	-507
▁Timo	-508
änä	-509
▁kuitenkin	-510
yh	-511
▁juo	-512
telivat	-513
RI	-514
oo	-515
urin	-516
▁ole	-517
oitta	-518
kaamme	-519
llut	-520
▁hel	-521
uuta	-522
▁siinä	-523
▁het	-524
▁puh	-525
▁pian	-526
kään	-527
telee	-528
tun	-529
llis	-530
osta	-531
▁ker	-532
▁kes	-533
toi	-534
▁pir	-535
▁Sime	-536
▁siitä	-537
hti	-538
jen	-539
▁aa	-540
▁ot	-541
ossa	-542
▁vas	-543
▁muut	-544
ea	-545
mään	-546
▁Eero	-547
eit	-548
nyt	-549
uun	-550
▁mon	-551
▁ter	-552
▁silloin	-553
tin	-554
▁kol	-555
▁kuu	-556
▁tun	-557
▁jonka	-558
AU	-559
».	-560
▁ni	-561
▁kour	-562
▁hä	-563
olla	-564
ästä	-565
▁kul	-566
▁heitä	-567
▁metsä	-568
▁sitten	-569
▁Se	-570
▁Vi	-571
ähän	-572
uksen	-573
▁istu	-574
▁sillä	-575
▁täällä	-576
▁R	-577
sin	-578
▁un	-579
▁sitä	-580
▁poika	-581
▁oikein	-582
tyi	-583
ettu	-584
oja	-585
sta	-586
▁Si	-587
▁ed	-588
▁eh	-589
▁här	-590
ettiin	-591
ästi	-592
▁seur	-593
▁voim	-594
iva	-595
isten	-596
▁laus	-597
▁ulos	-598
ven	-599
tään	-600
▁tämän	-601
▁vaikka	-602
▁vastaan	-603
ats	-604
▁väl	-605
sivat	-606
▁kohta	-607
▁kanssa	-608
kko	-609
▁Ta	-610
▁koir	-611
nä	-612
▁er	-613
kki	-614
AURI	-615
kaat	-616
▁olen	-617
▁LAURI	-618
▁kuinka	-619
pi	-620
ppa	-621
ikko	-622
▁pys	-623
▁kuol	-624
mät	-625
mpiv	-626
valla	-627
▁kaksi	-628
mpivaar	-629
▁tuolla	-630
ij	-631
mma	-632
ikki	-633
▁kil	-634
▁saat	-635
▁sydä	-636
ud	-637
keä	-638
uomas	-639
▁Impivaar	-640
ittä	-641
▁mat	-642
▁vil	-643
▁Aapo	-644
▁ympär	-645
▁tuossa	-646
isk	-647
pah	-648
äni	-649
onsa	-650
▁hal	-651
▁vuor	-652
uud	-653
▁ve	-654
ulta	-655
isa	-656
▁Ku	-657
▁pol	-658
▁U	-659
ili	-660
tta	-661
▁Ei	-662
▁so	-663
eman	-664
lloin	-665
▁pois	-666
eil	-667
jaa	-668
▁uh	-669
▁siellä	-670
ra	-671
ani	-672
uko	-673
teen	-674
iseen	-675
sansa	-676
men	-677
tuu	-678
▁elä	-679
itsemän	-680
nut	-681
ussa	-682
▁Sen	-683
▁kon	-684
käämme	-685
vo	-686
▁mä	-687
▁ain	-688
▁vih	-689
▁vir	-690
▁jota	-691
▁Lauri	-692
uta	-693
▁Ko	-694
yttä	-695
▁aat	-696
▁käs	-697
▁mikä	-698
▁rupe	-699
▁tahd	-700
▁meille	-701
▁On	-702
▁re	-703
mmin	-704
▁nuor	-705
▁tuon	-706
llinen	-707
▁seiso	-708
▁toinen	-709
▁Simeoni	-710
ikk	-711
kien	-712
änne	-713
▁suo	-714
tanut	-715
tänsä	-716
▁ilman	-717
maa	-718
▁En	-719
oita	-720
▁lei	-721
▁tur	-722
emmin	-723
▁minun	-724
▁muuta	-725
▁päivä	-726
vän	-727
iska	-728
▁kys	-729
▁lap	-730
esten	-731
▁yksi	-732
tia	-733
ula	-734
▁Tul	-735
▁jäl	-736
▁korke	-737
▁kovin	-738
▁To	-739
kasi	-740
köön	-741
▁Tuo	-742
▁läksi	-743
▁seitsemän	-744
pu	-745
sia	-746
tka	-747
tom	-748
▁el	-749
▁pyö	-750
▁tah	-751
vasti	-752
▁aika	-753
▁huom	-754
▁näin	-755
▁suur	-756
ah	-757
▁Tä	-758
että	-759
keli	-760
Mutta	-761
▁Tuomas	-762
ro	-763
nsa	-764
▁Ah	-765
▁lih	-766
▁pil	-767
easti	-768
istel	-769
oilla	-770
sivät	-771
▁alla	-772
▁kiir	-773
▁kunn	-774
▁Impivaaran	-775
ju	-776
lä	-777
kee	-778
▁lö	-779
▁yö	-780
▁jär	-781
▁poik	-782
▁olivat	-783
▁Silloin	-784
▁Va	-785
▁nu	-786
ppas	-787
▁jal	-788
▁sel	-789
▁astu	-790
▁vall	-791
▁Siinä	-792
mmä	-793
pää	-794
itti	-795
siin	-796
unsa	-797
▁haa	-798
▁luo	-799
▁mur	-800
eeksi	-801
matta	-802
▁taka	-803
▁ukko	-804
▁minua	-805
▁tapah	-806
usi	-807
änn	-808
▁No	-809
sien	-810
▁hen	-811
▁karh	-812
▁jossa	-813
▁taivaan	-814
toa	-815
▁kr	-816
olan	-817
▁asi	-818
▁haas	-819
▁sydäm	-820
hin	-821
lli	-822
▁Ki	-823
etty	-824
kein	-825
▁hirmu	-826
▁kyllä	-827
ör	-828
▁Ä	-829
tei	-830
vet	-831
mieh	-832
▁kal	-833
▁nah	-834
▁nim	-835
▁toiv	-836
▁maailm	-837
yä	-838
iden	-839
ukku	-840
▁Nyt	-841
▁ankar	-842
▁jotka	-843
▁sinun	-844
▁tästä	-845
▁hänelle	-846
oon	-847
ehti	-848
kkaa	-849
▁emän	-850
▁sekä	-851
▁viin	-852
jä	-853
osi	-854
pas	-855
▁pe	-856
erra	-857
ihin	-858
ikku	-859
isto	-860
ukka	-861
ulle	-862
▁pah	-863
oista	-864
▁huol	-865
▁huon	-866
▁kiin	-867
▁rauh	-868
▁pojat	-869
▁vähän	-870
▁meidän	-871
▁seisoi	-872
▁takaisin	-873
KK	-874
▁u	-875
dät	-876
▁ke	-877
▁py	-878
▁ty	-879
imme	-880
▁kyn	-881
▁sur	-882
isena	-883
▁ovat	-884
isella	-885
▁viime	-886
▁ympäri	-887
▁veljesten	-888
ann	-889
var	-890
yks	-891
esty	-892
▁arm	-893
▁huo	-894
oinen	-895
▁juur	-896
▁käys	-897
▁eteen	-898
▁olkoon	-899
▁veljet	-900
!»	-901
..	-902
▁ne	-903
▁sis	-904
kisti	-905
▁kauh	-906
▁mets	-907
▁niit	-908
isimme	-909
▁talon	-910
▁Toukol	-911
kun	-912
tän	-913
vaa	-914
ves	-915
▁las	-916
▁olis	-917
▁tuul	-918
▁täyt	-919
▁ihmis	-920
▁istui	-921
▁katso	-922
▁raken	-923
▁tuota	-924
▁vasten	-925
▁Jumalan	-926
▁milloin	-927
»,	-928
▁Y	-929
hta	-930
iko	-931
jon	-932
neet	-933
ottu	-934
▁ent	-935
▁pih	-936
▁ret	-937
▁tem	-938
llansa	-939
tähden	-940
▁ollut	-941
▁sinua	-942
eva	-943
ker	-944
▁it	-945
eitä	-946
ulla	-947
▁Kas	-948
▁muo	-949
▁tus	-950
tunut	-951
▁eikä	-952
▁viha	-953
▁Jumala	-954
▁pitkin	-955
too	-956
▁tuu	-957
▁pyör	-958
▁tuli	-959
▁kauan	-960
▁yhtään	-961
ert	-962
ike	-963
onn	-964
par	-965
etti	-966
ikin	-967
▁ihm	-968
▁lev	-969
▁mar	-970
▁pur	-971
▁tan	-972
llista	-973
▁hetken	-974
▁päästä	-975
mat	-976
eita	-977
ussi	-978
▁Kats	-979
▁äänet	-980
▁heille	-981
ess	-982
▁vä	-983
ikaa	-984
utti	-985
▁Ven	-986
▁kär	-987
▁mer	-988
▁näh	-989
▁poh	-990
▁ruo	-991
▁tot	-992
vassa	-993
▁pirt	-994
▁päät	-995
▁Viert	-996
▁tuosta	-997
▁He	-998
käät	-999
▁her	-1000
▁ken	-1001
▁pöy	-1002
kkaan	-1003
oissa	-1004
▁jälj	-1005
▁laps	-1006
▁noin	-1007
▁josta	-1008
▁Herran	-1009
▁hieman	-1010
▁olemme	-1011
ulu	-1012
▁pö	-1013
isia	-1014
▁Men	-1015
▁kaa	-1016
▁löy	-1017
▁voi	-1018
▁luul	-1019
▁menn	-1020
▁pitä	-1021
▁rien	-1022
▁samm	-1023
▁usein	-1024
▁äkisti	-1025
uhd	-1026
uus	-1027
yrs	-1028
▁jä	-1029
alle	-1030
ihen	-1031
itty	-1032
kais	-1033
ystä	-1034
▁Voi	-1035
▁jyr	-1036
▁nur	-1037
isenä	-1038
▁asia	-1039
▁ruko	-1040
▁Tässä	-1041
▁silmät	-1042
▁Juhanin	-1043
▁maailman	-1044
stu	-1045
▁jy	-1046
päin	-1047
▁aap	-1048
▁hur	-1049
▁kuo	-1050
▁syö	-1051
▁työ	-1052
▁yli	-1053
oitti	-1054
▁ensi	-1055
▁kään	-1056
▁siis	-1057
▁enään	-1058
▁sanon	-1059
▁lausui	-1060
▁koreasti	-1061
ast	-1062
haa	-1063
▁Sa	-1064
▁ruu	-1065
▁tyt	-1066
pulta	-1067
▁koko	-1068
▁kuus	-1069
▁kysy	-1070
▁aurin	-1071
▁katsel	-1072
▁rupesi	-1073
▁seisoivat	-1074
kku	-1075
nus	-1076
utu	-1077
tana	-1078
uden	-1079
▁naa	-1080
▁sun	-1081
▁vis	-1082
▁väh	-1083
mättä	-1084
▁Sinä	-1085
▁asti	-1086
▁yhtä	-1087
▁meillä	-1088
▁seuraa	-1089
▁äänellä	-1090
eä	-1091
käl	-1092
mpa	-1093
oks	-1094
tua	-1095
▁Mu	-1096
vana	-1097
▁Aap	-1098
▁sar	-1099
▁tor	-1100
▁äit	-1101
tänyt	-1102
▁ihan	-1103
▁olet	-1104
▁pääs	-1105
▁siir	-1106
▁taid	-1107
▁Miksi	-1108
▁suuri	-1109
▁tänne	-1110
▁päälle	-1111
KKO	-1112
hon	-1113
iks	-1114
imä	-1115
iss	-1116
kiv	-1117
töm	-1118
vää	-1119
yvä	-1120
▁Ky	-1121
▁os	-1122
isko	-1123
itsi	-1124
otta	-1125
ähti	-1126
▁käd	-1127
▁kein	-1128
iseksi	-1129
▁kolme	-1130
▁miestä	-1131
▁päivän	-1132
▁toisen	-1133
▁enemmin	-1134
llö	-1135
mpi	-1136
ppi	-1137
evan	-1138
ilta	-1139
inka	-1140
itta	-1141
päiv	-1142
tele	-1143
unut	-1144
▁olla	-1145
▁peit	-1146
llisen	-1147
▁astui	-1148
▁tällä	-1149
▁tähden	-1150
▁kohtaan	-1151
nan	-1152
uva	-1153
vas	-1154
vel	-1155
via	-1156
▁Hi	-1157
▁tö	-1158
olta	-1159
ynyt	-1160
▁mel	-1161
▁pan	-1162
▁pro	-1163
▁ran	-1164
▁rin	-1165
iston	-1166
▁Tämä	-1167
▁aino	-1168
▁kaat	-1169
▁korv	-1170
▁löyt	-1171
▁pell	-1172
▁toim	-1173
▁vier	-1174
isesta	-1175
▁kulta	-1176
▁heistä	-1177
▁itsensä	-1178
▁silmänsä	-1179
id	-1180
don	-1181
kis	-1182
kyi	-1183
ltä	-1184
uusi	-1185
▁Val	-1186
▁kah	-1187
▁mun	-1188
▁por	-1189
▁sor	-1190
▁tuh	-1191
▁yhä	-1192
▁pain	-1193
▁pais	-1194
▁usko	-1195
▁vanh	-1196
astaan	-1197
isessa	-1198
▁ettei	-1199
▁hirve	-1200
▁nahka	-1201
▁pysty	-1202
▁teitä	-1203
▁valta	-1204
▁kiinni	-1205
▁vallan	-1206
istellen	-1207
jän	-1208
kiä	-1209
pin	-1210
ppä	-1211
▁aj	-1212
▁ho	-1213
▁äl	-1214
eija	-1215
itte	-1216
mäen	-1217
ältä	-1218
▁hil	-1219
▁kut	-1220
mista	-1221
▁haar	-1222
▁koiv	-1223
▁nous	-1224
▁pime	-1225
▁pyss	-1226
▁siel	-1227
▁tuim	-1228
▁viip	-1229
asivat	-1230
▁Siitä	-1231
▁tietä	-1232
▁vanha	-1233
▁kymmen	-1234
▁lukkar	-1235
▁meistä	-1236
▁tahdon	-1237
le	-1238
ksa	-1239
net	-1240
▁An	-1241
▁Ra	-1242
kari	-1243
▁San	-1244
▁kie	-1245
▁lie	-1246
▁näl	-1247
▁äär	-1248
▁hyvä	-1249
▁isän	-1250
▁laul	-1251
▁maan	-1252
▁tien	-1253
▁eivät	-1254
▁sanoi	-1255
▁sydän	-1256
▁edessä	-1257
▁kaiken	-1258
▁lopulta	-1259
▁lähesty	-1260
EL	-1261
li	-1262
laa	-1263
ola	-1264
▁ry	-1265
ikon	-1266
ppel	-1267
▁kel	-1268
▁kät	-1269
▁syl	-1270
▁tyh	-1271
▁vie	-1272
▁Sitä	-1273
▁käyt	-1274
▁vaik	-1275
oittaa	-1276
▁lähte	-1277
▁emäntä	-1278
▁korkea	-1279
▁paljon	-1280
▁vuoren	-1281
yi	-1282
ilee	-1283
mies	-1284
olle	-1285
paan	-1286
unta	-1287
äksi	-1288
▁Oli	-1289
▁aiv	-1290
▁jää	-1291
▁ras	-1292
▁vah	-1293
masta	-1294
▁päin	-1295
▁rinn	-1296
▁sano	-1297
▁monta	-1298
▁juoksi	-1299
▁siihen	-1300
lo	-1301
ssi	-1302
uja	-1303
uon	-1304
▁Nä	-1305
▁sä	-1306
alta	-1307
ilma	-1308
kana	-1309
toon	-1310
▁kiu	-1311
▁mus	-1312
▁sav	-1313
▁Älä	-1314
emään	-1315
hteli	-1316
oikaa	-1317
ralla	-1318
tonsa	-1319
uteen	-1320
äänsä	-1321
▁heit	-1322
▁hull	-1323
▁kann	-1324
▁oike	-1325
▁vuod	-1326
iselle	-1327
▁Sillä	-1328
▁hampa	-1329
▁juoks	-1330
▁nousi	-1331
▁kautta	-1332
▁miehet	-1333
▁muista	-1334
▁päässä	-1335
▁sammal	-1336
▁koskaan	-1337
▁läksivät	-1338
▁ympärillä	-1339
kut	-1340
tyä	-1341
▁at	-1342
▁oh	-1343
aten	-1344
isiä	-1345
itse	-1346
mmär	-1347
▁ilo	-1348
▁len	-1349
▁pus	-1350
kivät	-1351
lleen	-1352
▁huut	-1353
▁kier	-1354
▁koto	-1355
▁kuts	-1356
▁käsi	-1357
▁naur	-1358
▁vain	-1359
▁Mikko	-1360
▁katsa	-1361
▁leima	-1362
▁musta	-1363
▁pieni	-1364
▁tuhan	-1365
▁tulee	-1366
▁valke	-1367
▁Niinpä	-1368
▁Simeon	-1369
▁pirtti	-1370
▁tuskin	-1371
▁ensimmä	-1372
▁minäkin	-1373
▁veljeni	-1374
▁astuivat	-1375
▁Viertolan	-1376
kat	-1377
mpp	-1378
paa	-1379
▁Hä	-1380
isty	-1381
omme	-1382
osin	-1383
tani	-1384
uori	-1385
▁juh	-1386
▁rak	-1387
▁syv	-1388
▁yön	-1389
jasti	-1390
▁hell	-1391
▁kiit	-1392
▁kiiv	-1393
▁kohd	-1394
▁määr	-1395
▁veli	-1396
teeksi	-1397
▁esiin	-1398
▁monen	-1399
kasivat	-1400
telivät	-1401
▁tiedän	-1402
▁toista	-1403
telemaan	-1404
▁saattoi	-1405
▁istuivat	-1406
▁Sentähden	-1407
ss	-1408
ÄK	-1409
!--	-1410
ELÄ	-1411
ata	-1412
kit	-1413
kos	-1414
pun	-1415
ton	-1416
▁Et	-1417
▁ir	-1418
elta	-1419
ihän	-1420
isev	-1421
koit	-1422
miin	-1423
mman	-1424
unan	-1425
▁Eer	-1426
▁MÄK	-1427
▁aam	-1428
▁lat	-1429
▁pun	-1430
▁tee	-1431
ettaa	-1432
jansa	-1433
llöin	-1434
massa	-1435
▁kiel	-1436
▁kyyn	-1437
▁lopp	-1438
▁saar	-1439
▁vaka	-1440
▁Venla	-1441
▁hyvin	-1442
▁kruun	-1443
▁peija	-1444
▁Kaikki	-1445
▁MÄKELÄ	-1446
▁helvet	-1447
▁perkel	-1448
▁seisoo	-1449
▁melkein	-1450
▁muutoin	-1451
▁tällöin	-1452
▁Toukolan	-1453
hen	-1454
ila	-1455
yyd	-1456
▁LU	-1457
▁or	-1458
▁rä	-1459
evat	-1460
haan	-1461
kkin	-1462
▁akk	-1463
▁hev	-1464
▁myö	-1465
▁pos	-1466
▁raa	-1467
kellä	-1468
telet	-1469
vasta	-1470
▁arma	-1471
▁atri	-1472
▁pauh	-1473
▁saan	-1474
▁talo	-1475
▁tarv	-1476
▁vaar	-1477
▁ystä	-1478
keasti	-1479
ännist	-1480
oittava	-1481
▁Olkoon	-1482
▁kuului	-1483
▁sisään	-1484
▁teille	-1485
▁maailma	-1486
▁tavalla	-1487
▁ympärill	-1488
▁ainoastaan	-1489
ian	-1490
iti	-1491
kus	-1492
mmi	-1493
non	-1494
oka	-1495
peä	-1496
ren	-1497
siä	-1498
yyt	-1499
▁Te	-1500
asen	-1501
aton	-1502
empi	-1503
enpa	-1504
keil	-1505
ohta	-1506
▁Jos	-1507
▁yhd	-1508
poika	-1509
uttaa	-1510
▁Mikä	-1511
▁Raja	-1512
▁UKKO	-1513
▁ehkä	-1514
▁ehti	-1515
▁jout	-1516
▁kasv	-1517
▁löyl	-1518
▁nelj	-1519
▁paik	-1520
▁kauas	-1521
▁lausu	-1522
▁lihaa	-1523
▁miksi	-1524
▁tehty	-1525
▁tyttö	-1526
▁vaimo	-1527
▁voima	-1528
▁ymmär	-1529
▁Jukola	-1530
▁lakkaa	-1531
▁sammale	-1532
▁kourassa	-1533
▁provasti	-1534
he	-1535
ass	-1536
uut	-1537
▁ny	-1538
illi	-1539
ähtä	-1540
▁hon	-1541
▁lik	-1542
▁pee	-1543
▁suk	-1544
▁tuk	-1545
estyi	-1546
jasta	-1547
▁Kiis	-1548
▁Tuli	-1549
▁heng	-1550
▁myrs	-1551
▁oiva	-1552
ilivat	-1553
isteli	-1554
miehen	-1555
▁askel	-1556
▁elämä	-1557
▁herra	-1558
▁konti	-1559
▁kunnes	-1560
▁pienen	-1561
▁pöydän	-1562
▁aurinko	-1563
▁lukkari	-1564
▁metsien	-1565
▁päivänä	-1566
▁lakkaamatta	-1567
LA	-1568
...	-1569
kal	-1570
saa	-1571
ter	-1572
ynn	-1573
▁my	-1574
▁ro	-1575
joit	-1576
poik	-1577
usti	-1578
yssä	-1579
ytti	-1580
▁jän	-1581
▁älä	-1582
aikaa	-1583
eilla	-1584
istaa	-1585
kassa	-1586
▁Pois	-1587
▁linn	-1588
▁pala	-1589
▁tall	-1590
▁teke	-1591
tuivat	-1592
▁Eihän	-1593
▁Herra	-1594
▁erään	-1595
▁oikea	-1596
▁olisi	-1597
▁pääll	-1598
▁silmä	-1599
▁sovin	-1600
▁tiedä	-1601
▁Siellä	-1602
▁koirat	-1603
▁leikki	-1604
▁taivas	-1605
▁teidän	-1606
▁tullut	-1607
llisesti	-1608
▁hänellä	-1609
▁käyskel	-1610
▁kiirehti	-1611
▁tapahtui	-1612
▁tuolloin	-1613
▁eteenpäin	-1614
ie	-1615
uv	-1616
öt	-1617
▁i	-1618
pit	-1619
riä	-1620
sil	-1621
▁Il	-1622
▁kö	-1623
iltä	-1624
isee	-1625
veli	-1626
▁irv	-1627
▁när	-1628
▁oma	-1629
▁taa	-1630
▁tär	-1631
illen	-1632
jassa	-1633
uuden	-1634
▁Tamm	-1635
▁kerr	-1636
▁kova	-1637
▁lain	-1638
▁leiv	-1639
▁onpa	-1640
▁puna	-1641
▁teki	-1642
▁vaip	-1643
▁vihd	-1644
▁viis	-1645
▁yhte	-1646
▁ääni	-1647
iskeli	-1648
llensa	-1649
mmentä	-1650
▁Jussi	-1651
▁ainoa	-1652
▁kalli	-1653
▁taida	-1654
▁tulta	-1655
▁vauhd	-1656
▁verta	-1657
▁asteli	-1658
▁makasi	-1659
▁sieltä	-1660
▁härkien	-1661
▁parasta	-1662
▁vauhdilla	-1663
?»	-1664
IS	-1665
emp	-1666
ipp	-1667
kir	-1668
ttu	-1669
vea	-1670
yhä	-1671
▁ik	-1672
Niin	-1673
jaan	-1674
täni	-1675
önnä	-1676
▁amp	-1677
▁huh	-1678
▁mol	-1679
▁ryn	-1680
▁uud	-1681
itsee	-1682
jalla	-1683
minen	-1684
äällä	-1685
▁Kuul	-1686
▁ahon	-1687
▁kumm	-1688
▁laat	-1689
▁otsa	-1690
▁selj	-1691
▁tava	-1692
▁tyyn	-1693
essaan	-1694
tamaan	-1695
▁hetki	-1696
▁kappa	-1697
▁kissa	-1698
▁kumma	-1699
▁kunni	-1700
▁muist	-1701
▁paken	-1702
▁tahto	-1703
ellensä	-1704
illansa	-1705
▁aholla	-1706
▁kunnia	-1707
▁poikaa	-1708
▁riivat	-1709
▁tiellä	-1710
▁viinaa	-1711
▁katseli	-1712
▁vihdoin	-1713
▁Rajamäen	-1714
▁veljeksi	-1715
▁katsellen	-1716
▁rupesivat	-1717
▁kuitenkaan	-1718
evä	-1719
kkä	-1720
mar	-1721
pen	-1722
tit	-1723
▁mö	-1724
ksin	-1725
kuun	-1726
meen	-1727
oksi	-1728
ppäs	-1729
uuri	-1730
vaan	-1731
▁Oik	-1732
▁Poh	-1733
▁Tim	-1734
▁sat	-1735
▁sul	-1736
▁vin	-1737
eessa	-1738
ellut	-1739
iskir	-1740
kseen	-1741
nunta	-1742
ukana	-1743
uksia	-1744
äinen	-1745
▁eräs	-1746
▁huul	-1747
▁kell	-1748
▁kuiv	-1749
▁kyll	-1750
▁näki	-1751
▁pöll	-1752
▁riem	-1753
inkaan	-1754
sinkin	-1755
▁Valko	-1756
▁antoi	-1757
▁halki	-1758
▁nukku	-1759
▁onnen	-1760
▁rauha	-1761
▁synty	-1762
▁terve	-1763
▁Oikein	-1764
▁metsän	-1765
▁mukaan	-1766
▁jälleen	-1767
▁kruunun	-1768
▁lähellä	-1769
▁sinulle	-1770
▁kymmenen	-1771
▁rauhassa	-1772
ele	-1773
ema	-1774
käs	-1775
raa	-1776
ret	-1777
tet	-1778
▁op	-1779
atto	-1780
kevä	-1781
kkar	-1782
llan	-1783
osti	-1784
vien	-1785
▁Kar	-1786
▁Var	-1787
▁esi	-1788
▁hyv	-1789
▁laa	-1790
▁lyh	-1791
▁nyr	-1792
▁täh	-1793
ittää	-1794
kalta	-1795
telin	-1796
▁Mene	-1797
▁Velj	-1798
▁emme	-1799
▁huud	-1800
▁ilma	-1801
▁keit	-1802
▁kuor	-1803
▁lepä	-1804
▁rats	-1805
▁tuij	-1806
▁vaat	-1807
▁vaih	-1808
isivat	-1809
tyivät	-1810
▁Kaisa	-1811
▁autta	-1812
▁eihän	-1813
▁ensin	-1814
▁huusi	-1815
▁jalka	-1816
▁joita	-1817
▁kanta	-1818
▁kanto	-1819
▁parha	-1820
▁sanot	-1821
▁sinne	-1822
▁suden	-1823
▁tukka	-1824
▁tähän	-1825
illensa	-1826
istansa	-1827
▁Laurin	-1828
▁kallis	-1829
▁kirves	-1830
▁päivää	-1831
▁yhteen	-1832
ännistön	-1833
▁ilmassa	-1834
▁ääressä	-1835
▁kuoleman	-1836
▁käyskeli	-1837
▁lukkarin	-1838
▁riensivät	-1839
jo	-1840
mo	-1841
ps	-1842
se	-1843
▁ö	-1844
ikö	-1845
itt	-1846
kia	-1847
kyn	-1848
tar	-1849
val	-1850
▁Pa	-1851
▁So	-1852
▁vo	-1853
atti	-1854
ikea	-1855
keen	-1856
otti	-1857
tuen	-1858
uksi	-1859
▁hyö	-1860
▁lyö	-1861
▁mie	-1862
▁opp	-1863
▁pen	-1864
▁pov	-1865
▁ryy	-1866
▁sai	-1867
▁son	-1868
attom	-1869
istää	-1870
kasti	-1871
uivat	-1872
▁auta	-1873
▁eipä	-1874
▁lieh	-1875
▁moni	-1876
▁nähd	-1877
▁syks	-1878
tuansa	-1879
▁Kyllä	-1880
▁hevos	-1881
▁joulu	-1882
▁kerto	-1883
▁kirja	-1884
▁kiven	-1885
▁nytpä	-1886
▁nälkä	-1887
▁onnet	-1888
▁perin	-1889
▁sanaa	-1890
▁tekee	-1891
▁uhkea	-1892
itellen	-1893
▁Kiiski	-1894
▁ankara	-1895
▁kartan	-1896
▁maahan	-1897
▁mennyt	-1898
▁mitään	-1899
▁päällä	-1900
▁rukoil	-1901
▁tehnyt	-1902
▁tuumis	-1903
▁Toukola	-1904
▁huomasi	-1905
▁aapiskir	-1906
▁haasteli	-1907
▁sunnunta	-1908
▁totisesti	-1909
ees	-1910
ima	-1911
imp	-1912
pes	-1913
uni	-1914
viä	-1915
▁Me	-1916
▁om	-1917
anta	-1918
ihan	-1919
imen	-1920
puol	-1921
tuna	-1922
▁Tur	-1923
▁amm	-1924
▁jät	-1925
▁mör	-1926
▁ris	-1927
▁roh	-1928
eille	-1929
eillä	-1930
kasta	-1931
llaan	-1932
▁anta	-1933
▁hong	-1934
▁nauk	-1935
▁neit	-1936
▁piir	-1937
▁väär	-1938
essään	-1939
isellä	-1940
mmasta	-1941
tellen	-1942
ymättä	-1943
▁Hänen	-1944
▁Katso	-1945
▁Onhan	-1946
▁hilja	-1947
▁hullu	-1948
▁juhla	-1949
▁kurja	-1950
▁mieli	-1951
▁pauka	-1952
▁pikku	-1953
▁rynkä	-1954
▁tehdä	-1955
▁tulen	-1956
▁viisa	-1957
▁vuote	-1958
uksessa	-1959
▁jotain	-1960
▁kahden	-1961
▁kiukku	-1962
▁tappel	-1963
▁huoneen	-1964
▁pystyssä	-1965
▁äänettöm	-1966
eta	-1967
gon	-1968
kän	-1969
nin	-1970
▁Us	-1971
▁ap	-1972
kean	-1973
kona	-1974
mänä	-1975
▁Vai	-1976
▁ell	-1977
▁kei	-1978
▁käv	-1979
▁pik	-1980
▁vaa	-1981
ellyt	-1982
etaan	-1983
iksen	-1984
kansa	-1985
kensä	-1986
▁ilta	-1987
▁kesä	-1988
▁liha	-1989
▁meni	-1990
▁terä	-1991
▁vill	-1992
ukseen	-1993
▁Killi	-1994
▁kotia	-1995
▁matka	-1996
▁näkyi	-1997
▁synke	-1998
ellensa	-1999
ellänsä	-2000
▁Kuinka	-2001
▁kaikin	-2002
▁kurkku	-2003
▁kyynel	-2004
▁olutta	-2005
▁päivät	-2006
▁päätti	-2007
▁saanut	-2008
▁takana	-2009
▁tanter	-2010
▁tupaan	-2011
▁vasemm	-2012
▁kaukana	-2013
▁miesten	-2014
▁minulle	-2015
▁Simeonin	-2016
▁muutaman	-2017
▁varsinkin	-2018
ga	-2019
ii	-2020
jas	-2021
ota	-2022
sit	-2023
tal	-2024
uan	-2025
uis	-2026
ääs	-2027
öyr	-2028
▁Is	-2029
▁Ma	-2030
▁av	-2031
▁im	-2032
inut	-2033
kkas	-2034
koja	-2035
ysti	-2036
▁Juh	-2037
▁Kos	-2038
▁han	-2039
▁kam	-2040
▁rus	-2041
▁sät	-2042
▁tut	-2043
▁yht	-2044
kseni	-2045
misen	-2046
peitt	-2047
ukset	-2048
yksen	-2049
▁Anna	-2050
▁Sano	-2051
▁aamu	-2052
▁anna	-2053
▁hien	-2054
▁ihme	-2055
▁juon	-2056
▁kaar	-2057
▁kaul	-2058
▁kieh	-2059
▁loim	-2060
▁luon	-2061
▁puuh	-2062
▁sein	-2063
▁suus	-2064
▁tätä	-2065
ksemme	-2066
▁Eeron	-2067
▁etten	-2068
▁huuta	-2069
▁kukko	-2070
▁kuusi	-2071
▁kysym	-2072
▁maata	-2073
▁missä	-2074
▁olipa	-2075
▁paika	-2076
▁toivo	-2077
▁yhden	-2078
▁äitin	-2079
ellemme	-2080
▁Muista	-2081
▁aatoks	-2082
▁huolim	-2083
▁joukko	-2084
▁kirkas	-2085
▁kirkon	-2086
▁korven	-2087
▁mieles	-2088
▁pahoin	-2089
▁perman	-2090
▁pirtin	-2091
▁saatta	-2092
▁tuonne	-2093
htelivat	-2094
▁Viimein	-2095
▁kauhist	-2096
▁kuolema	-2097
▁matkaan	-2098
▁nuoruka	-2099
▁saattaa	-2100
▁sanottu	-2101
▁tarkoit	-2102
▁vastasi	-2103
▁korvessa	-2104
▁metsissä	-2105
▁peijakas	-2106
▁seisomme	-2107
▁korkealla	-2108
▁korkealle	-2109
rä	-2110
yd	-2111
koi	-2112
mer	-2113
pan	-2114
rii	-2115
vit	-2116
▁ur	-2117
▁är	-2118
▁äs	-2119
ehän	-2120
elin	-2121
htaa	-2122
isku	-2123
kkur	-2124
▁Kir	-2125
▁Kor	-2126
▁Par	-2127
▁aik	-2128
▁hav	-2129
▁ket	-2130
▁kev	-2131
▁leh	-2132
▁luu	-2133
▁ope	-2134
▁ota	-2135
▁pyr	-2136
▁rik	-2137
▁til	-2138
isinä	-2139
uessa	-2140
vella	-2141
▁Kuka	-2142
▁Kyös	-2143
▁haam	-2144
▁hauk	-2145
▁leik	-2146
▁lähd	-2147
▁numm	-2148
▁oman	-2149
▁otti	-2150
▁piti	-2151
▁tänä	-2152
ksensa	-2153
taneet	-2154
tyänsä	-2155
▁Aapon	-2156
▁Juuri	-2157
▁Tosin	-2158
▁aikaa	-2159
▁antaa	-2160
▁harju	-2161
▁ilois	-2162
▁kiiva	-2163
▁kilju	-2164
▁laita	-2165
▁laula	-2166
▁neljä	-2167
▁pitää	-2168
▁puhal	-2169
▁rakka	-2170
▁reuna	-2171
▁saman	-2172
▁uskon	-2173
▁Hiiden	-2174
▁Tuossa	-2175
▁edellä	-2176
▁huomas	-2177
▁kaikui	-2178
▁käynyt	-2179
▁lämmin	-2180
▁miehiä	-2181
▁molemm	-2182
▁myrsky	-2183
▁päähän	-2184
▁rauhan	-2185
▁häneltä	-2186
▁lujasti	-2187
▁metsään	-2188
▁turhaan	-2189
▁suinkaan	-2190
▁Tammiston	-2191
▁sentähden	-2192
▁huolimatta	-2193
▁katselivat	-2194
▁nahkapeitt	-2195
ES	-2196
TT	-2197
um	-2198
?--	-2199
esi	-2200
eti	-2201
imm	-2202
kuu	-2203
mal	-2204
tyy	-2205
vuo	-2206
yys	-2207
ätä	-2208
▁Hy	-2209
▁Tu	-2210
▁ai	-2211
aksi	-2212
ette	-2213
istö	-2214
ittu	-2215
ksen	-2216
llen	-2217
voin	-2218
ättä	-2219
▁Ken	-2220
▁Läh	-2221
▁Ter	-2222
▁ann	-2223
▁jun	-2224
▁mor	-2225
▁ryö	-2226
▁sad	-2227
▁sal	-2228
▁sam	-2229
▁vik	-2230
▁väs	-2231
maksi	-2232
uorin	-2233
vaksi	-2234
▁alle	-2235
▁hous	-2236
▁kaun	-2237
▁koti	-2238
▁naap	-2239
▁näky	-2240
▁pinn	-2241
▁pohj	-2242
▁sama	-2243
▁vaiv	-2244
▁veis	-2245
▁vimm	-2246
atkoon	-2247
haaksi	-2248
inensa	-2249
kellen	-2250
▁Koska	-2251
▁askar	-2252
▁huoka	-2253
▁käydä	-2254
▁lapsi	-2255
▁muori	-2256
▁niska	-2257
▁nuori	-2258
▁pitkä	-2259
▁päätä	-2260
▁sonni	-2261
▁syksy	-2262
▁varto	-2263
▁viisi	-2264
ellinen	-2265
ilemaan	-2266
oittaen	-2267
▁isäntä	-2268
▁lailla	-2269
▁luulen	-2270
▁mielin	-2271
▁niinpä	-2272
▁olalla	-2273
▁säteil	-2274
▁tahdot	-2275
▁täytyy	-2276
▁valkea	-2277
kymmentä	-2278
▁koettaa	-2279
▁kuullut	-2280
▁käymään	-2281
▁myöskin	-2282
▁retkeil	-2283
▁talossa	-2284
▁anteeksi	-2285
▁kourissa	-2286
▁Männistön	-2287
▁astelivat	-2288
▁parhaaksi	-2289
▁äänetönnä	-2290
▁seuraavana	-2291
ak	-2292
ho	-2293
rj	-2294
ARI	-2295
del	-2296
kev	-2297
kul	-2298
las	-2299
oid	-2300
ttä	-2301
uen	-2302
uki	-2303
äss	-2304
▁Mä	-2305
isar	-2306
ukon	-2307
ulan	-2308
ynnä	-2309
ämme	-2310
▁Ole	-2311
▁Sin	-2312
▁jul	-2313
▁nis	-2314
▁osa	-2315
▁peh	-2316
▁pyh	-2317
▁äke	-2318
KKARI	-2319
imäen	-2320
nusta	-2321
päivä	-2322
villa	-2323
▁Ensi	-2324
▁Onpa	-2325
▁avar	-2326
▁hall	-2327
▁hill	-2328
▁iske	-2329
▁iski	-2330
▁kivi	-2331
▁luol	-2332
▁miet	-2333
▁onne	-2334
▁papp	-2335
▁pään	-2336
▁reun	-2337
▁suol	-2338
▁synt	-2339
▁äkeä	-2340
issään	-2341
utteli	-2342
▁Sompi	-2343
▁ellei	-2344
▁eukko	-2345
▁ihana	-2346
▁isänn	-2347
▁koira	-2348
▁pelto	-2349
▁saarn	-2350
▁sauna	-2351
▁tarin	-2352
itenkin	-2353
▁Venlan	-2354
▁huomaa	-2355
▁kiekko	-2356
▁läheni	-2357
▁matkan	-2358
▁nummen	-2359
▁porstu	-2360
▁teemme	-2361
▁tervas	-2362
▁toivon	-2363
▁tuulen	-2364
▁ulkona	-2365
▁LUKKARI	-2366
▁harjoit	-2367
▁hänestä	-2368
▁muistel	-2369
▁taistel	-2370
▁auringon	-2371
▁itseänsä	-2372
▁juurella	-2373
▁kaikkein	-2374
▁lähestyi	-2375
▁miehissä	-2376
▁veljensä	-2377
▁hirmuinen	-2378
▁päällensä	-2379
▁viimeisenä	-2380
Ja	-2381
OLA	-2382
dot	-2383
ile	-2384
jet	-2385
juh	-2386
uti	-2387
▁As	-2388
▁Ha	-2389
▁Hm	-2390
▁Mi	-2391
anen	-2392
atin	-2393
eena	-2394
eeni	-2395
etko	-2396
kaas	-2397
kesi	-2398
kill	-2399
koot	-2400
miel	-2401
tuun	-2402
öits	-2403
▁Kun	-2404
▁Kuo	-2405
▁Tie	-2406
▁keh	-2407
▁kom	-2408
▁kön	-2409
▁lan	-2410
▁lin	-2411
▁läv	-2412
▁put	-2413
▁rah	-2414
▁rav	-2415
▁äij	-2416
ikkuu	-2417
isiin	-2418
iskel	-2419
jaksi	-2420
kkari	-2421
kkoon	-2422
mistä	-2423
mppan	-2424
tettu	-2425
▁Aina	-2426
▁Näin	-2427
▁Seis	-2428
▁Suom	-2429
▁aset	-2430
▁enää	-2431
▁hiko	-2432
▁kiro	-2433
▁kuva	-2434
▁kävi	-2435
▁lumi	-2436
▁lämm	-2437
▁main	-2438
▁nope	-2439
▁sana	-2440
▁tapa	-2441
▁teen	-2442
▁vael	-2443
▁vaim	-2444
▁verr	-2445
peästi	-2446
yyteen	-2447
▁Kaksi	-2448
▁Missä	-2449
▁Tämän	-2450
▁asiaa	-2451
▁asian	-2452
▁hyvää	-2453
▁korva	-2454
▁kukin	-2455
▁mistä	-2456
▁murhe	-2457
▁nimis	-2458
▁noita	-2459
▁paita	-2460
▁pojan	-2461
▁pykäl	-2462
▁ralla	-2463
▁ranga	-2464
▁sielu	-2465
▁tyttä	-2466
▁vihan	-2467
▁ystäv	-2468
astansa	-2469
uttelee	-2470
▁asetti	-2471
▁eräänä	-2472
▁heittä	-2473
▁hiljaa	-2474
▁härjän	-2475
▁härkää	-2476
▁ilmaan	-2477
▁kaatui	-2478
▁kappal	-2479
▁kiinte	-2480
▁kohosi	-2481
▁löytyy	-2482
▁marssi	-2483
▁muiden	-2484
▁mustan	-2485
▁nautti	-2486
▁pelast	-2487
▁poikas	-2488
▁poikia	-2489
▁poikki	-2490
▁saunan	-2491
▁seisah	-2492
▁tarina	-2493
▁tuolta	-2494
▁täynnä	-2495
▁valmis	-2496
▁vietti	-2497
▁vikkel	-2498
▁voimin	-2499
▁Tuomaan	-2500
▁iloinen	-2501
▁kaikkia	-2502
▁kädessä	-2503
▁peeveli	-2504
▁vankkur	-2505
istelivat	-2506
▁hammasta	-2507
▁ihmisten	-2508
▁kaikista	-2509
▁kotiansa	-2510
▁kuluessa	-2511
▁paikalla	-2512
▁peloitta	-2513
▁pirttiin	-2514
▁tuhannen	-2515
▁vieläkin	-2516
▁silloinpa	-2517
▁viimeinen	-2518
▁tapahtunut	-2519
▁vähitellen	-2520
re	-2521
era	-2522
eto	-2523
hda	-2524
hka	-2525
jär	-2526
jät	-2527
kim	-2528
koa	-2529
mär	-2530
rin	-2531
tiä	-2532
ytä	-2533
▁ly	-2534
enna	-2535
mmas	-2536
nään	-2537
tuva	-2538
uvan	-2539
vara	-2540
äten	-2541
▁Jaa	-2542
▁Kol	-2543
▁Teh	-2544
▁ala	-2545
▁arv	-2546
▁huu	-2547
▁län	-2548
▁onn	-2549
▁pin	-2550
▁pot	-2551
▁räh	-2552
▁uun	-2553
▁vel	-2554
eensa	-2555
eskel	-2556
htaen	-2557
isina	-2558
iänsä	-2559
jalle	-2560
janka	-2561
lleet	-2562
parka	-2563
▁Hyvä	-2564
▁Juho	-2565
▁Kuin	-2566
▁Tuon	-2567
▁auka	-2568
▁etsi	-2569
▁heil	-2570
▁häpe	-2571
▁höyr	-2572
▁jouk	-2573
▁kaiv	-2574
▁kama	-2575
▁kons	-2576
▁kuoh	-2577
▁kuum	-2578
▁laki	-2579
▁lämp	-2580
▁myhä	-2581
▁saun	-2582
▁savu	-2583
▁syys	-2584
▁uusi	-2585
▁vala	-2586
▁vapa	-2587
▁varj	-2588
▁voit	-2589
isessä	-2590
tenkin	-2591
ähteli	-2592
▁Timon	-2593
▁ahker	-2594
▁aivan	-2595
▁akkun	-2596
▁kansa	-2597
▁karhu	-2598
▁karva	-2599
▁kulke	-2600
▁kärsi	-2601
▁maksa	-2602
▁niitä	-2603
▁parta	-2604
▁pyssy	-2605
▁saata	-2606
▁taloa	-2607
▁tuomi	-2608
▁uneks	-2609
▁uutta	-2610
▁äsken	-2611
istelee	-2612
vettiin	-2613
▁Kerran	-2614
▁aholle	-2615
▁elämän	-2616
▁heidät	-2617
▁heillä	-2618
▁katosi	-2619
▁katsoi	-2620
▁kämmen	-2621
▁leipää	-2622
▁meidät	-2623
▁niittu	-2624
▁nähnyt	-2625
▁ollaan	-2626
▁päiviä	-2627
▁syystä	-2628
▁tahtoo	-2629
▁talven	-2630
▁tieltä	-2631
▁tuohon	-2632
▁veljen	-2633
▁vilpit	-2634
▁kieltää	-2635
▁koirien	-2636
▁minulla	-2637
▁pihalla	-2638
▁ruumiin	-2639
▁selkään	-2640
▁Jukolaan	-2641
▁kylliksi	-2642
▁metsässä	-2643
▁rangaist	-2644
▁ratsasta	-2645
▁sydämeni	-2646
▁tarkasti	-2647
▁vahvasti	-2648
▁vuodatta	-2649
▁juoksivat	-2650
▁menneeksi	-2651
▁korkeuteen	-2652
▁ympärillensä	-2653
KU	-2654
lih	-2655
miä	-2656
ona	-2657
pee	-2658
rik	-2659
ska	-2660
ura	-2661
ver	-2662
äsi	-2663
▁Ke	-2664
▁Kä	-2665
eliä	-2666
evän	-2667
idan	-2668
ilan	-2669
inpa	-2670
itaa	-2671
keni	-2672
kkää	-2673
kmen	-2674
oton	-2675
poon	-2676
ukin	-2677
yksi	-2678
▁Hel	-2679
▁Häh	-2680
▁Saa	-2681
▁hoh	-2682
▁kid	-2683
▁kih	-2684
▁kin	-2685
▁mah	-2686
▁nos	-2687
▁nuo	-2688
▁nyl	-2689
▁ovi	-2690
▁pes	-2691
▁pyy	-2692
▁siv	-2693
▁vap	-2694
▁vär	-2695
etään	-2696
iseva	-2697
istuu	-2698
kiksi	-2699
mästä	-2700
silmä	-2701
tivät	-2702
uutta	-2703
▁Koiv	-2704
▁LUKU	-2705
▁hein	-2706
▁herr	-2707
▁isku	-2708
▁itke	-2709
▁kall	-2710
▁lake	-2711
▁mahd	-2712
▁neuv	-2713
▁oven	-2714
▁saav	-2715
▁suon	-2716
▁tule	-2717
▁tynn	-2718
▁tyyt	-2719
▁unoh	-2720
▁veit	-2721
▁viet	-2722
▁väik	-2723
▁vään	-2724
elivat	-2725
ematta	-2726
essäni	-2727
kkalan	-2728
uttaen	-2729
ättiin	-2730
▁Läksi	-2731
▁Tapah	-2732
▁aatos	-2733
▁harta	-2734
▁hedel	-2735
▁huuto	-2736
▁istuu	-2737
▁johon	-2738
▁kipen	-2739
▁kisko	-2740
▁kuiva	-2741
▁luonn	-2742
▁lysti	-2743
▁makaa	-2744
▁mihin	-2745
▁riipp	-2746
▁santa	-2747
▁sarvi	-2748
▁tarpe	-2749
▁tempa	-2750
▁varti	-2751
▁viina	-2752
telemme	-2753
uksesta	-2754
uksista	-2755
utellen	-2756
▁heitti	-2757
▁ijanka	-2758
▁itseks	-2759
▁katsos	-2760
▁kaupun	-2761
▁kuolem	-2762
▁kuusen	-2763
▁lähteä	-2764
▁näytti	-2765
▁perään	-2766
▁poltta	-2767
▁tanssi	-2768
▁tuijot	-2769
▁täyttä	-2770
▁täältä	-2771
iskellen	-2772
▁Mennään	-2773
▁ainoata	-2774
▁ankaran	-2775
▁askelta	-2776
▁eteensä	-2777
▁ihmiset	-2778
▁kirottu	-2779
▁kävivät	-2780
▁laattia	-2781
▁menneen	-2782
▁mennään	-2783
▁nähtiin	-2784
▁perässä	-2785
▁rynkäsi	-2786
▁tuvassa	-2787
▁hetkellä	-2788
▁pirtissä	-2789
▁puolella	-2790
▁riivattu	-2791
▁seljässä	-2792
▁villitty	-2793
▁Hiidenkiv	-2794
▁Kuitenkin	-2795
▁kiivaasti	-2796
▁palasivat	-2797
▁suustansa	-2798
▁tervaskan	-2799
▁tuumiskel	-2800
▁vihaisesti	-2801
▁viipymättä	-2802
▁ensimmäinen	-2803
fi	-2804
Kas	-2805
ati	-2806
hön	-2807
jal	-2808
kyl	-2809
läh	-2810
mel	-2811
mää	-2812
pal	-2813
täs	-2814
▁It	-2815
▁Jo	-2816
▁Lo	-2817
▁MI	-2818
▁Oh	-2819
▁Po	-2820
▁VA	-2821
▁sö	-2822
annu	-2823
astu	-2824
dään	-2825
eina	-2826
isaa	-2827
isit	-2828
kkia	-2829
kööt	-2830
pasi	-2831
peen	-2832
ppaa	-2833
skaa	-2834
udan	-2835
uska	-2836
viin	-2837
yllä	-2838
▁Kul	-2839
▁Ota	-2840
▁ehd	-2841
▁hym	-2842
▁ill	-2843
▁itä	-2844
▁lem	-2845
▁löi	-2846
▁ren	-2847
▁rys	-2848
▁tap	-2849
▁tek	-2850
▁vai	-2851
▁vet	-2852
▁Ään	-2853
astaa	-2854
eensä	-2855
htivo	-2856
ikkaa	-2857
ikkos	-2858
innut	-2859
istun	-2860
kaisi	-2861
karva	-2862
kemme	-2863
kinen	-2864
kkiin	-2865
lähin	-2866
tensa	-2867
tynyt	-2868
uisen	-2869
yyden	-2870
▁Onko	-2871
▁Pian	-2872
▁Sonn	-2873
▁avat	-2874
▁enkä	-2875
▁hiil	-2876
▁johd	-2877
▁kang	-2878
▁kant	-2879
▁kerä	-2880
▁kolm	-2881
▁kort	-2882
▁koul	-2883
▁kylj	-2884
▁otta	-2885
▁pari	-2886
▁pist	-2887
▁polv	-2888
▁pyyn	-2889
▁riih	-2890
▁siun	-2891
▁sonn	-2892
▁talv	-2893
▁toki	-2894
▁tull	-2895
▁tuuh	-2896
estaan	-2897
isestä	-2898
isitte	-2899
issaan	-2900
itetty	-2901
itteli	-2902
ittäin	-2903
mmaksi	-2904
tuneet	-2905
vesjär	-2906
▁MIKKO	-2907
▁Mikon	-2908
▁Terve	-2909
▁Tästä	-2910
▁VAIMO	-2911
▁annan	-2912
▁armoa	-2913
▁arvel	-2914
▁avara	-2915
▁ehtin	-2916
▁ennus	-2917
▁halla	-2918
▁hohta	-2919
▁huike	-2920
▁kaiku	-2921
▁kasvo	-2922
▁kauka	-2923
▁keika	-2924
▁kelpo	-2925
▁ketun	-2926
▁kiusa	-2927
▁käsky	-2928
▁mennä	-2929
▁onhan	-2930
▁peuka	-2931
▁puhka	-2932
▁riemu	-2933
▁sanoa	-2934
▁sanoo	-2935
▁taiva	-2936
▁tuima	-2937
▁tuoks	-2938
▁vaiti	-2939
▁viska	-2940
▁yksin	-2941
ellansa	-2942
issansa	-2943
ittänyt	-2944
ostansa	-2945
uudessa	-2946
▁Veljet	-2947
▁herran	-2948
▁joiden	-2949
▁jonkun	-2950
▁karhun	-2951
▁kiiltä	-2952
▁kiitos	-2953
▁kirkko	-2954
▁kokoon	-2955
▁lepoon	-2956
▁närkäs	-2957
▁opetan	-2958
▁peevel	-2959
▁pientä	-2960
▁pyssyt	-2961
▁rykmen	-2962
▁tiedät	-2963
▁toiset	-2964
▁tunnus	-2965
▁tuntui	-2966
▁vanhan	-2967
▁viisas	-2968
▁voimaa	-2969
▁Jumalaa	-2970
▁ainakin	-2971
▁asiasta	-2972
▁entinen	-2973
▁ihmisen	-2974
▁jahtivo	-2975
▁leimaus	-2976
▁paikkaa	-2977
▁ristiin	-2978
▁saatana	-2979
▁välillä	-2980
▁äitinsä	-2981
▁Ilvesjär	-2982
▁ennenkin	-2983
▁huomenna	-2984
▁jotenkin	-2985
▁junkkari	-2986
▁metsästä	-2987
▁miehestä	-2988
▁tahdomme	-2989
▁tarvitse	-2990
▁ankarasti	-2991
▁ennenkuin	-2992
▁kallistui	-2993
▁kasvoilla	-2994
▁päättivät	-2995
▁sanaakaan	-2996
▁aapiskirja	-2997
▁itsellemme	-2998
▁karkasivat	-2999
▁maailmassa	-3000
▁äänettöminä	-3001
MI	-3002
hä	-3003
no	-3004
ru	-3005
▁F	-3006
MIS	-3007
TTI	-3008
ise	-3009
kse	-3010
kös	-3011
tus	-3012
tön	-3013
upe	-3014
yön	-3015
▁NI	-3016
▁Oi	-3017
▁Pä	-3018
▁Ul	-3019
▁uu	-3020
AULA	-3021
MIES	-3022
anne	-3023
attu	-3024
elee	-3025
ikan	-3026
ikot	-3027
insa	-3028
isan	-3029
ispa	-3030
istu	-3031
iväs	-3032
kelä	-3033
sten	-3034
täen	-3035
uija	-3036
uita	-3037
ukas	-3038
uttu	-3039
vata	-3040
voja	-3041
▁Vuo	-3042
▁isk	-3043
▁jyl	-3044
▁kov	-3045
▁lah	-3046
▁lum	-3047
▁nok	-3048
▁pär	-3049
▁sud	-3050
▁tel	-3051
▁tir	-3052
▁yöt	-3053
MATTI	-3054
Matin	-3055
emmas	-3056
iensa	-3057
ikkui	-3058
ittaa	-3059
keata	-3060
keita	-3061
koita	-3062
kosta	-3063
mässä	-3064
ppaan	-3065
ppasi	-3066
toman	-3067
tämme	-3068
ukoon	-3069
uomaa	-3070
▁Kaik	-3071
▁Tahd	-3072
▁Yksi	-3073
▁etel	-3074
▁hiih	-3075
▁huoh	-3076
▁impi	-3077
▁joko	-3078
▁kaks	-3079
▁kart	-3080
▁kiih	-3081
▁kirv	-3082
▁kius	-3083
▁koet	-3084
▁kouk	-3085
▁käär	-3086
▁liik	-3087
▁murh	-3088
▁noid	-3089
▁pauk	-3090
▁puhd	-3091
▁ryyp	-3092
▁saal	-3093
▁sala	-3094
▁siiv	-3095
▁suos	-3096
▁suun	-3097
▁taip	-3098
▁tuoh	-3099
▁työn	-3100
▁täys	-3101
▁veri	-3102
inalla	-3103
täneet	-3104
▁NIMIS	-3105
▁Sinne	-3106
▁TAULA	-3107
▁alkoi	-3108
▁heinä	-3109
▁hyvän	-3110
▁härkä	-3111
▁ihmet	-3112
▁kohot	-3113
▁koivu	-3114
▁kuull	-3115
▁kuulu	-3116
▁loppu	-3117
▁millä	-3118
▁muoto	-3119
▁naama	-3120
▁osoit	-3121
▁pussi	-3122
▁rakas	-3123
▁seura	-3124
▁taita	-3125
▁tosin	-3126
▁Äänet	-3127
essänsä	-3128
immiten	-3129
istänsä	-3130
▁Mäkelä	-3131
▁Suomen	-3132
▁Tuolla	-3133
▁Täällä	-3134
▁ainapa	-3135
▁harmaa	-3136
▁hengen	-3137
▁iltana	-3138
▁kertaa	-3139
▁kesken	-3140
▁keskus	-3141
▁kieltä	-3142
▁lepäsi	-3143
▁löylyt	-3144
▁muisto	-3145
▁niitun	-3146
▁nousee	-3147
▁nukkui	-3148
▁olette	-3149
▁peikko	-3150
▁suunsa	-3151
▁suuren	-3152
▁suusta	-3153
▁taivaa	-3154
▁varoit	-3155
▁vuotta	-3156
▁entisen	-3157
▁kontion	-3158
▁näkivät	-3159
▁pihalle	-3160
▁rukoili	-3161
▁seurasi	-3162
▁sinusta	-3163
▁vaikeni	-3164
▁valmiin	-3165
▁Tapahtui	-3166
▁harjulla	-3167
▁keskellä	-3168
▁mielellä	-3169
▁nopeasti	-3170
▁nummella	-3171
▁oikealle	-3172
▁puolesta	-3173
▁silmillä	-3174
▁syyskuun	-3175
▁taidamme	-3176
▁toinento	-3177
▁vakaasti	-3178
▁NIMISMIES	-3179
▁Silloinpa	-3180
▁hirveästi	-3181
▁huoneessa	-3182
▁iloisesti	-3183
▁korkeuden	-3184
▁lepäsivät	-3185
▁sydämensä	-3186
▁huomasivat	-3187
▁kiiriskeli	-3188
▁peloittava	-3189
▁vasemmalle	-3190
▁veljeksistä	-3191
▁vuoteellensa	-3192
EN	-3193
OU	-3194
ry	-3195
up	-3196
yl	-3197
etä	-3198
har	-3199
iit	-3200
iki	-3201
imi	-3202
ing	-3203
jäl	-3204
kät	-3205
met	-3206
min	-3207
nän	-3208
nät	-3209
per	-3210
ran	-3211
ras	-3212
san	-3213
sas	-3214
tyn	-3215
uha	-3216
uul	-3217
ysy	-3218
▁es	-3219
▁uk	-3220
atsa	-3221
hain	-3222
kiin	-3223
llin	-3224
mana	-3225
puna	-3226
raaf	-3227
teet	-3228
tona	-3229
ulaa	-3230
ulun	-3231
unto	-3232
▁Hei	-3233
▁Pel	-3234
▁Tal	-3235
▁avi	-3236
▁jaa	-3237
▁nar	-3238
▁noh	-3239
▁ora	-3240
▁sit	-3241
▁sär	-3242
▁uno	-3243
▁väk	-3244
▁ymp	-3245
eissa	-3246
iinsa	-3247
konen	-3248
lossa	-3249
nahka	-3250
oihin	-3251
oille	-3252
oisen	-3253
toori	-3254
uilla	-3255
▁Eikö	-3256
▁Itse	-3257
▁Otta	-3258
▁Teer	-3259
▁Tule	-3260
▁edes	-3261
▁hara	-3262
▁huhd	-3263
▁hurs	-3264
▁jona	-3265
▁kiil	-3266
▁kirm	-3267
▁lask	-3268
▁lois	-3269
▁läht	-3270
▁maks	-3271
▁myyr	-3272
▁nisk	-3273
▁olut	-3274
▁ovea	-3275
▁raik	-3276
▁sata	-3277
▁seka	-3278
▁suut	-3279
▁tiet	-3280
▁uros	-3281
▁vila	-3282
▁äijä	-3283
enivät	-3284
ettuna	-3285
ettävä	-3286
inällä	-3287
isilla	-3288
isista	-3289
istava	-3290
istäen	-3291
miseen	-3292
tämään	-3293
▁Kenen	-3294
▁Kovin	-3295
▁Mihin	-3296
▁Nytpä	-3297
▁Usein	-3298
▁halko	-3299
▁hurja	-3300
▁kenen	-3301
▁kerro	-3302
▁kestä	-3303
▁kierr	-3304
▁kiitä	-3305
▁krist	-3306
▁kulki	-3307
▁kysyn	-3308
▁laske	-3309
▁lukea	-3310
▁nämät	-3311
▁oljen	-3312
▁ottaa	-3313
▁raska	-3314
▁rinta	-3315
▁riutu	-3316
▁ruumi	-3317
▁sella	-3318
▁taisi	-3319
▁tuomm	-3320
▁tuuli	-3321
▁tuuma	-3322
▁tyyni	-3323
▁työtä	-3324
▁uunin	-3325
▁vaara	-3326
▁viher	-3327
attoman	-3328
estansa	-3329
ikeasti	-3330
illensä	-3331
istimen	-3332
uttanut	-3333
▁Fralla	-3334
▁Kaisan	-3335
▁Olenpa	-3336
▁Sitten	-3337
▁esimer	-3338
▁joista	-3339
▁jykevä	-3340
▁karhua	-3341
▁katsoa	-3342
▁keinoa	-3343
▁kiivas	-3344
▁kuuluu	-3345
▁linnan	-3346
▁luonto	-3347
▁maasta	-3348
▁meteli	-3349
▁palasi	-3350
▁pieksi	-3351
▁pieniä	-3352
▁pitkän	-3353
▁pyörii	-3354
▁päänsä	-3355
▁ruskea	-3356
▁samoin	-3357
▁seiväs	-3358
▁sukkel	-3359
▁teidät	-3360
▁toisin	-3361
▁vanhin	-3362
▁viinan	-3363
▁vimmat	-3364
eskellen	-3365
llakseni	-3366
telemään	-3367
▁ilmesty	-3368
▁iskivät	-3369
▁jotakin	-3370
▁kouraan	-3371
▁kumppan	-3372
▁muutama	-3373
▁muuttui	-3374
▁onneton	-3375
▁paistoi	-3376
▁sovinto	-3377
▁talosta	-3378
▁valkean	-3379
▁Sanoppas	-3380
▁edessään	-3381
▁helvetin	-3382
▁henkensä	-3383
▁juurelle	-3384
▁kertoili	-3385
▁miehelle	-3386
▁mielensä	-3387
▁olekkaan	-3388
▁olivatpa	-3389
▁peevelin	-3390
▁rinnalla	-3391
▁valmiina	-3392
▁voimalla	-3393
▁Kuokkalan	-3394
▁päällemme	-3395
▁silmiänsä	-3396
▁sunnuntai	-3397
▁tekemistä	-3398
▁uudestaan	-3399
▁ympärille	-3400
▁Kolistimen	-3401
▁helvettiin	-3402
▁itsellensä	-3403
▁juoksemaan	-3404
▁lähestyvän	-3405
▁seurasivat	-3406
▁tästälähin	-3407
▁välimmiten	-3408
▁kuultelivat	-3409
▁milloinkaan	-3410
▁nuorukainen	-3411
▁provastimme	-3412
IN	-3413
MÄ	-3414
öh	-3415
enä	-3416
het	-3417
ipa	-3418
kil	-3419
kua	-3420
mus	-3421
pli	-3422
por	-3423
päs	-3424
tor	-3425
tut	-3426
täv	-3427
uoh	-3428
vär	-3429
ynä	-3430
äis	-3431
öyh	-3432
▁Ar	-3433
▁KA	-3434
▁Yl	-3435
INEN	-3436
Mitä	-3437
aama	-3438
daan	-3439
enee	-3440
ettö	-3441
evaa	-3442
evät	-3443
iais	-3444
iina	-3445
itos	-3446
jana	-3447
kinä	-3448
kkiä	-3449
laan	-3450
onen	-3451
pään	-3452
ssia	-3453
tena	-3454
tien	-3455
ties	-3456
ttia	-3457
tuus	-3458
änty	-3459
änyt	-3460
össä	-3461
▁Har	-3462
▁Här	-3463
▁Ker	-3464
▁Met	-3465
▁Sur	-3466
▁Tot	-3467
▁Tun	-3468
▁Vih	-3469
▁epä	-3470
▁häl	-3471
▁isä	-3472
▁jut	-3473
▁jys	-3474
▁mik	-3475
▁muh	-3476
▁mät	-3477
▁ohi	-3478
▁pas	-3479
▁puu	-3480
▁sot	-3481
▁suu	-3482
▁ton	-3483
▁umm	-3484
▁yle	-3485
dolla	-3486
iskaa	-3487
iskan	-3488
iteen	-3489
itsem	-3490
kappa	-3491
oisia	-3492
oivat	-3493
parta	-3494
telen	-3495
toili	-3496
ustan	-3497
vansa	-3498
vehti	-3499
vistä	-3500
vällä	-3501
yttää	-3502
▁Kova	-3503
▁Muut	-3504
▁Siis	-3505
▁Voim	-3506
▁akka	-3507
▁auki	-3508
▁hirv	-3509
▁häij	-3510
▁kill	-3511
▁kome	-3512
▁kore	-3513
▁kuka	-3514
▁kylv	-3515
▁kynn	-3516
▁kyns	-3517
▁käpä	-3518
▁lyhy	-3519
▁mene	-3520
▁mull	-3521
▁mäen	-3522
▁naim	-3523
▁naut	-3524
▁näet	-3525
▁pall	-3526
▁parv	-3527
▁pidä	-3528
▁puus	-3529
▁pyyd	-3530
▁retk	-3531
▁rieh	-3532
▁suor	-3533
▁synn	-3534
▁tarp	-3535
▁temm	-3536
▁toin	-3537
▁tuom	-3538
▁tuor	-3539
▁varo	-3540
▁varr	-3541
▁vikk	-3542
▁visa	-3543
akraaf	-3544
elleet	-3545
isinpa	-3546
mmenen	-3547
▁Matti	-3548
▁Mitäs	-3549
▁Tuhan	-3550
▁Vielä	-3551
▁aamun	-3552
▁ammen	-3553
▁astua	-3554
▁ehtoo	-3555
▁ettet	-3556
▁helti	-3557
▁henki	-3558
▁illan	-3559
▁kanna	-3560
▁keino	-3561
▁kilja	-3562
▁kirve	-3563
▁koura	-3564
▁kuule	-3565
▁kuuli	-3566
▁kylän	-3567
▁laulu	-3568
▁mahta	-3569
▁ohits	-3570
▁paran	-3571
▁paras	-3572
▁pistä	-3573
▁poski	-3574
▁puutu	-3575
▁ratta	-3576
▁ruoka	-3577
▁saali	-3578
▁sanan	-3579
▁tempp	-3580
▁tiesi	-3581
▁tunsi	-3582
▁tähti	-3583
▁uhkaa	-3584
▁vaini	-3585
▁veren	-3586
▁vilja	-3587
▁virta	-3588
▁vuori	-3589
estamen	-3590
illänsä	-3591
issänsä	-3592
ossansa	-3593
tomaksi	-3594
uisasti	-3595
uksensa	-3596
uudella	-3597
▁Hämeen	-3598
▁alakul	-3599
▁edestä	-3600
▁hertta	-3601
▁hirveä	-3602
▁huikea	-3603
▁häpeän	-3604
▁iltaan	-3605
▁joutui	-3606
▁katker	-3607
▁kertoa	-3608
▁kirkka	-3609
▁kiusan	-3610
▁kohtaa	-3611
▁kontio	-3612
▁laitaa	-3613
▁lapset	-3614
▁leivän	-3615
▁luoksi	-3616
▁löytyi	-3617
▁metsät	-3618
▁muorin	-3619
▁määrät	-3620
▁opetta	-3621
▁pakeni	-3622
▁partaa	-3623
▁pellon	-3624
▁pellot	-3625
▁riensi	-3626
▁sankar	-3627
▁susien	-3628
▁sydämm	-3629
▁tahtoi	-3630
▁taloon	-3631
▁teiltä	-3632
▁tulisi	-3633
▁varten	-3634
▁voimme	-3635
▁vuoden	-3636
akraaffi	-3637
ikkoseni	-3638
oillansa	-3639
täkäämme	-3640
▁Sompios	-3641
▁Viertol	-3642
▁ajoissa	-3643
▁ehditty	-3644
▁harvoin	-3645
▁heittää	-3646
▁ihmeitä	-3647
▁istumme	-3648
▁istuvat	-3649
▁kaksois	-3650
▁kallion	-3651
▁karkasi	-3652
▁kenties	-3653
▁kivellä	-3654
▁kotonsa	-3655
▁kysymys	-3656
▁lausuen	-3657
▁mieheen	-3658
▁miehenä	-3659
▁nimessä	-3660
▁niskaan	-3661
▁pahasti	-3662
▁päättyi	-3663
▁silmäni	-3664
▁tulinen	-3665
▁tulkoon	-3666
▁vikkelä	-3667
▁viskasi	-3668
▁välistä	-3669
▁hyväänsä	-3670
▁ihanasti	-3671
▁jäljessä	-3672
▁katsahti	-3673
▁katsella	-3674
▁kauemmas	-3675
▁luulenpa	-3676
▁makeasti	-3677
▁miehensä	-3678
▁onnettom	-3679
▁päätänsä	-3680
▁toisensa	-3681
▁tullessa	-3682
▁vihamieh	-3683
▁vähemmin	-3684
▁Jukolassa	-3685
▁Sonnimäen	-3686
▁hartaasti	-3687
▁ijankaikk	-3688
▁kanttoori	-3689
▁pakenivat	-3690
▁poikaseni	-3691
▁vaiheilla	-3692
▁veljeksiä	-3693
▁viettivät	-3694
▁jäljessään	-3695
▁kyyneleitä	-3696
▁lukkarille	-3697
▁mielestäni	-3698
▁oivallinen	-3699
▁rallaralla	-3700
▁vuodattaen	-3701
▁luullakseni	-3702
▁tervaskanto	-3703
▁veljeksille	-3704
▁ympärillään	-3705
▁nahkapeitturin	-3706
hi	-3707
Tuo	-3708
ain	-3709
ena	-3710
iho	-3711
kii	-3712
kke	-3713
mys	-3714
rit	-3715
tat	-3716
tis	-3717
tär	-3718
uin	-3719
ukk	-3720
uns	-3721
uvo	-3722
väs	-3723
örö	-3724
▁Ih	-3725
▁Na	-3726
▁Pi	-3727
▁VI	-3728
Kats	-3729
Minä	-3730
ahta	-3731
erta	-3732
eätä	-3733
hyvä	-3734
inpä	-3735
inta	-3736
kell	-3737
kuva	-3738
llit	-3739
mmar	-3740
mppa	-3741
onpa	-3742
otko	-3743
pänä	-3744
teva	-3745
tina	-3746
tävä	-3747
uhun	-3748
uraa	-3749
urus	-3750
utaa	-3751
uvat	-3752
vään	-3753
yriä	-3754
yrjä	-3755
äsen	-3756
öntä	-3757
▁Käy	-3758
▁Luk	-3759
▁Tee	-3760
▁Van	-3761
▁häv	-3762
▁kad	-3763
▁lad	-3764
▁man	-3765
▁muu	-3766
▁ome	-3767
▁pul	-3768
▁räm	-3769
▁sil	-3770
▁syt	-3771
▁töm	-3772
▁vit	-3773
annut	-3774
dellä	-3775
evana	-3776
iansa	-3777
immin	-3778
keksi	-3779
kusta	-3780
kähtä	-3781
mahan	-3782
malla	-3783
mänsä	-3784
okaas	-3785
ollis	-3786
tävät	-3787
uneet	-3788
västi	-3789
äästä	-3790
▁Astu	-3791
▁Hell	-3792
▁Meni	-3793
▁Pohj	-3794
▁Rupe	-3795
▁Suus	-3796
▁Usko	-3797
▁ajan	-3798
▁armo	-3799
▁elää	-3800
▁haut	-3801
▁hele	-3802
▁helm	-3803
▁herä	-3804
▁kahd	-3805
▁kaja	-3806
▁kasa	-3807
▁keik	-3808
▁kimm	-3809
▁lait	-3810
▁läpi	-3811
▁nall	-3812
▁niel	-3813
▁onni	-3814
▁opet	-3815
▁paha	-3816
▁polt	-3817
▁pull	-3818
▁purj	-3819
▁pyhä	-3820
▁pääl	-3821
▁raiv	-3822
▁rauk	-3823
▁sija	-3824
▁susi	-3825
▁syrj	-3826
▁teer	-3827
▁unta	-3828
▁vesi	-3829
▁äiti	-3830
aakaan	-3831
ahteli	-3832
empana	-3833
ettava	-3834
isivät	-3835
issani	-3836
istoon	-3837
ittiin	-3838
ivalta	-3839
kaisee	-3840
keästi	-3841
ksensä	-3842
kunnan	-3843
naasti	-3844
poikas	-3845
uttiin	-3846
ydessä	-3847
▁Ahker	-3848
▁Hyvin	-3849
▁Kauan	-3850
▁Turkk	-3851
▁Vaiti	-3852
▁armas	-3853
▁astuu	-3854
▁enkel	-3855
▁havut	-3856
▁hieta	-3857
▁himme	-3858
▁hämär	-3859
▁hävit	-3860
▁jumal	-3861
▁kaina	-3862
▁kanss	-3863
▁kekäl	-3864
▁kesän	-3865
▁kettu	-3866
▁koill	-3867
▁kotoa	-3868
▁kovan	-3869
▁kurit	-3870
▁kylmä	-3871
▁kysyä	-3872
▁laski	-3873
▁läimä	-3874
▁menet	-3875
▁mänty	-3876
▁nummi	-3877
▁nuoti	-3878
▁nähdä	-3879
▁näkee	-3880
▁onkin	-3881
▁oppia	-3882
▁ottel	-3883
▁pahaa	-3884
▁pakan	-3885
▁piika	-3886
▁pitäj	-3887
▁pohja	-3888
▁pääni	-3889
▁riita	-3890
▁runsa	-3891
▁rykel	-3892
▁takaa	-3893
▁tuike	-3894
▁tulis	-3895
▁tulla	-3896
▁tuuhe	-3897
▁ukkos	-3898
▁vakaa	-3899
▁varus	-3900
▁velje	-3901
assansa	-3902
essämme	-3903
iinähän	-3904
istamme	-3905
miesten	-3906
oissaan	-3907
televat	-3908
uksella	-3909
uutensa	-3910
▁Katsos	-3911
▁Kyösti	-3912
▁Oletko	-3913
▁Pohjan	-3914
▁Valkoa	-3915
▁aamuna	-3916
▁hongan	-3917
▁housut	-3918
▁huolin	-3919
▁härjät	-3920
▁järven	-3921
▁karhea	-3922
▁kaunis	-3923
▁kertoi	-3924
▁kertom	-3925
▁kesänä	-3926
▁kiittä	-3927
▁kiusaa	-3928
▁koetta	-3929
▁kolmen	-3930
▁kontti	-3931
▁kotona	-3932
▁kristi	-3933
▁kylään	-3934
▁lammas	-3935
▁loppui	-3936
▁maassa	-3937
▁mielen	-3938
▁mikään	-3939
▁olleet	-3940
▁pohjos	-3941
▁purren	-3942
▁raskas	-3943
▁rauhaa	-3944
▁ruumis	-3945
▁silmän	-3946
▁synkeä	-3947
▁tahton	-3948
▁taitaa	-3949
▁tiedon	-3950
▁tyttär	-3951
▁täytyi	-3952
▁vaipui	-3953
▁viipyi	-3954
▁voitta	-3955
ellyttää	-3956
itsemaan	-3957
oissansa	-3958
uttamaan	-3959
▁armahta	-3960
▁astelee	-3961
▁aukaisi	-3962
▁ehtivät	-3963
▁ensiksi	-3964
▁entistä	-3965
▁huomaan	-3966
▁hurskas	-3967
▁ihmeell	-3968
▁kaiketi	-3969
▁kantain	-3970
▁kappale	-3971
▁katsoen	-3972
▁keikkuu	-3973
▁kunnian	-3974
▁kylästä	-3975
▁käsivar	-3976
▁kääntyi	-3977
▁laatuun	-3978
▁leikkiä	-3979
▁nähdään	-3980
▁pelasta	-3981
▁pelkään	-3982
▁perkele	-3983
▁piankin	-3984
▁pirttin	-3985
▁puhalta	-3986
▁puoleen	-3987
▁rakasta	-3988
▁rakettu	-3989
▁seuraan	-3990
▁siirtyi	-3991
▁synkeän	-3992
▁tempasi	-3993
▁toisten	-3994
▁varjele	-3995
▁vieläpä	-3996
▁ympyrjä	-3997
▁äitimme	-3998
ittelivät	-3999
▁Läksivät	-4000
▁Tuhannen	-4001
▁elämämme	-4002
▁hetkeksi	-4003
▁huolinut	-4004
▁ilmestyi	-4005
▁jäljellä	-4006
▁jäniksen	-4007
▁kallista	-4008
▁kasvonsa	-4009
▁keinolla	-4010
▁kiivasta	-4011
▁kohdussa	-4012
▁kuulteli	-4013
▁lähestyy	-4014
▁menneenä	-4015
▁olisimme	-4016
▁reunalta	-4017
▁rintansa	-4018
▁sovinnon	-4019
▁taivasta	-4020
▁vallitsi	-4021
▁yksimiel	-4022
▁akkunasta	-4023
▁kultainen	-4024
▁käyskelee	-4025
▁makasivat	-4026
▁ollutkaan	-4027
▁paratkoon	-4028
▁runsaasti	-4029
▁saattanut	-4030
▁surkeasti	-4031
▁syvyyteen	-4032
▁kainalossa	-4033
▁kamoittava	-4034
▁kannettiin	-4035
▁muistellen	-4036
▁siirtyivät	-4037
▁vikkelästi	-4038
▁vimmatusti	-4039
▁Toukolaiset	-4040
▁käyskelivät	-4041
▁mieluisasti	-4042
',	-4043
EI	-4044
Se	-4045
TÄ	-4046
py	-4047
öö	-4048
ERT	-4049
ISA	-4050
MÄN	-4051
Nyt	-4052
OUK	-4053
aus	-4054
din	-4055
gen	-4056
ija	-4057
iky	-4058
ino	-4059
ipe	-4060
jel	-4061
jun	-4062
kur	-4063
kär	-4064
lly	-4065
pel	-4066
ria	-4067
ull	-4068
yrä	-4069
▁Eh	-4070
▁Kr	-4071
▁Ne	-4072
▁Sy	-4073
etut	-4074
htia	-4075
inaa	-4076
inyt	-4077
itun	-4078
kall	-4079
kerr	-4080
kääs	-4081
oina	-4082
ojen	-4083
pari	-4084
ssin	-4085
toin	-4086
udin	-4087
ukki	-4088
urit	-4089
uvaa	-4090
voim	-4091
voit	-4092
ytty	-4093
yttö	-4094
ytän	-4095
».--	-4096
änpä	-4097
▁Hir	-4098
▁Kil	-4099
▁Mik	-4100
▁Min	-4101
▁Pal	-4102
▁Por	-4103
▁Ruo	-4104
▁Syn	-4105
▁heh	-4106
▁hyl	-4107
▁ikä	-4108
▁jat	-4109
▁kim	-4110
▁kum	-4111
▁kup	-4112
▁lis	-4113
▁lun	-4114
▁lää	-4115
▁mul	-4116
▁nas	-4117
▁näe	-4118
▁riv	-4119
▁rää	-4120
▁sei	-4121
▁soi	-4122
▁suh	-4123
▁tas	-4124
▁tod	-4125
▁ump	-4126
▁ämm	-4127
Jussi	-4128
eemme	-4129
ekset	-4130
iljaa	-4131
istui	-4132
ivaan	-4133
jilla	-4134
jille	-4135
kalla	-4136
kauan	-4137
keana	-4138
kissa	-4139
kkään	-4140
konsa	-4141
kulta	-4142
lihaa	-4143
milla	-4144
oinut	-4145
ottom	-4146
sille	-4147
tanne	-4148
telis	-4149
tella	-4150
tensä	-4151
tosta	-4152
uansa	-4153
yyttä	-4154
ähtää	-4155
äneet	-4156
öyhen	-4157
▁Emme	-4158
▁Etkö	-4159
▁Istu	-4160
▁Kauh	-4161
▁Kekk	-4162
▁Päiv	-4163
▁TOUK	-4164
▁Ylös	-4165
▁aita	-4166
▁alta	-4167
▁elon	-4168
▁ette	-4169
▁haud	-4170
▁haus	-4171
▁hinn	-4172
▁huma	-4173
▁häir	-4174
▁ilmi	-4175
▁kans	-4176
▁kata	-4177
▁keks	-4178
▁koij	-4179
▁käyd	-4180
▁mata	-4181
▁mula	-4182
▁männ	-4183
▁ojan	-4184
▁osaa	-4185
▁pakk	-4186
▁pehm	-4187
▁pelj	-4188
▁puut	-4189
▁pyrs	-4190
▁rann	-4191
▁reuh	-4192
▁ruoh	-4193
▁sapp	-4194
▁sian	-4195
▁siip	-4196
▁sika	-4197
▁sike	-4198
▁sorm	-4199
▁sula	-4200
▁sääs	-4201
▁tamm	-4202
▁tius	-4203
▁tupa	-4204
▁tutk	-4205
▁tyhm	-4206
▁ulko	-4207
▁vats	-4208
▁vinh	-4209
▁yötä	-4210
ERTOLA	-4211
assani	-4212
essani	-4213
htelee	-4214
iltana	-4215
iltiin	-4216
isille	-4217
isinpä	-4218
istaan	-4219
istaen	-4220
istuen	-4221
kaapas	-4222
kappal	-4223
lliset	-4224
maassa	-4225
mättöm	-4226
poikaa	-4227
televa	-4228
toivat	-4229
tukoon	-4230
udella	-4231
vitaan	-4232
▁KAISA	-4233
▁Kohta	-4234
▁Laula	-4235
▁Onkos	-4236
▁Taula	-4237
▁Tänne	-4238
▁alati	-4239
▁alhaa	-4240
▁aprik	-4241
▁harja	-4242
▁harti	-4243
▁itses	-4244
▁jolla	-4245
▁jäsen	-4246
▁kalve	-4247
▁kaner	-4248
▁kului	-4249
▁kuoli	-4250
▁lakea	-4251
▁lauta	-4252
▁liepe	-4253
▁liian	-4254
▁lumis	-4255
▁luote	-4256
▁lämpy	-4257
▁miell	-4258
▁määrä	-4259
▁neuvo	-4260
▁nisko	-4261
▁nuija	-4262
▁nähty	-4263
▁pehme	-4264
▁pokko	-4265
▁poves	-4266
▁pyörr	-4267
▁päätö	-4268
▁rauta	-4269
▁rinna	-4270
▁ryypp	-4271
▁sataa	-4272
▁savua	-4273
▁selkä	-4274
▁sudet	-4275
▁surma	-4276
▁synti	-4277
▁syytä	-4278
▁tytär	-4279
▁tärke	-4280
▁unohd	-4281
▁uskal	-4282
▁uuden	-4283
▁vahin	-4284
▁valmi	-4285
▁vanhi	-4286
▁virsi	-4287
▁voita	-4288
▁vuosi	-4289
▁yössä	-4290
▁ärhen	-4291
OLAINEN	-4292
essansa	-4293
ettansa	-4294
iltansa	-4295
istossa	-4296
lliseen	-4297
mmäinen	-4298
ukseksi	-4299
▁Heikka	-4300
▁Vuohen	-4301
▁atrian	-4302
▁avulla	-4303
▁höyryä	-4304
▁itseäs	-4305
▁kaikuu	-4306
▁karjan	-4307
▁kiltti	-4308
▁koetti	-4309
▁koiras	-4310
▁kolmas	-4311
▁komero	-4312
▁korvat	-4313
▁kunnon	-4314
▁käsken	-4315
▁käymme	-4316
▁leikin	-4317
▁luolan	-4318
▁lyhykä	-4319
▁lähten	-4320
▁löylyä	-4321
▁maista	-4322
▁meiltä	-4323
▁mentyä	-4324
▁miekka	-4325
▁myöten	-4326
▁mäellä	-4327
▁nuoren	-4328
▁nyrkki	-4329
▁nytkin	-4330
▁olenpa	-4331
▁omasta	-4332
▁paimen	-4333
▁paisti	-4334
▁paitsi	-4335
▁parven	-4336
▁pyssyn	-4337
▁päisin	-4338
▁raamat	-4339
▁rakenn	-4340
▁ruokaa	-4341
▁saimme	-4342
▁sanoin	-4343
▁sanoit	-4344
▁suuria	-4345
▁takaan	-4346
▁tapana	-4347
▁tarkka	-4348
▁terävä	-4349
▁tielle	-4350
▁tietää	-4351
▁tointa	-4352
▁tuikea	-4353
▁tuiska	-4354
▁tuntuu	-4355
▁uhaten	-4356
▁unessa	-4357
▁vainoo	-4358
▁vannon	-4359
▁viherj	-4360
killänsä	-4361
llisella	-4362
oitellen	-4363
oittanut	-4364
ottamaan	-4365
▁Aapelin	-4366
▁Hellitä	-4367
▁Lopulta	-4368
▁Muistel	-4369
▁allansa	-4370
▁ehtinyt	-4371
▁hampaat	-4372
▁hiljais	-4373
▁huikean	-4374
▁ihminen	-4375
▁iloisen	-4376
▁juoneen	-4377
▁järkevä	-4378
▁jäähyvä	-4379
▁katsann	-4380
▁kaukais	-4381
▁kaupung	-4382
▁kenkään	-4383
▁kohtasi	-4384
▁kohtuun	-4385
▁korpeen	-4386
▁korvaan	-4387
▁kuinkas	-4388
▁kuntoon	-4389
▁kuusien	-4390
▁kylässä	-4391
▁kädestä	-4392
▁lankesi	-4393
▁länteen	-4394
▁niinkin	-4395
▁nuorten	-4396
▁parempi	-4397
▁pilkkaa	-4398
▁pilvien	-4399
▁polskaa	-4400
▁rajalla	-4401
▁seitsem	-4402
▁suostun	-4403
▁sydämen	-4404
▁syntymä	-4405
▁tarinan	-4406
▁tarvits	-4407
▁tehdään	-4408
▁toimeen	-4409
▁tuhaksi	-4410
▁tuliais	-4411
▁varhain	-4412
▁varmaan	-4413
▁yhdessä	-4414
ikymmentä	-4415
▁Kekkurin	-4416
▁Simeonia	-4417
▁VIERTOLA	-4418
▁hallitsi	-4419
▁järkähtä	-4420
▁kamoitta	-4421
▁kirkkaan	-4422
▁kirkkoon	-4423
▁korvesta	-4424
▁kotoisin	-4425
▁kunnioit	-4426
▁kuulkaat	-4427
▁molemmat	-4428
▁murheell	-4429
▁paikassa	-4430
▁paljasta	-4431
▁pellolla	-4432
▁pystyval	-4433
▁reunalle	-4434
▁tervehti	-4435
▁tiedämme	-4436
▁tänäpänä	-4437
▁variksen	-4438
▁vieressä	-4439
▁Totisesti	-4440
▁hirmuisen	-4441
▁huikeasti	-4442
▁kanssamme	-4443
▁kanssansa	-4444
▁katsomaan	-4445
▁lähenivät	-4446
▁nimittäin	-4447
▁perkeleet	-4448
▁puhalteli	-4449
▁raskaasti	-4450
▁tapahtuva	-4451
▁tarpeeksi	-4452
▁tarvitaan	-4453
▁veljeänsä	-4454
▁Äänetönnä	-4455
▁haastellen	-4456
▁itseksensä	-4457
▁laattialle	-4458
▁molemmilla	-4459
▁permantoon	-4460
▁ryypättiin	-4461
▁tanterella	-4462
▁tanterelle	-4463
▁veikkoseni	-4464
▁TOUKOLAINEN	-4465
▁lähtekäämme	-4466
▁rakentamaan	-4467
▁sunnuntaina	-4468
▁verrattoman	-4469
▁Muistakaamme	-4470
▁Toukolaisten	-4471
▁kauhistuksen	-4472
▁yksimielisesti	-4473
AH	-4474
Ei	-4475
Ka	-4476
da	-4477
dy	-4478
pö	-4479
so	-4480
ene	-4481
hoo	-4482
hää	-4483
ini	-4484
ira	-4485
jia	-4486
kei	-4487
ksu	-4488
kyt	-4489
len	-4490
mia	-4491
mur	-4492
ous	-4493
sän	-4494
tte	-4495
tur	-4496
usa	-4497
vir	-4498
vun	-4499
yry	-4500
örr	-4501
▁em	-4502
▁od	-4503
Juma	-4504
ahti	-4505
aika	-4506
eili	-4507
esti	-4508
evia	-4509
evit	-4510
hään	-4511
ijaa	-4512
ikky	-4513
iste	-4514
itas	-4515
ivas	-4516
jani	-4517
keat	-4518
koin	-4519
mais	-4520
muun	-4521
pell	-4522
rjus	-4523
skan	-4524
toen	-4525
uria	-4526
utus	-4527
vain	-4528
vimm	-4529
▁...	-4530
▁Aat	-4531
▁Heh	-4532
▁Kes	-4533
▁Kur	-4534
▁Luo	-4535
▁Lyö	-4536
▁Pää	-4537
▁Sel	-4538
▁Sis	-4539
▁aar	-4540
▁aav	-4541
▁ahd	-4542
▁aja	-4543
▁auk	-4544
▁aut	-4545
▁iku	-4546
▁jup	-4547
▁kod	-4548
▁kuh	-4549
▁kyr	-4550
▁kää	-4551
▁läp	-4552
▁myr	-4553
▁nuh	-4554
▁nuk	-4555
▁pet	-4556
▁puk	-4557
▁reh	-4558
▁rei	-4559
▁rot	-4560
▁ruh	-4561
▁ryh	-4562
▁röh	-4563
▁sie	-4564
▁sol	-4565
▁tom	-4566
▁tra	-4567
▁uni	-4568
Jukol	-4569
MÄNTÄ	-4570
aaksi	-4571
astui	-4572
eesti	-4573
ehtii	-4574
eijaa	-4575
eista	-4576
illut	-4577
isilm	-4578
issan	-4579
istys	-4580
kensa	-4581
kerta	-4582
kirja	-4583
kissä	-4584
kossa	-4585
kunta	-4586
kähti	-4587
känsä	-4588
llani	-4589
muori	-4590
mätön	-4591
nalle	-4592
oiksi	-4593
oiska	-4594
pinta	-4595
ppeli	-4596
pusta	-4597
tanpa	-4598
telem	-4599
telia	-4600
telit	-4601
tisen	-4602
tista	-4603
tojen	-4604
ttiin	-4605
tuvan	-4606
uissa	-4607
umaan	-4608
ussin	-4609
utaan	-4610
vaten	-4611
viksi	-4612
öitsi	-4613
örökö	-4614
▁Alas	-4615
▁Eikä	-4616
▁Herr	-4617
▁Iske	-4618
▁Myös	-4619
▁Rien	-4620
▁Ulos	-4621
▁ahoa	-4622
▁alka	-4623
▁ansa	-4624
▁apua	-4625
▁asui	-4626
▁hark	-4627
▁hätä	-4628
▁ilon	-4629
▁jaks	-4630
▁jalo	-4631
▁jauh	-4632
▁joud	-4633
▁järj	-4634
▁kain	-4635
▁katr	-4636
▁kiuk	-4637
▁kont	-4638
▁kulk	-4639
▁lehd	-4640
▁lenn	-4641
▁liit	-4642
▁merk	-4643
▁myön	-4644
▁näit	-4645
▁näke	-4646
▁oksa	-4647
▁omaa	-4648
▁onko	-4649
▁pane	-4650
▁peto	-4651
▁posk	-4652
▁pysä	-4653
▁pörr	-4654
▁rist	-4655
▁ruus	-4656
▁salo	-4657
▁sota	-4658
▁sylj	-4659
▁sysi	-4660
▁tart	-4661
▁telj	-4662
▁tila	-4663
▁tyhj	-4664
▁uhka	-4665
▁valo	-4666
▁vann	-4667
▁verh	-4668
▁viid	-4669
▁yönä	-4670
ansaat	-4671
astani	-4672
astuol	-4673
atkaat	-4674
eitten	-4675
elleni	-4676
ellään	-4677
emisen	-4678
evalla	-4679
ilivät	-4680
isillä	-4681
ittävä	-4682
keassa	-4683
keneet	-4684
koitti	-4685
lainen	-4686
miehet	-4687
miehiä	-4688
mmäksi	-4689
oisina	-4690
osivat	-4691
ossaan	-4692
ottaen	-4693
päistä	-4694
sarjus	-4695
siänsä	-4696
tuuden	-4697
tymään	-4698
udesta	-4699
vastin	-4700
ykseen	-4701
▁Kissa	-4702
▁Kitas	-4703
▁Mistä	-4704
▁Pikku	-4705
▁aapia	-4706
▁ajeli	-4707
▁etelä	-4708
▁haavo	-4709
▁hauta	-4710
▁hirvi	-4711
▁humis	-4712
▁hätää	-4713
▁ilves	-4714
▁jaksa	-4715
▁jonne	-4716
▁jätti	-4717
▁kamar	-4718
▁karja	-4719
▁kaula	-4720
▁kesti	-4721
▁koske	-4722
▁kumar	-4723
▁kuuma	-4724
▁kylvö	-4725
▁kylää	-4726
▁käpäl	-4727
▁käski	-4728
▁laaks	-4729
▁laill	-4730
▁lepää	-4731
▁leuka	-4732
▁liikk	-4733
▁luoma	-4734
▁luoti	-4735
▁lyhyt	-4736
▁lähde	-4737
▁masen	-4738
▁matku	-4739
▁miten	-4740
▁neito	-4741
▁nimet	-4742
▁nurin	-4743
▁näkyy	-4744
▁nälän	-4745
▁onkos	-4746
▁papin	-4747
▁pappi	-4748
▁pauhu	-4749
▁perii	-4750
▁pisar	-4751
▁pisti	-4752
▁raata	-4753
▁rasva	-4754
▁retki	-4755
▁sinko	-4756
▁säken	-4757
▁temma	-4758
▁terva	-4759
▁toimi	-4760
▁totta	-4761
▁tyhjä	-4762
▁tyhmä	-4763
▁uskoa	-4764
▁vaari	-4765
▁vettä	-4766
▁viipy	-4767
▁virka	-4768
▁yöksi	-4769
▁äänen	-4770
▁ääntä	-4771
assamme	-4772
ellessa	-4773
estänsä	-4774
hdellen	-4775
iksensa	-4776
istosta	-4777
kevästi	-4778
kkaasti	-4779
mminkin	-4780
teltiin	-4781
yydessä	-4782
öitsevä	-4783
▁EMÄNTÄ	-4784
▁Heidän	-4785
▁Hiljaa	-4786
▁Kourus	-4787
▁Olemme	-4788
▁Olihan	-4789
▁Seisoi	-4790
▁Siihen	-4791
▁Vallan	-4792
▁erällä	-4793
▁halkon	-4794
▁harjan	-4795
▁höyhen	-4796
▁juomaa	-4797
▁järjen	-4798
▁kamala	-4799
▁kanget	-4800
▁katsan	-4801
▁kissan	-4802
▁koskee	-4803
▁kulkea	-4804
▁kurjan	-4805
▁kysyin	-4806
▁lapsen	-4807
▁lapsia	-4808
▁lempeä	-4809
▁liekki	-4810
▁liikku	-4811
▁maalla	-4812
▁makkar	-4813
▁metsiä	-4814
▁metson	-4815
▁mieltä	-4816
▁männyn	-4817
▁nainen	-4818
▁naiset	-4819
▁naulaa	-4820
▁neuvoa	-4821
▁niistä	-4822
▁oikeus	-4823
▁olikin	-4824
▁omalla	-4825
▁paiste	-4826
▁pakkas	-4827
▁peitti	-4828
▁pensas	-4829
▁peukal	-4830
▁pianpa	-4831
▁pilvet	-4832
▁pistää	-4833
▁saapas	-4834
▁saarna	-4835
▁seison	-4836
▁taidan	-4837
▁tapaus	-4838
▁tiensä	-4839
▁tulita	-4840
▁työhön	-4841
▁uskoon	-4842
▁vakava	-4843
▁veljes	-4844
▁vertaa	-4845
▁voitti	-4846
▁vuoret	-4847
▁ymmärr	-4848
mistansa	-4849
▁Ensiksi	-4850
▁Kyöstin	-4851
▁Niinhän	-4852
▁aamusta	-4853
▁astunut	-4854
▁atrioit	-4855
▁ellemme	-4856
▁ennusta	-4857
▁harmaan	-4858
▁hiiteen	-4859
▁hyvästi	-4860
▁ihmisla	-4861
▁isännän	-4862
▁jalkapu	-4863
▁jääköön	-4864
▁kanerva	-4865
▁kiivaan	-4866
▁kivistä	-4867
▁konstin	-4868
▁kynsiin	-4869
▁liehtoi	-4870
▁läimäyt	-4871
▁menköön	-4872
▁miehinä	-4873
▁monessa	-4874
▁männist	-4875
▁pelasti	-4876
▁perästä	-4877
▁pystyyn	-4878
▁rakensi	-4879
▁samassa	-4880
▁siitäpä	-4881
▁tainnut	-4882
▁tilassa	-4883
▁tuoksua	-4884
▁tyytyvä	-4885
▁voittaa	-4886
▁välissä	-4887
▁äänetön	-4888
oittamaan	-4889
▁Kissalan	-4890
▁Niinkuin	-4891
▁Siinähän	-4892
▁Viertola	-4893
▁alhaalla	-4894
▁hedelmiä	-4895
▁huokaili	-4896
▁huusivat	-4897
▁jokainen	-4898
▁kaikella	-4899
▁kohdassa	-4900
▁kuulivat	-4901
▁kuulunut	-4902
▁kylläkin	-4903
▁kyntensä	-4904
▁kättänsä	-4905
▁kääritty	-4906
▁leimahti	-4907
▁lukemaan	-4908
▁lämmintä	-4909
▁mieheksi	-4910
▁mielinyt	-4911
▁muodolla	-4912
▁oikeuden	-4913
▁poloinen	-4914
▁päivänsä	-4915
▁päätetty	-4916
▁rakentaa	-4917
▁reunalla	-4918
▁riivatun	-4919
▁rukoilen	-4920
▁sarvipää	-4921
▁silmissä	-4922
▁silmällä	-4923
▁suojassa	-4924
▁suureksi	-4925
▁syntinen	-4926
▁taisivat	-4927
▁tapahtuu	-4928
▁toiselle	-4929
▁tukkansa	-4930
▁tuohikon	-4931
▁vaimonsa	-4932
▁veitikka	-4933
▁verraton	-4934
▁Katsokaas	-4935
▁Seitsemän	-4936
▁auttakoon	-4937
▁haamoitti	-4938
▁hampaissa	-4939
▁heräsivät	-4940
▁kappaleen	-4941
▁komsarjus	-4942
▁korvaansa	-4943
▁niinkauan	-4944
▁nimismies	-4945
▁niskaansa	-4946
▁perkeleen	-4947
▁pikkuinen	-4948
▁pirttimme	-4949
▁pirttinsä	-4950
▁seisahtui	-4951
▁sydämellä	-4952
▁tarpeiksi	-4953
▁tarvitsee	-4954
▁tuulenpes	-4955
▁astelemaan	-4956
▁helvetissä	-4957
▁kaikkialle	-4958
▁katsahtaen	-4959
▁keskenänsä	-4960
▁kuolemasta	-4961
▁kuultuansa	-4962
▁miellyttää	-4963
▁muistakaat	-4964
▁parastansa	-4965
▁peijakkaan	-4966
▁rangaistus	-4967
▁tavallinen	-4968
▁vankkurien	-4969
▁yhteisesti	-4970
▁ensimmäistä	-4971
▁esimerkiksi	-4972
▁haastelivat	-4973
▁hirmuisella	-4974
▁hirmuisesti	-4975
▁kaksoispari	-4976
▁matkaansaat	-4977
▁nimismiehen	-4978
▁parakraaffi	-4979
▁retkeilivät	-4980
▁ruumistansa	-4981
▁saarnastuol	-4982
▁voimallinen	-4983
▁neljäkymmentä	-4984
▁paukahtelivat	-4985
▁viisikymmentä	-4986
'.	-4987
Mu	-4988
UU	-4989
ba	-4990
ep	-4991
mö	-4992
AHK	-4993
TTU	-4994
dan	-4995
eer	-4996
ilu	-4997
isä	-4998
ivi	-4999
joo	-5000
löy	-5001
npa	-5002
ono	-5003
pea	-5004
pih	-5005
pil	-5006
psa	-5007
uli	-5008
uur	-5009
yyn	-5010
▁Ai	-5011
▁Yh	-5012
▁ov	-5013
▁ys	-5014
APEI	-5015
aavo	-5016
einä	-5017
elan	-5018
elet	-5019
elia	-5020
eljä	-5021
empa	-5022
esin	-5023
eten	-5024
eviä	-5025
evää	-5026
ikir	-5027
ilen	-5028
iskä	-5029
itkä	-5030
joon	-5031
kina	-5032
kita	-5033
kkua	-5034
löyl	-5035
mien	-5036
myös	-5037
niin	-5038
oiss	-5039
ppia	-5040
pull	-5041
toni	-5042
vaat	-5043
vani	-5044
velj	-5045
yden	-5046
ytyy	-5047
ätti	-5048
▁Hal	-5049
▁Hii	-5050
▁Kön	-5051
▁Luh	-5052
▁Per	-5053
▁Syö	-5054
▁Taa	-5055
▁Tai	-5056
▁aho	-5057
▁ais	-5058
▁ait	-5059
▁ein	-5060
▁eli	-5061
▁ero	-5062
▁etä	-5063
▁euk	-5064
▁hum	-5065
▁ilv	-5066
▁iso	-5067
▁jyn	-5068
▁jäi	-5069
▁lir	-5070
▁lur	-5071
▁muj	-5072
▁mär	-5073
▁nal	-5074
▁näk	-5075
▁oiv	-5076
▁orr	-5077
▁pat	-5078
▁plä	-5079
▁ruk	-5080
▁syy	-5081
▁sää	-5082
▁yks	-5083
▁yti	-5084
Katso	-5085
TTURI	-5086
aamme	-5087
astus	-5088
eesen	-5089
eesta	-5090
ellis	-5091
ellys	-5092
emmän	-5093
emmäs	-5094
ilaan	-5095
inätä	-5096
iskua	-5097
istus	-5098
jalka	-5099
jistä	-5100
jonen	-5101
kelee	-5102
kenut	-5103
lassa	-5104
llään	-5105
mahti	-5106
nisko	-5107
nissa	-5108
oimme	-5109
oitte	-5110
oitus	-5111
oseni	-5112
ppuun	-5113
päitä	-5114
rasta	-5115
sikka	-5116
silla	-5117
teitä	-5118
tinen	-5119
tisti	-5120
tusta	-5121
ukses	-5122
uskan	-5123
ussia	-5124
vamme	-5125
villä	-5126
vissä	-5127
vista	-5128
yrsky	-5129
ysten	-5130
▁Aika	-5131
▁Ehkä	-5132
▁Eipä	-5133
▁Huom	-5134
▁Ihan	-5135
▁Kysy	-5136
▁NAHK	-5137
▁Noin	-5138
▁Nous	-5139
▁Pidä	-5140
▁Pitä	-5141
▁Sama	-5142
▁Tosi	-5143
▁Vaan	-5144
▁ahma	-5145
▁aini	-5146
▁ajat	-5147
▁autu	-5148
▁enpä	-5149
▁harj	-5150
▁hiir	-5151
▁hius	-5152
▁hyyr	-5153
▁julm	-5154
▁juos	-5155
▁juov	-5156
▁jyke	-5157
▁keih	-5158
▁klan	-5159
▁kuih	-5160
▁kula	-5161
▁kulj	-5162
▁käen	-5163
▁kärm	-5164
▁lato	-5165
▁leve	-5166
▁luja	-5167
▁lupa	-5168
▁muka	-5169
▁nimi	-5170
▁nuol	-5171
▁nurm	-5172
▁näen	-5173
▁pann	-5174
▁puls	-5175
▁puss	-5176
▁pysy	-5177
▁rait	-5178
▁reik	-5179
▁reng	-5180
▁sade	-5181
▁sarv	-5182
▁soit	-5183
▁tann	-5184
▁taps	-5185
▁tasa	-5186
▁teur	-5187
▁turh	-5188
▁ulvo	-5189
▁unen	-5190
▁usea	-5191
▁vaku	-5192
▁vell	-5193
▁vetä	-5194
▁vieh	-5195
▁viho	-5196
▁viiv	-5197
▁vilj	-5198
▁viul	-5199
▁yrit	-5200
attiin	-5201
atunut	-5202
detään	-5203
eltävä	-5204
evansa	-5205
häällä	-5206
ikasta	-5207
ilevat	-5208
isensa	-5209
isilmä	-5210
jainen	-5211
joukko	-5212
kaisen	-5213
kaisin	-5214
keensä	-5215
keista	-5216
kkaita	-5217
kkansa	-5218
kkulan	-5219
koivat	-5220
leiksi	-5221
ltansa	-5222
mmalla	-5223
nellen	-5224
ottiin	-5225
päivän	-5226
siämme	-5227
tomina	-5228
tuksen	-5229
tyköön	-5230
tyneet	-5231
uksiin	-5232
unalan	-5233
utensa	-5234
vollis	-5235
ähtäen	-5236
öitsee	-5237
▁Eeroa	-5238
▁Enhän	-5239
▁Entäs	-5240
▁Härkä	-5241
▁Kukas	-5242
▁Näkyi	-5243
▁Ohhoo	-5244
▁Olipa	-5245
▁Pojat	-5246
▁Suuri	-5247
▁Tiedä	-5248
▁Timoa	-5249
▁Tuota	-5250
▁Varro	-5251
▁Vasta	-5252
▁Voima	-5253
▁ampui	-5254
▁avasi	-5255
▁eilen	-5256
▁emänn	-5257
▁enhän	-5258
▁heila	-5259
▁hirsi	-5260
▁huoma	-5261
▁hyvät	-5262
▁ikään	-5263
▁immen	-5264
▁itään	-5265
▁johta	-5266
▁jolle	-5267
▁joutu	-5268
▁jykev	-5269
▁kadot	-5270
▁kalup	-5271
▁kammi	-5272
▁karme	-5273
▁kelme	-5274
▁kerta	-5275
▁kiipe	-5276
▁kirot	-5277
▁kitaa	-5278
▁kiviä	-5279
▁korea	-5280
▁korpi	-5281
▁koste	-5282
▁koulu	-5283
▁kruut	-5284
▁kumis	-5285
▁kuran	-5286
▁kädet	-5287
▁kömpp	-5288
▁laiho	-5289
▁lanta	-5290
▁lapse	-5291
▁leipä	-5292
▁lukua	-5293
▁lähet	-5294
▁lämpö	-5295
▁läpeä	-5296
▁mekin	-5297
▁merki	-5298
▁metel	-5299
▁morsi	-5300
▁muija	-5301
▁muita	-5302
▁muren	-5303
▁murha	-5304
▁orhin	-5305
▁ostaa	-5306
▁pahan	-5307
▁paini	-5308
▁paist	-5309
▁palan	-5310
▁patal	-5311
▁perhe	-5312
▁pilka	-5313
▁pimeä	-5314
▁puner	-5315
▁puoli	-5316
▁putoo	-5317
▁puusk	-5318
▁pyhän	-5319
▁pääse	-5320
▁pääsi	-5321
▁pöydä	-5322
▁rinte	-5323
▁rupee	-5324
▁samma	-5325
▁sauva	-5326
▁sehän	-5327
▁seinä	-5328
▁siera	-5329
▁siner	-5330
▁sokea	-5331
▁suits	-5332
▁suuta	-5333
▁tahdo	-5334
▁talvi	-5335
▁tavar	-5336
▁tekis	-5337
▁tover	-5338
▁tulip	-5339
▁tunke	-5340
▁tunki	-5341
▁tuska	-5342
▁tuvan	-5343
▁tynnö	-5344
▁tähte	-5345
▁tähtä	-5346
▁tälla	-5347
▁töitä	-5348
▁vatsa	-5349
▁väkeä	-5350
▁värss	-5351
▁yönsä	-5352
attomat	-5353
eilivat	-5354
elemaan	-5355
ellähän	-5356
illemme	-5357
illistä	-5358
inkalan	-5359
iskanen	-5360
istössä	-5361
oisesti	-5362
oitettu	-5363
oitteli	-5364
päivinä	-5365
sillaan	-5366
uttelin	-5367
uttivat	-5368
uudesta	-5369
yksellä	-5370
ässänsä	-5371
▁Ainapa	-5372
▁Edellä	-5373
▁Kohden	-5374
▁Kuului	-5375
▁Mörökö	-5376
▁Tuosta	-5377
▁Valkon	-5378
▁akkuna	-5379
▁alussa	-5380
▁asiaan	-5381
▁elikko	-5382
▁elämää	-5383
▁harras	-5384
▁heiltä	-5385
▁huolta	-5386
▁huutaa	-5387
▁hännät	-5388
▁härkiä	-5389
▁isänsä	-5390
▁juopun	-5391
▁jyrinä	-5392
▁jäljet	-5393
▁kaatoi	-5394
▁kammar	-5395
▁kantoi	-5396
▁karvas	-5397
▁kasvat	-5398
▁kelpaa	-5399
▁kerjäl	-5400
▁keräjä	-5401
▁kiitti	-5402
▁kirjat	-5403
▁kohtal	-5404
▁koivun	-5405
▁kolman	-5406
▁kontit	-5407
▁korjat	-5408
▁kuivan	-5409
▁kummas	-5410
▁kuorsa	-5411
▁kutsui	-5412
▁kynnet	-5413
▁käskyn	-5414
▁käyden	-5415
▁käänty	-5416
▁köntti	-5417
▁lasten	-5418
▁laulun	-5419
▁maanti	-5420
▁maksaa	-5421
▁myhäil	-5422
▁naamaa	-5423
▁neitoa	-5424
▁nimeen	-5425
▁niskat	-5426
▁nuorin	-5427
▁nuorta	-5428
▁näistä	-5429
▁näyttä	-5430
▁pienet	-5431
▁piisaa	-5432
▁pilkka	-5433
▁pilven	-5434
▁puhdas	-5435
▁puheen	-5436
▁puoles	-5437
▁pussit	-5438
▁pykälä	-5439
▁päältä	-5440
▁pöllis	-5441
▁pöllyt	-5442
▁reunaa	-5443
▁riehui	-5444
▁rohken	-5445
▁ryyppy	-5446
▁ryövär	-5447
▁saamme	-5448
▁saatan	-5449
▁sappea	-5450
▁sielun	-5451
▁siirry	-5452
▁silmiä	-5453
▁suostu	-5454
▁surkut	-5455
▁suurta	-5456
▁synnin	-5457
▁synnyt	-5458
▁taatto	-5459
▁tallin	-5460
▁tietty	-5461
▁tonttu	-5462
▁tuleen	-5463
▁tunnin	-5464
▁tunsit	-5465
▁tuulis	-5466
▁tyttöä	-5467
▁tähten	-5468
▁tärkeä	-5469
▁unohta	-5470
▁vaelta	-5471
▁vaikea	-5472
▁vartoo	-5473
▁vieras	-5474
▁viikko	-5475
▁virren	-5476
▁voinut	-5477
▁väikky	-5478
▁väliin	-5479
▁väärin	-5480
▁älköön	-5481
ettömänä	-5482
kallansa	-5483
mielinen	-5484
punainen	-5485
puolella	-5486
▁Emmehän	-5487
▁Jukolaa	-5488
▁Mitähän	-5489
▁Useinpa	-5490
▁aatteli	-5491
▁akkunan	-5492
▁emäntää	-5493
▁enemmän	-5494
▁haltuun	-5495
▁huuteli	-5496
▁hyppeli	-5497
▁jalkain	-5498
▁juosten	-5499
▁kajasti	-5500
▁kiljuva	-5501
▁kirjoit	-5502
▁kirmasi	-5503
▁kiukaan	-5504
▁kiveltä	-5505
▁kivisen	-5506
▁korkean	-5507
▁kotomme	-5508
▁kouluun	-5509
▁kuusten	-5510
▁kätensä	-5511
▁käyköön	-5512
▁loistaa	-5513
▁lumessa	-5514
▁lyötiin	-5515
▁maistaa	-5516
▁minulta	-5517
▁muutkin	-5518
▁möräten	-5519
▁oppinut	-5520
▁otsansa	-5521
▁pauhasi	-5522
▁peukalo	-5523
▁poikain	-5524
▁povessa	-5525
▁puitten	-5526
▁punakan	-5527
▁pussiin	-5528
▁pöytään	-5529
▁rahilla	-5530
▁rakenta	-5531
▁rovasti	-5532
▁salojen	-5533
▁sieluni	-5534
▁siinäpä	-5535
▁sinulla	-5536
▁sisällä	-5537
▁suureen	-5538
▁säteili	-5539
▁tapahtu	-5540
▁tehneet	-5541
▁tulevan	-5542
▁tulisen	-5543
▁tulivat	-5544
▁ukkonen	-5545
▁varoten	-5546
▁vastoin	-5547
▁vihansa	-5548
▁vihasta	-5549
▁viheliä	-5550
▁vilkais	-5551
▁virtasi	-5552
▁visusti	-5553
▁vuoroka	-5554
▁väikkyi	-5555
▁yhdestä	-5556
▁yleinen	-5557
▁äänensä	-5558
APEITTURI	-5559
silmäinen	-5560
▁Kourusuo	-5561
▁Kuulkaat	-5562
▁Pohjolan	-5563
▁arvellen	-5564
▁askeleen	-5565
▁etsimään	-5566
▁harjulle	-5567
▁helmassa	-5568
▁henkemme	-5569
▁itsiämme	-5570
▁joukkoon	-5571
▁järjesty	-5572
▁kauemmin	-5573
▁kauhista	-5574
▁kierteli	-5575
▁kiitivät	-5576
▁kiltisti	-5577
▁kotoansa	-5578
▁kourasta	-5579
▁kuoppaan	-5580
▁kyllähän	-5581
▁loimotta	-5582
▁löytynyt	-5583
▁mieleeni	-5584
▁muotonsa	-5585
▁naapurin	-5586
▁niitulla	-5587
▁nurkasta	-5588
▁pakkanen	-5589
▁pappilan	-5590
▁peltojen	-5591
▁permanto	-5592
▁pinnalla	-5593
▁pirtistä	-5594
▁puhaltaa	-5595
▁puoleksi	-5596
▁puolelle	-5597
▁päivältä	-5598
▁päälleni	-5599
▁rannalla	-5600
▁saattaen	-5601
▁taakseen	-5602
▁talvella	-5603
▁tekemään	-5604
▁testamen	-5605
▁toiseksi	-5606
▁totisena	-5607
▁totuuden	-5608
▁tulevana	-5609
▁tuoretta	-5610
▁tuostapa	-5611
▁useinkin	-5612
▁varustet	-5613
▁veljestä	-5614
▁veriseen	-5615
▁vuodessa	-5616
▁vuorelle	-5617
▁Heiskanen	-5618
▁Impivaara	-5619
▁Jukolasta	-5620
▁Karkkulan	-5621
▁Teerimäen	-5622
▁Veljekset	-5623
▁Vuohenkal	-5624
▁ahkerasti	-5625
▁ainiaaksi	-5626
▁edessämme	-5627
▁havutukin	-5628
▁heittivät	-5629
▁hiljainen	-5630
▁hongiston	-5631
▁kankeasti	-5632
▁kauhistus	-5633
▁kenenkään	-5634
▁kestäessä	-5635
▁kiireesti	-5636
▁kirvesvar	-5637
▁kristitty	-5638
▁kumminkin	-5639
▁käykäämme	-5640
▁myhäillen	-5641
▁ohitsensa	-5642
▁parhaiten	-5643
▁pyörryttä	-5644
▁rakettiin	-5645
▁rykmentti	-5646
▁seuraavan	-5647
▁sydämemme	-5648
▁sydämessä	-5649
▁taivaassa	-5650
▁tukkaansa	-5651
▁tulisijan	-5652
▁tulitakan	-5653
▁tultuansa	-5654
▁vaipuivat	-5655
▁vartomaan	-5656
▁viimeisen	-5657
▁viisautta	-5658
▁Kuninkalan	-5659
▁aatoksensa	-5660
▁ehtimiseen	-5661
▁lausumatta	-5662
▁liikkeille	-5663
▁oivallisen	-5664
▁pyöriskeli	-5665
▁rynkäsivät	-5666
▁siunatkoon	-5667
▁tuliaisjuh	-5668
▁uskaltanut	-5669
▁vasemmalla	-5670
▁viimeiseen	-5671
▁armahtakoon	-5672
▁jahtivoudin	-5673
▁miehellensä	-5674
▁nuorukaisen	-5675
▁seuraavalla	-5676
▁taistelivat	-5677
▁vilauksessa	-5678
▁heittäkäämme	-5679
▁tavallisesti	-5680
▁tervehtimään	-5681
▁NAHKAPEITTURI	-5682
▁rangaistuksen	-5683
EK	-5684
▁f	-5685
,--	-5686
EKS	-5687
ELJ	-5688
IST	-5689
UUT	-5690
dyn	-5691
ehd	-5692
eja	-5693
ete	-5694
hah	-5695
hal	-5696
hir	-5697
hto	-5698
ipu	-5699
ito	-5700
jus	-5701
ket	-5702
mun	-5703
mut	-5704
ole	-5705
oss	-5706
puh	-5707
pöy	-5708
sat	-5709
suo	-5710
tai	-5711
tul	-5712
vih	-5713
yin	-5714
ysi	-5715
▁Ti	-5716
▁id	-5717
▁in	-5718
▁mo	-5719
▁Äl	-5720
Mikä	-5721
ehen	-5722
elsi	-5723
eraa	-5724
esen	-5725
etun	-5726
etön	-5727
feer	-5728
huon	-5729
ikat	-5730
ilet	-5731
ityt	-5732
ival	-5733
jain	-5734
jeni	-5735
kani	-5736
kasa	-5737
keus	-5738
kian	-5739
kiel	-5740
kivi	-5741
koij	-5742
kses	-5743
kset	-5744
linn	-5745
llän	-5746
lläs	-5747
mmäs	-5748
moin	-5749
onna	-5750
onta	-5751
osen	-5752
otte	-5753
oval	-5754
pete	-5755
psen	-5756
teer	-5757
toja	-5758
toor	-5759
ttää	-5760
tyne	-5761
ulin	-5762
unsv	-5763
vina	-5764
yrin	-5765
yten	-5766
yönä	-5767
älle	-5768
ääni	-5769
äänä	-5770
▁Juo	-5771
▁Kah	-5772
▁Kau	-5773
▁Kuu	-5774
▁Pah	-5775
▁Pan	-5776
▁Puh	-5777
▁Sal	-5778
▁Suo	-5779
▁Tar	-5780
▁Tus	-5781
▁Työ	-5782
▁Vir	-5783
▁Väh	-5784
▁Yhd	-5785
▁aal	-5786
▁aid	-5787
▁erä	-5788
▁hat	-5789
▁hik	-5790
▁huk	-5791
▁joh	-5792
▁jol	-5793
▁jyt	-5794
▁jäy	-5795
▁kit	-5796
▁kot	-5797
▁kro	-5798
▁kyy	-5799
▁käh	-5800
▁köl	-5801
▁mut	-5802
▁nei	-5803
▁noi	-5804
▁oto	-5805
▁pii	-5806
▁pim	-5807
▁pri	-5808
▁pyl	-5809
▁rat	-5810
▁rem	-5811
▁rev	-5812
▁röy	-5813
▁säl	-5814
▁töy	-5815
▁uhr	-5816
▁upp	-5817
▁vei	-5818
▁ves	-5819
▁vää	-5820
aalla	-5821
aneet	-5822
assoo	-5823
eihin	-5824
eipää	-5825
eisin	-5826
empaa	-5827
errus	-5828
gissä	-5829
hattu	-5830
häntä	-5831
iaksi	-5832
imaan	-5833
inata	-5834
ineen	-5835
inesi	-5836
iseni	-5837
isevä	-5838
isnut	-5839
istoa	-5840
istön	-5841
kaana	-5842
kaise	-5843
kalan	-5844
kasin	-5845
kettä	-5846
mansa	-5847
mpäri	-5848
nusti	-5849
oitan	-5850
okset	-5851
olais	-5852
onnut	-5853
pojan	-5854
rilla	-5855
sinen	-5856
sitta	-5857
teita	-5858
tietä	-5859
timme	-5860
tinas	-5861
tivat	-5862
tomme	-5863
tuaan	-5864
vatpa	-5865
velta	-5866
ykset	-5867
yksiä	-5868
yneet	-5869
yteen	-5870
ännyt	-5871
▁Ilma	-5872
▁Joka	-5873
▁Kill	-5874
▁Koir	-5875
▁Lusi	-5876
▁MUUT	-5877
▁Mies	-5878
▁Oiva	-5879
▁Olet	-5880
▁Seba	-5881
▁Tuom	-5882
▁Viha	-5883
▁ahte	-5884
▁aike	-5885
▁haih	-5886
▁hala	-5887
▁hava	-5888
▁illa	-5889
▁irti	-5890
▁jala	-5891
▁juhd	-5892
▁juom	-5893
▁kaad	-5894
▁kepp	-5895
▁kila	-5896
▁kita	-5897
▁kiul	-5898
▁koip	-5899
▁kuko	-5900
▁kuma	-5901
▁kumo	-5902
▁kylp	-5903
▁kääp	-5904
▁lahj	-5905
▁lamm	-5906
▁loil	-5907
▁louk	-5908
▁luku	-5909
▁luot	-5910
▁länn	-5911
▁maat	-5912
▁mars	-5913
▁muon	-5914
▁muor	-5915
▁mäik	-5916
▁ojen	-5917
▁olin	-5918
▁omat	-5919
▁otan	-5920
▁otus	-5921
▁pata	-5922
▁paul	-5923
▁piim	-5924
▁ponn	-5925
▁päre	-5926
▁raat	-5927
▁ruis	-5928
▁samo	-5929
▁summ	-5930
▁syyn	-5931
▁säik	-5932
▁tein	-5933
▁tirk	-5934
▁tois	-5935
▁turp	-5936
▁työs	-5937
▁tähd	-5938
▁vais	-5939
▁valv	-5940
▁viil	-5941
▁ving	-5942
▁vuoh	-5943
▁ylpe	-5944
aamaan	-5945
ahtaen	-5946
annuol	-5947
astiin	-5948
donnut	-5949
ellesi	-5950
elläni	-5951
enässä	-5952
estiin	-5953
ikossa	-5954
impaan	-5955
iseltä	-5956
isevat	-5957
isevia	-5958
isevän	-5959
isistä	-5960
itansa	-5961
ittäen	-5962
itusta	-5963
ivätpä	-5964
jennut	-5965
kealla	-5966
llisia	-5967
llistä	-5968
misten	-5969
mmalta	-5970
muorin	-5971
nemmin	-5972
oiseen	-5973
oratta	-5974
pellon	-5975
puolen	-5976
pääksi	-5977
taanpa	-5978
tasten	-5979
tuunsa	-5980
täällä	-5981
uriita	-5982
urille	-5983
uvassa	-5984
ynällä	-5985
yytyvä	-5986
▁Heitä	-5987
▁Hänpä	-5988
▁Jumal	-5989
▁Kannu	-5990
▁Kiiva	-5991
▁Kilja	-5992
▁Kiusa	-5993
▁Koivi	-5994
▁Kukko	-5995
▁Lapin	-5996
▁Lähte	-5997
▁Malta	-5998
▁Meitä	-5999
▁Metsä	-6000
▁Nousi	-6001
▁Sella	-6002
▁Tietä	-6003
▁Vaikk	-6004
▁Viime	-6005
▁Vähän	-6006
▁armon	-6007
▁asiat	-6008
▁atrio	-6009
▁haamu	-6010
▁haara	-6011
▁huhka	-6012
▁humma	-6013
▁hunsv	-6014
▁huoli	-6015
▁häiri	-6016
▁ihmee	-6017
▁isken	-6018
▁istua	-6019
▁istut	-6020
▁itkeä	-6021
▁jokin	-6022
▁kaapa	-6023
▁kakar	-6024
▁kalta	-6025
▁kannu	-6026
▁kapin	-6027
▁karan	-6028
▁kasta	-6029
▁katum	-6030
▁kello	-6031
▁kivet	-6032
▁kiveä	-6033
▁kodon	-6034
▁koeta	-6035
▁kosto	-6036
▁kurju	-6037
▁kynsi	-6038
▁kysyi	-6039
▁kärme	-6040
▁käypä	-6041
▁latvo	-6042
▁lause	-6043
▁leikk	-6044
▁levot	-6045
▁lihan	-6046
▁linna	-6047
▁löydy	-6048
▁löysi	-6049
▁meren	-6050
▁monin	-6051
▁mulko	-6052
▁mäkeä	-6053
▁mäkiä	-6054
▁mälli	-6055
▁nappa	-6056
▁nauku	-6057
▁nosti	-6058
▁näitä	-6059
▁omaan	-6060
▁onnea	-6061
▁paina	-6062
▁paksu	-6063
▁palaa	-6064
▁panee	-6065
▁parin	-6066
▁pedot	-6067
▁peura	-6068
▁piian	-6069
▁pikiä	-6070
▁pipli	-6071
▁potka	-6072
▁pouta	-6073
▁pöllö	-6074
▁ravin	-6075
▁riihi	-6076
▁räisk	-6077
▁sadat	-6078
▁sakea	-6079
▁sappi	-6080
▁siivo	-6081
▁suoja	-6082
▁surut	-6083
▁sylei	-6084
▁synte	-6085
▁säkki	-6086
▁tulik	-6087
▁tulin	-6088
▁ulkoa	-6089
▁uneen	-6090
▁uusia	-6091
▁vaikk	-6092
▁vaiva	-6093
▁valan	-6094
▁vapaa	-6095
▁verip	-6096
▁villa	-6097
▁väsyn	-6098
astamme	-6099
eltansa	-6100
essänne	-6101
ettyinä	-6102
istunut	-6103
ittelee	-6104
ittävän	-6105
kerroin	-6106
koittaa	-6107
llisten	-6108
mmaista	-6109
oinneet	-6110
oisella	-6111
oisessa	-6112
ollista	-6113
plikaan	-6114
sittain	-6115
tuneena	-6116
uksemme	-6117
urkassa	-6118
ustansa	-6119
utuksen	-6120
uvantai	-6121
veljeni	-6122
yydestä	-6123
ähtivät	-6124
ältänsä	-6125
▁Aapeli	-6126
▁Huomaa	-6127
▁Kiitos	-6128
▁Lukkar	-6129
▁Päivää	-6130
▁Samoin	-6131
▁Sepete	-6132
▁Sieltä	-6133
▁Sinäkö	-6134
▁Sisään	-6135
▁Tahdon	-6136
▁Tuonne	-6137
▁Vaikka	-6138
▁aikaan	-6139
▁aikana	-6140
▁alusta	-6141
▁ampuma	-6142
▁armaat	-6143
▁armoit	-6144
▁asunto	-6145
▁avattu	-6146
▁etsien	-6147
▁haavan	-6148
▁harkit	-6149
▁haudan	-6150
▁hirret	-6151
▁huulet	-6152
▁hämmäs	-6153
▁hänkin	-6154
▁ihanan	-6155
▁ilveks	-6156
▁istuen	-6157
▁joihin	-6158
▁juurta	-6159
▁jyrisi	-6160
▁jälkiä	-6161
▁jäniks	-6162
▁kaataa	-6163
▁kaikua	-6164
▁kaksin	-6165
▁kannan	-6166
▁karjaa	-6167
▁kasken	-6168
▁keikut	-6169
▁keinon	-6170
▁kellot	-6171
▁kestää	-6172
▁kierto	-6173
▁kiväär	-6174
▁kohisi	-6175
▁kohtuu	-6176
▁koiran	-6177
▁koiria	-6178
▁kuivat	-6179
▁kulkee	-6180
▁kuopan	-6181
▁kutsua	-6182
▁kuulin	-6183
▁kuumen	-6184
▁kärsim	-6185
▁käsitä	-6186
▁käyvän	-6187
▁käänsi	-6188
▁laiska	-6189
▁laitum	-6190
▁laulaa	-6191
▁lausuu	-6192
▁lievit	-6193
▁lunttu	-6194
▁maalle	-6195
▁maksoi	-6196
▁metsäs	-6197
▁muille	-6198
▁muodon	-6199
▁mustaa	-6200
▁mustia	-6201
▁muutta	-6202
▁mäelle	-6203
▁naapur	-6204
▁naisen	-6205
▁naudan	-6206
▁nauris	-6207
▁niitut	-6208
▁noiden	-6209
▁nurkan	-6210
▁näinpä	-6211
▁oikean	-6212
▁oletpa	-6213
▁olisin	-6214
▁ometan	-6215
▁omista	-6216
▁otamme	-6217
▁otsaan	-6218
▁pakana	-6219
▁palkin	-6220
▁peljäs	-6221
▁piirin	-6222
▁pimeät	-6223
▁pintaa	-6224
▁pitäen	-6225
▁pohmel	-6226
▁pullis	-6227
▁puolen	-6228
▁raivat	-6229
▁riihen	-6230
▁saatpa	-6231
▁samaan	-6232
▁seinän	-6233
▁seistä	-6234
▁surkea	-6235
▁suurin	-6236
▁syllän	-6237
▁syntiä	-6238
▁syvimm	-6239
▁syvään	-6240
▁syömme	-6241
▁taakse	-6242
▁taidat	-6243
▁tarhan	-6244
▁tehtäv	-6245
▁teillä	-6246
▁teimme	-6247
▁tietoa	-6248
▁toimit	-6249
▁travia	-6250
▁tuhlaa	-6251
▁tuleva	-6252
▁tunten	-6253
▁tuuman	-6254
▁tynnör	-6255
▁tyynen	-6256
▁tähteä	-6257
▁täytti	-6258
▁vaatii	-6259
▁vanhaa	-6260
▁vanhat	-6261
▁varoja	-6262
▁viikon	-6263
▁viipyä	-6264
▁viitta	-6265
▁vilkka	-6266
▁viulun	-6267
▁voiman	-6268
▁vuosia	-6269
▁ylitse	-6270
▁ystävä	-6271
▁äkeänä	-6272
ettavana	-6273
oistansa	-6274
parvella	-6275
poikanen	-6276
ukkainen	-6277
ähtämään	-6278
▁Juhania	-6279
▁Kaiketi	-6280
▁Minähän	-6281
▁Muutoin	-6282
▁Sitähän	-6283
▁Teerimä	-6284
▁Tässäpä	-6285
▁Tästäpä	-6286
▁Vieläpä	-6287
▁aatella	-6288
▁ajoista	-6289
▁allamme	-6290
▁antanut	-6291
▁asioita	-6292
▁einettä	-6293
▁halkoja	-6294
▁harteva	-6295
▁hetkenä	-6296
▁hevosen	-6297
▁hevoset	-6298
▁hevosta	-6299
▁hirveän	-6300
▁huoaten	-6301
▁huutaen	-6302
▁huutain	-6303
▁ilmasta	-6304
▁iloista	-6305
▁irvissä	-6306
▁irvistä	-6307
▁juurien	-6308
▁jälkeen	-6309
▁jätämme	-6310
▁kahdeks	-6311
▁kahteen	-6312
▁kalliin	-6313
▁kantapä	-6314
▁kestiin	-6315
▁kidasta	-6316
▁kiihtyi	-6317
▁kiinteä	-6318
▁kiipesi	-6319
▁kirmais	-6320
▁kirveet	-6321
▁kivestä	-6322
▁klaneet	-6323
▁kuollut	-6324
▁kuormaa	-6325
▁kylkeen	-6326
▁kylläpä	-6327
▁kärmeen	-6328
▁käsissä	-6329
▁kääntyä	-6330
▁levoton	-6331
▁liikkui	-6332
▁mahtava	-6333
▁maistuu	-6334
▁mieleni	-6335
▁muuttaa	-6336
▁myöhään	-6337
▁nojalla	-6338
▁nuotion	-6339
▁nuuskan	-6340
▁nähneet	-6341
▁oliskin	-6342
▁oljilla	-6343
▁osoitti	-6344
▁perusta	-6345
▁pirttiä	-6346
▁poikien	-6347
▁päivään	-6348
▁pääkall	-6349
▁rastiin	-6350
▁raukeni	-6351
▁riippui	-6352
▁rukoile	-6353
▁rämeitä	-6354
▁saadaan	-6355
▁saakoon	-6356
▁saarnaa	-6357
▁samalla	-6358
▁sanonpa	-6359
▁sieraim	-6360
▁sivulle	-6361
▁sorttia	-6362
▁tanssii	-6363
▁tehkäät	-6364
▁temppel	-6365
▁tulessa	-6366
▁tullaan	-6367
▁ummessa	-6368
▁uskomme	-6369
▁uudista	-6370
▁verinen	-6371
▁viritti	-6372
▁vuosien	-6373
▁välille	-6374
▁yhdeksi	-6375
▁ystävät	-6376
ahtelivat	-6377
attomasti	-6378
ellessaan	-6379
feeruksen	-6380
istuneena	-6381
kaltainen	-6382
päiväinen	-6383
▁Kerranpa	-6384
▁Kymmenen	-6385
▁Seunalan	-6386
▁Tuomasta	-6387
▁Tuonelan	-6388
▁aattelee	-6389
▁aattelet	-6390
▁auttanut	-6391
▁ehtineet	-6392
▁etelässä	-6393
▁haaralta	-6394
▁helmasta	-6395
▁hikoilee	-6396
▁hinnalla	-6397
▁hirveätä	-6398
▁hurjasti	-6399
▁hyvääkin	-6400
▁istumaan	-6401
▁itsiänsä	-6402
▁joukossa	-6403
▁kaatanut	-6404
▁kannalta	-6405
▁kielellä	-6406
▁koivisto	-6407
▁kouraani	-6408
▁kouransa	-6409
▁kurkkuun	-6410
▁kynsistä	-6411
▁käytteli	-6412
▁leikissä	-6413
▁luolissa	-6414
▁lähestyä	-6415
▁lähtenyt	-6416
▁maananta	-6417
▁matkusta	-6418
▁menettää	-6419
▁miehellä	-6420
▁minunkin	-6421
▁mustassa	-6422
▁nauriita	-6423
▁nauttien	-6424
▁niinmyös	-6425
▁nurkassa	-6426
▁närkästy	-6427
▁ottamaan	-6428
▁paatunut	-6429
▁pienestä	-6430
▁pimeässä	-6431
▁pohjonen	-6432
▁poikansa	-6433
▁poskensa	-6434
▁puhkaten	-6435
▁punoitta	-6436
▁puolusta	-6437
▁päissään	-6438
▁päiväksi	-6439
▁ratsasti	-6440
▁retkeili	-6441
▁ristissä	-6442
▁sateessa	-6443
▁seisovan	-6444
▁seurassa	-6445
▁sieltäpä	-6446
▁sielunsa	-6447
▁sudentar	-6448
▁suloinen	-6449
▁syntynyt	-6450
▁sysikoij	-6451
▁tahdotte	-6452
▁tahtoisi	-6453
▁tahtonut	-6454
▁taistelo	-6455
▁tappelus	-6456
▁toisella	-6457
▁toivomme	-6458
▁tuimasti	-6459
▁tunkeusi	-6460
▁tyttären	-6461
▁ukkospil	-6462
▁vaatteet	-6463
▁vaipunut	-6464
▁vallassa	-6465
▁vanhasta	-6466
▁vapauden	-6467
▁vietävät	-6468
▁vilpittö	-6469
▁vinhasti	-6470
▁viskatta	-6471
▁vuodeksi	-6472
▁vuorella	-6473
▁vuoresta	-6474
▁yhteinen	-6475
▁yksikään	-6476
▁ylhäällä	-6477
▁Ilvesjärv	-6478
▁Kiivaasti	-6479
▁Käykäämme	-6480
▁Mörökölli	-6481
▁Rupesivat	-6482
▁Sompiosuo	-6483
▁Tehkäämme	-6484
▁Tuossahan	-6485
▁ensinkään	-6486
▁hirmuista	-6487
▁hunsvotti	-6488
▁itsekseen	-6489
▁itsepinta	-6490
▁jälkeensä	-6491
▁jäähyväis	-6492
▁kalupuita	-6493
▁karvainen	-6494
▁katosivat	-6495
▁katsoivat	-6496
▁kerkeästi	-6497
▁kernaasti	-6498
▁keskustel	-6499
▁kiertoili	-6500
▁kirkonkyl	-6501
▁korttelia	-6502
▁kultaista	-6503
▁kuninkaan	-6504
▁lainehtii	-6505
▁muistelee	-6506
▁naamaansa	-6507
▁niskoilla	-6508
▁nukkumaan	-6509
▁parastani	-6510
▁partaalla	-6511
▁paukahtaa	-6512
▁peittivät	-6513
▁pieksivät	-6514
▁provastin	-6515
▁puhaltaen	-6516
▁päältänsä	-6517
▁rakkauden	-6518
▁rinteellä	-6519
▁ruumiinsa	-6520
▁saaliiksi	-6521
▁sellaista	-6522
▁tahtoisin	-6523
▁tehkäämme	-6524
▁tietäkäät	-6525
▁tulisella	-6526
▁tuossahan	-6527
▁tutkistel	-6528
▁täyttivät	-6529
▁uhkeammin	-6530
▁unohdettu	-6531
▁vainiolla	-6532
▁valtainen	-6533
▁valtaisen	-6534
▁vanhimman	-6535
▁velvollis	-6536
▁veressään	-6537
▁viisaasti	-6538
▁viskellen	-6539
▁väkivalta	-6540
▁ympäristö	-6541
▁ystävänsä	-6542
▁ärhenteli	-6543
▁Hämeenlinn	-6544
▁Impivaaraa	-6545
▁Sompiosuon	-6546
▁Viertolaan	-6547
▁hiljaisuus	-6548
▁hulluuksia	-6549
▁jahtivouti	-6550
▁jalallansa	-6551
▁kartanosta	-6552
▁kauhistuen	-6553
▁kiinteästi	-6554
▁kirmasivat	-6555
▁kuullellen	-6556
▁kääntyivät	-6557
▁käärittynä	-6558
▁lämpymässä	-6559
▁mietiskeli	-6560
▁noidannuol	-6561
▁otsaltansa	-6562
▁tavallista	-6563
▁tuommoinen	-6564
▁Frallaralla	-6565
▁Hiidenkiven	-6566
▁Ilvesjärven	-6567
▁Sepeteuksen	-6568
▁ehdittyänsä	-6569
▁ensimmäisen	-6570
▁huohoittaen	-6571
▁huomaamatta	-6572
▁ihmeellinen	-6573
▁kummallista	-6574
▁lapsellensa	-6575
▁muistelivat	-6576
▁nuuskanaama	-6577
▁parveilivat	-6578
▁pelastuksen	-6579
▁peloittavan	-6580
▁polvillensa	-6581
▁puolellamme	-6582
▁silmistänsä	-6583
▁sinkoilivat	-6584
▁tuohikontit	-6585
▁veljeksillä	-6586
▁veljillensä	-6587
▁vihoissansa	-6588
▁äänettömyys	-6589
▁Impivaarasta	-6590
▁kasvoiltansa	-6591
▁kiittäkäämme	-6592
▁kiukkuisesti	-6593
▁koettakaamme	-6594
▁kulkeissansa	-6595
▁mietiskellen	-6596
▁oljentelivat	-6597
▁pullistuivat	-6598
▁päästäksemme	-6599
▁rientäkäämme	-6600
▁seisahtuivat	-6601
▁syljeskellen	-6602
▁varustettuna	-6603
▁Lusifeeruksen	-6604
▁peloittavalla	-6605
▁rallarallalaa	-6606
▁sammaleisella	-6607
▁sammaleisessa	-6608
▁tuijottelivat	-6609
▁kunnioitettava	-6610
HD	-6611
He	-6612
Ku	-6613
On	-6614
TI	-6615
TO	-6616
hn	-6617
my	-6618
▁Ö	-6619
Oli	-6620
akk	-6621
all	-6622
eno	-6623
gel	-6624
iso	-6625
kau	-6626
kra	-6627
kui	-6628
kuo	-6629
kys	-6630
käy	-6631
köt	-6632
lat	-6633
mmh	-6634
mpu	-6635
nia	-6636
orm	-6637
pat	-6638
poh	-6639
pos	-6640
psi	-6641
psä	-6642
pöt	-6643
sar	-6644
ske	-6645
syn	-6646
tio	-6647
tuo	-6648
vot	-6649
yss	-6650
yyh	-6651
ähd	-6652
äng	-6653
äst	-6654
öön	-6655
▁Al	-6656
▁Er	-6657
▁Hu	-6658
▁Lä	-6659
▁Ni	-6660
▁Pu	-6661
▁Ri	-6662
▁au	-6663
▁ij	-6664
▁kn	-6665
▁oj	-6666
▁pl	-6667
▁äh	-6668
Eero	-6669
ISTA	-6670
aamu	-6671
anut	-6672
arit	-6673
atko	-6674
elit	-6675
etki	-6676
etkö	-6677
hana	-6678
heen	-6679
ikel	-6680
ikeä	-6681
ikös	-6682
insä	-6683
intä	-6684
ipeä	-6685
ippa	-6686
isla	-6687
jata	-6688
jona	-6689
juon	-6690
kala	-6691
kama	-6692
kela	-6693
kenä	-6694
kism	-6695
kkui	-6696
kkuu	-6697
kola	-6698
koni	-6699
kuen	-6700
kunn	-6701
kynä	-6702
käli	-6703
käsi	-6704
lais	-6705
llas	-6706
lämä	-6707
maat	-6708
mesi	-6709
mitä	-6710
mmat	-6711
mmea	-6712
mpah	-6713
mppu	-6714
muna	-6715
ojan	-6716
okas	-6717
otus	-6718
pann	-6719
pesä	-6720
ppur	-6721
ppös	-6722
raha	-6723
saat	-6724
sina	-6725
taen	-6726
tall	-6727
tenä	-6728
tisa	-6729
tsin	-6730
ttua	-6731
tynn	-6732
täin	-6733
tänä	-6734
töön	-6735
udat	-6736
udet	-6737
uisa	-6738
ulma	-6739
uloa	-6740
umme	-6741
usko	-6742
utor	-6743
utui	-6744
uuli	-6745
vapa	-6746
ymme	-6747
ysty	-6748
änis	-6749
äntä	-6750
äärä	-6751
ääsy	-6752
öitä	-6753
▁Eni	-6754
▁Kaa	-6755
▁Koh	-6756
▁Kon	-6757
▁Maa	-6758
▁Mer	-6759
▁Noh	-6760
▁Näh	-6761
▁Näl	-6762
▁Pee	-6763
▁Pil	-6764
▁Pir	-6765
▁Sip	-6766
▁Tuh	-6767
▁Yli	-6768
▁eks	-6769
▁etu	-6770
▁haj	-6771
▁hem	-6772
▁him	-6773
▁hoi	-6774
▁hul	-6775
▁hut	-6776
▁ilk	-6777
▁itk	-6778
▁kyt	-6779
▁köy	-6780
▁lau	-6781
▁lep	-6782
▁lop	-6783
▁lot	-6784
▁läs	-6785
▁lör	-6786
▁meh	-6787
▁mua	-6788
▁nel	-6789
▁nyö	-6790
▁olk	-6791
▁oll	-6792
▁olu	-6793
▁paa	-6794
▁pid	-6795
▁pät	-6796
▁rep	-6797
▁rup	-6798
▁sep	-6799
▁soh	-6800
▁syh	-6801
▁toi	-6802
▁ved	-6803
▁äyr	-6804
Juhan	-6805
Kyllä	-6806
Siinä	-6807
aisit	-6808
anoja	-6809
asten	-6810
dossa	-6811
dässä	-6812
eidän	-6813
einsä	-6814
empiä	-6815
eroja	-6816
ettui	-6817
evänä	-6818
htipa	-6819
iekan	-6820
iinsä	-6821
iksiä	-6822
iköön	-6823
imies	-6824
impia	-6825
impiä	-6826
inkul	-6827
innyt	-6828
isikö	-6829
istyy	-6830
itaan	-6831
itkin	-6832
ittäm	-6833
janoo	-6834
juhla	-6835
jänsä	-6836
kaset	-6837
keitä	-6838
kelin	-6839
keltä	-6840
kimme	-6841
kiväl	-6842
kkasi	-6843
kkejä	-6844
kkien	-6845
kkäsi	-6846
kunut	-6847
kyllä	-6848
kästä	-6849
lasku	-6850
makar	-6851
meksi	-6852
mesta	-6853
mmepa	-6854
mähän	-6855
mällä	-6856
mättö	-6857
nettu	-6858
oilta	-6859
oitsi	-6860
oksia	-6861
oliit	-6862
parvi	-6863
passa	-6864
ppiin	-6865
puoli	-6866
pussi	-6867
päätä	-6868
rassa	-6869
rukka	-6870
sista	-6871
tarin	-6872
teera	-6873
telev	-6874
tettä	-6875
tiksi	-6876
tistä	-6877
tolan	-6878
tunsa	-6879
täisi	-6880
uijan	-6881
uista	-6882
ukkua	-6883
uohia	-6884
uonna	-6885
ustaa	-6886
utoja	-6887
uttua	-6888
veina	-6889
vetti	-6890
vissa	-6891
vältä	-6892
vänsä	-6893
äästi	-6894
▁Aata	-6895
▁Ahaa	-6896
▁Että	-6897
▁Haas	-6898
▁Hein	-6899
▁Hemm	-6900
▁Hmmh	-6901
▁Häme	-6902
▁Laul	-6903
▁Laus	-6904
▁Loim	-6905
▁Luul	-6906
▁Mets	-6907
▁Ojan	-6908
▁Ovat	-6909
▁Päin	-6910
▁Ruko	-6911
▁Seur	-6912
▁Siiv	-6913
▁Ukko	-6914
▁Veli	-6915
▁ahne	-6916
▁aivo	-6917
▁alan	-6918
▁arvo	-6919
▁asun	-6920
▁eteh	-6921
▁eväs	-6922
▁heku	-6923
▁hern	-6924
▁heti	-6925
▁hiki	-6926
▁houk	-6927
▁hymy	-6928
▁hyöd	-6929
▁ikäv	-6930
▁iloa	-6931
▁juma	-6932
▁kaha	-6933
▁kara	-6934
▁kava	-6935
▁kesk	-6936
▁kruu	-6937
▁kukk	-6938
▁kuur	-6939
▁kylm	-6940
▁kyrä	-6941
▁kärp	-6942
▁laim	-6943
▁lann	-6944
▁leks	-6945
▁lepp	-6946
▁liem	-6947
▁liin	-6948
▁liiv	-6949
▁liki	-6950
▁liuk	-6951
▁luih	-6952
▁luki	-6953
▁luod	-6954
▁lyyh	-6955
▁maar	-6956
▁maja	-6957
▁mela	-6958
▁meno	-6959
▁muin	-6960
▁muta	-6961
▁muun	-6962
▁myll	-6963
▁naar	-6964
▁nenä	-6965
▁noki	-6966
▁nuhd	-6967
▁nysä	-6968
▁näre	-6969
▁ompi	-6970
▁oppi	-6971
▁oras	-6972
▁orhi	-6973
▁otsi	-6974
▁otso	-6975
▁palk	-6976
▁piha	-6977
▁pilv	-6978
▁prof	-6979
▁puhu	-6980
▁puja	-6981
▁puuk	-6982
▁pääk	-6983
▁pöyh	-6984
▁raja	-6985
▁rema	-6986
▁riis	-6987
▁risu	-6988
▁ruki	-6989
▁ryys	-6990
▁röyh	-6991
▁selv	-6992
▁sepä	-6993
▁seud	-6994
▁siev	-6995
▁sila	-6996
▁soim	-6997
▁sotk	-6998
▁sumu	-6999
▁säpä	-7000
▁tait	-7001
▁teuh	-7002
▁tieh	-7003
▁tiim	-7004
▁tina	-7005
▁tosi	-7006
▁tytö	-7007
▁töyr	-7008
▁ukon	-7009
▁ulja	-7010
▁vahv	-7011
▁vasa	-7012
▁veti	-7013
▁vien	-7014
▁virs	-7015
▁vuos	-7016
▁väki	-7017
Jumala	-7018
TOISTA	-7019
atonta	-7020
empaan	-7021
empänä	-7022
enivat	-7023
hallit	-7024
htivat	-7025
ikkoja	-7026
ikoksi	-7027
illesi	-7028
inensä	-7029
inneet	-7030
isarja	-7031
isissä	-7032
kannut	-7033
keillä	-7034
kemmin	-7035
kemään	-7036
kiitos	-7037
kkarit	-7038
kkinsa	-7039
kkinsä	-7040
kkisen	-7041
koitta	-7042
kuansa	-7043
laiset	-7044
leissa	-7045
llähän	-7046
llänsä	-7047
maalla	-7048
mattom	-7049
mistui	-7050
mmalle	-7051
mmassa	-7052
mmiten	-7053
moisen	-7054
myrsky	-7055
neistä	-7056
oinkin	-7057
pannun	-7058
päinen	-7059
taaksi	-7060
taalla	-7061
teella	-7062
teinen	-7063
tellut	-7064
tumaan	-7065
töminä	-7066
udassa	-7067
ukasta	-7068
ukkari	-7069
ukkoja	-7070
ukkoni	-7071
usivat	-7072
utusta	-7073
uuteen	-7074
änneet	-7075
öökinä	-7076
▁Astui	-7077
▁Eteen	-7078
▁Ethän	-7079
▁Hirve	-7080
▁Huuta	-7081
▁Häntä	-7082
▁Ilman	-7083
▁Kotia	-7084
▁Kuule	-7085
▁Minun	-7086
▁Pauka	-7087
▁Peija	-7088
▁Ymmär	-7089
▁aalto	-7090
▁aidan	-7091
▁armot	-7092
▁ehtii	-7093
▁eläin	-7094
▁hatta	-7095
▁heleä	-7096
▁hieno	-7097
▁hikeä	-7098
▁hinka	-7099
▁hohti	-7100
▁huhta	-7101
▁huima	-7102
▁humal	-7103
▁huono	-7104
▁huuda	-7105
▁hävyt	-7106
▁ikänä	-7107
▁ilmaa	-7108
▁iloit	-7109
▁ilole	-7110
▁iltaa	-7111
▁iskee	-7112
▁iskeä	-7113
▁jatka	-7114
▁jyske	-7115
▁jälki	-7116
▁järvi	-7117
▁kalua	-7118
▁kanan	-7119
▁karsi	-7120
▁kasar	-7121
▁katse	-7122
▁katti	-7123
▁keksi	-7124
▁kella	-7125
▁kiell	-7126
▁kihla	-7127
▁kiire	-7128
▁kilka	-7129
▁kiroo	-7130
▁kuisk	-7131
▁kummi	-7132
▁kurkk	-7133
▁kuuta	-7134
▁kyliä	-7135
▁kylki	-7136
▁kylvi	-7137
▁käske	-7138
▁kätkö	-7139
▁kättä	-7140
▁käytö	-7141
▁lalla	-7142
▁lauka	-7143
▁leimu	-7144
▁leveä	-7145
▁lieha	-7146
▁liina	-7147
▁lilli	-7148
▁lintu	-7149
▁louna	-7150
▁lunta	-7151
▁luola	-7152
▁löyty	-7153
▁maini	-7154
▁massa	-7155
▁menen	-7156
▁menoa	-7157
▁minne	-7158
▁mitta	-7159
▁multa	-7160
▁mörää	-7161
▁nakut	-7162
▁nopea	-7163
▁nouse	-7164
▁olkia	-7165
▁ometa	-7166
▁omien	-7167
▁opeta	-7168
▁perus	-7169
▁pidät	-7170
▁pihan	-7171
▁pihla	-7172
▁piimä	-7173
▁piipp	-7174
▁pikim	-7175
▁pilvi	-7176
▁porti	-7177
▁pulle	-7178
▁puuha	-7179
▁puuta	-7180
▁pyynn	-7181
▁pyöri	-7182
▁päitä	-7183
▁rikko	-7184
▁rohti	-7185
▁rotat	-7186
▁rupes	-7187
▁ryysy	-7188
▁saada	-7189
▁saatu	-7190
▁saipa	-7191
▁salli	-7192
▁samaa	-7193
▁sijaa	-7194
▁sille	-7195
▁sisar	-7196
▁siuna	-7197
▁soita	-7198
▁suksi	-7199
▁suope	-7200
▁syödä	-7201
▁takan	-7202
▁takki	-7203
▁tanss	-7204
▁toime	-7205
▁tunne	-7206
▁turpe	-7207
▁tytön	-7208
▁tälle	-7209
▁uumen	-7210
▁vahva	-7211
▁valeh	-7212
▁valko	-7213
▁vanke	-7214
▁varaa	-7215
▁varka	-7216
▁varma	-7217
▁varro	-7218
▁veits	-7219
▁vihaa	-7220
▁viile	-7221
▁vissi	-7222
▁viulu	-7223
▁voisi	-7224
▁vouti	-7225
▁vuoro	-7226
▁vähen	-7227
▁ällis	-7228
▁ämmiä	-7229
▁äyriä	-7230
▁ääret	-7231
astella	-7232
eleppas	-7233
ellistä	-7234
emmäksi	-7235
eskelee	-7236
ettuina	-7237
gahteli	-7238
ikkinen	-7239
ikoissa	-7240
isemaan	-7241
iskumma	-7242
issämme	-7243
istelet	-7244
istella	-7245
istuisi	-7246
jetessa	-7247
jettiin	-7248
kaisten	-7249
kkaalla	-7250
kkiansa	-7251
miehenä	-7252
misensä	-7253
mppania	-7254
niskoin	-7255
oitamme	-7256
oitansa	-7257
ottivat	-7258
pajassa	-7259
päisinä	-7260
taanpas	-7261
taivaan	-7262
telikin	-7263
tettuja	-7264
tisauva	-7265
tyneinä	-7266
vetuloa	-7267
yksensä	-7268
yksessä	-7269
ähtelee	-7270
äleipää	-7271
ätysten	-7272
▁Heisaa	-7273
▁Jassoo	-7274
▁Kahden	-7275
▁Kahvia	-7276
▁Katsel	-7277
▁Kirkas	-7278
▁Kirous	-7279
▁Olisko	-7280
▁Olivat	-7281
▁Riennä	-7282
▁Seuraa	-7283
▁Taivas	-7284
▁Tuskin	-7285
▁Täytyy	-7286
▁Ympäri	-7287
▁aattel	-7288
▁aholta	-7289
▁ajaksi	-7290
▁ammuin	-7291
▁arveli	-7292
▁asetus	-7293
▁askare	-7294
▁auttaa	-7295
▁edesta	-7296
▁elikon	-7297
▁elikot	-7298
▁enkeli	-7299
▁erästä	-7300
▁eukkoa	-7301
▁hallan	-7302
▁heiniä	-7303
▁heinää	-7304
▁heitto	-7305
▁heitän	-7306
▁hillit	-7307
▁hirren	-7308
▁hirsiä	-7309
▁hirviö	-7310
▁hohtaa	-7311
▁hullut	-7312
▁huolet	-7313
▁huudon	-7314
▁hyppel	-7315
▁hyyrte	-7316
▁hyötyä	-7317
▁häijyn	-7318
▁häiriö	-7319
▁häissä	-7320
▁hälinä	-7321
▁häneen	-7322
▁ilmoja	-7323
▁iskuja	-7324
▁istuim	-7325
▁istuin	-7326
▁isämme	-7327
▁itkien	-7328
▁itkuun	-7329
▁jaarit	-7330
▁johdat	-7331
▁joilla	-7332
▁joutsi	-7333
▁juuret	-7334
▁jyrkän	-7335
▁järkeä	-7336
▁kahvin	-7337
▁kaisla	-7338
▁kalvea	-7339
▁kamppa	-7340
▁karkel	-7341
▁kasvan	-7342
▁kasvoi	-7343
▁keikku	-7344
▁kellas	-7345
▁kellen	-7346
▁kenkät	-7347
▁kiehui	-7348
▁kiljun	-7349
▁kiltaa	-7350
▁kipenä	-7351
▁kiukaa	-7352
▁kohaus	-7353
▁koitti	-7354
▁korjaa	-7355
▁kosken	-7356
▁koston	-7357
▁kruunu	-7358
▁kuiska	-7359
▁kuivaa	-7360
▁kukkas	-7361
▁kullan	-7362
▁kummia	-7363
▁kunkin	-7364
▁kuorma	-7365
▁kurjet	-7366
▁kuuhun	-7367
▁kylmän	-7368
▁kylmää	-7369
▁kyseli	-7370
▁kysyen	-7371
▁kyynär	-7372
▁käsiin	-7373
▁käskis	-7374
▁kävisi	-7375
▁käyvät	-7376
▁lakais	-7377
▁lating	-7378
▁liekin	-7379
▁linnun	-7380
▁loista	-7381
▁loukku	-7382
▁luokse	-7383
▁lähtee	-7384
▁matala	-7385
▁matkus	-7386
▁meihin	-7387
▁merkit	-7388
▁metsää	-7389
▁minäkö	-7390
▁mullis	-7391
▁murhaa	-7392
▁murtui	-7393
▁myyrän	-7394
▁myöden	-7395
▁määrää	-7396
▁nalkut	-7397
▁nautaa	-7398
▁neidon	-7399
▁niiden	-7400
▁nostaa	-7401
▁nummea	-7402
▁nuuska	-7403
▁näemme	-7404
▁näette	-7405
▁näiden	-7406
▁näillä	-7407
▁näimme	-7408
▁näytän	-7409
▁olevan	-7410
▁oltiin	-7411
▁ontuen	-7412
▁osaksi	-7413
▁ovesta	-7414
▁paeten	-7415
▁paikka	-7416
▁painoi	-7417
▁pakola	-7418
▁pamppa	-7419
▁parane	-7420
▁parann	-7421
▁pauhaa	-7422
▁peikon	-7423
▁piimää	-7424
▁piteli	-7425
▁pitkät	-7426
▁poistu	-7427
▁poltti	-7428
▁putosi	-7429
▁puuttu	-7430
▁päreen	-7431
▁päämme	-7432
▁pääsem	-7433
▁pöllyä	-7434
▁raikas	-7435
▁raitis	-7436
▁riemun	-7437
▁roiska	-7438
▁ruoska	-7439
▁ryöhää	-7440
▁rähinä	-7441
▁samana	-7442
▁sarven	-7443
▁sarvet	-7444
▁sekaan	-7445
▁siirty	-7446
▁sijaan	-7447
▁silmäs	-7448
▁sonnin	-7449
▁suohon	-7450
▁suojel	-7451
▁suolaa	-7452
▁surman	-7453
▁syltää	-7454
▁syntyy	-7455
▁söivät	-7456
▁taakka	-7457
▁talluk	-7458
▁tanner	-7459
▁taskus	-7460
▁tavoin	-7461
▁teeren	-7462
▁tehden	-7463
▁temppu	-7464
▁tempun	-7465
▁tervaa	-7466
▁tiemme	-7467
▁toimen	-7468
▁torkku	-7469
▁tunnen	-7470
▁tuomio	-7471
▁tupakk	-7472
▁tuskaa	-7473
▁tuuhea	-7474
▁tyhjen	-7475
▁tyttön	-7476
▁töissä	-7477
▁tömisi	-7478
▁uhkean	-7479
▁vaaran	-7480
▁vaelsi	-7481
▁vainon	-7482
▁vapisi	-7483
▁vartoa	-7484
▁veitsi	-7485
▁viltti	-7486
▁vinkuu	-7487
▁voimat	-7488
▁voimia	-7489
▁vuohip	-7490
▁vuotei	-7491
▁välttä	-7492
ellyksen	-7493
istuksen	-7494
ittämään	-7495
ittäneet	-7496
keltänsä	-7497
kistelee	-7498
llisessa	-7499
llisesta	-7500
mattoman	-7501
mieheksi	-7502
mmäisenä	-7503
oittivat	-7504
poikaset	-7505
tornissa	-7506
▁Enemmin	-7507
▁Kaukana	-7508
▁Kiiskin	-7509
▁Luhtani	-7510
▁Milloin	-7511
▁Ojaniit	-7512
▁Olethan	-7513
▁Peeveli	-7514
▁Rukoile	-7515
▁Selkään	-7516
▁Sinnepä	-7517
▁Tehkäät	-7518
▁Tyytyvä	-7519
▁aamulla	-7520
▁akkansa	-7521
▁annettu	-7522
▁armahin	-7523
▁armoton	-7524
▁asiamme	-7525
▁asiassa	-7526
▁eivätkä	-7527
▁eivätpä	-7528
▁emännän	-7529
▁enimmin	-7530
▁etelään	-7531
▁haamuna	-7532
▁haavoit	-7533
▁haavoja	-7534
▁harakan	-7535
▁harkita	-7536
▁hedelmä	-7537
▁hehkuva	-7538
▁helmeil	-7539
▁helähti	-7540
▁hillits	-7541
▁hillitä	-7542
▁hirteen	-7543
▁hiuskar	-7544
▁hulluja	-7545
▁huoneet	-7546
▁hymyten	-7547
▁härkäli	-7548
▁iloisia	-7549
▁itsemme	-7550
▁itseäsi	-7551
▁jalosti	-7552
▁juoksee	-7553
▁juoksua	-7554
▁juotiin	-7555
▁kaiveli	-7556
▁kanssas	-7557
▁kanteen	-7558
▁kanteli	-7559
▁karkoit	-7560
▁katajan	-7561
▁katrill	-7562
▁katsahd	-7563
▁keräjän	-7564
▁kiekkoa	-7565
▁kiiltää	-7566
▁kirjava	-7567
▁kohtuus	-7568
▁kovempi	-7569
▁kuiskaa	-7570
▁kuloval	-7571
▁kuohuva	-7572
▁kuoppaa	-7573
▁kuorman	-7574
▁kuritus	-7575
▁kylissä	-7576
▁kädellä	-7577
▁kärmeet	-7578
▁kärsivä	-7579
▁käskien	-7580
▁käyttää	-7581
▁laajeni	-7582
▁laaksot	-7583
▁lenteli	-7584
▁lähetti	-7585
▁markkin	-7586
▁marssii	-7587
▁mitähän	-7588
▁muistan	-7589
▁myrskyä	-7590
▁märehti	-7591
▁naapuri	-7592
▁naimaan	-7593
▁neuvoja	-7594
▁niittua	-7595
▁näyttää	-7596
▁ottanut	-7597
▁ottivat	-7598
▁paistaa	-7599
▁pallero	-7600
▁pantiin	-7601
▁peittää	-7602
▁permann	-7603
▁pitäjän	-7604
▁pitäjää	-7605
▁pohjaan	-7606
▁poistaa	-7607
▁povella	-7608
▁povensa	-7609
▁priiska	-7610
▁pykälää	-7611
▁pyrkien	-7612
▁pyörään	-7613
▁ratkais	-7614
▁ravisti	-7615
▁rikkaan	-7616
▁riutuva	-7617
▁rohkeni	-7618
▁saaliin	-7619
▁saarnan	-7620
▁sankari	-7621
▁sanonut	-7622
▁sanotte	-7623
▁santaan	-7624
▁seinään	-7625
▁sekamel	-7626
▁sinäkin	-7627
▁sitähän	-7628
▁synnyin	-7629
▁syrjään	-7630
▁syömään	-7631
▁sälähti	-7632
▁tarhaan	-7633
▁tehtiin	-7634
▁tehtävä	-7635
▁tekisin	-7636
▁tekivät	-7637
▁tempaus	-7638
▁temppua	-7639
▁toisenm	-7640
▁totinen	-7641
▁tulelle	-7642
▁tulisia	-7643
▁tulista	-7644
▁tuomion	-7645
▁tuuleen	-7646
▁tuumisk	-7647
▁tuvasta	-7648
▁työsken	-7649
▁täyttää	-7650
▁unohtaa	-7651
▁uskalta	-7652
▁vaeltaa	-7653
▁vaikene	-7654
▁vainosi	-7655
▁valkeat	-7656
▁valkeus	-7657
▁valmiit	-7658
▁valossa	-7659
▁verensä	-7660
▁veristä	-7661
▁vieköön	-7662
▁viettää	-7663
▁viinaan	-7664
▁virtana	-7665
▁vissiin	-7666
▁väristy	-7667
▁väsynyt	-7668
▁ymmärtä	-7669
▁äläppäs	-7670
▁äänettä	-7671
ettäväksi	-7672
inoastaan	-7673
miestensä	-7674
psuttelee	-7675
telisimme	-7676
▁Ahkeruus	-7677
▁Annappas	-7678
▁Astuivat	-7679
▁Heleijaa	-7680
▁Koreasti	-7681
▁Peijakas	-7682
▁Siivosti	-7683
▁Sompioni	-7684
▁Tahdonpa	-7685
▁aatokset	-7686
▁aattelen	-7687
▁aattelin	-7688
▁aikeissa	-7689
▁antakoon	-7690
▁astellen	-7691
▁astukaat	-7692
▁avarassa	-7693
▁avioliit	-7694
▁edessäni	-7695
▁elämänsä	-7696
▁etehemme	-7697
▁haukunta	-7698
▁hellitti	-7699
▁helvetti	-7700
▁hienolla	-7701
▁hongisto	-7702
▁huhdassa	-7703
▁huomassa	-7704
▁huonetta	-7705
▁härjistä	-7706
▁höyryävä	-7707
▁iloiseen	-7708
▁iloisena	-7709
▁iloisina	-7710
▁ilveksen	-7711
▁johdatti	-7712
▁jokaisen	-7713
▁joltisen	-7714
▁juovutta	-7715
▁jäljestä	-7716
▁jättänyt	-7717
▁kadonnut	-7718
▁kaikesta	-7719
▁kaikille	-7720
▁kammarin	-7721
▁kannalla	-7722
▁kannesta	-7723
▁kanssani	-7724
▁karsivat	-7725
▁kartanon	-7726
▁katselee	-7727
▁kauhistu	-7728
▁kaunista	-7729
▁keksinyt	-7730
▁kerralla	-7731
▁kerranpa	-7732
▁kerrotta	-7733
▁keskiväl	-7734
▁kipeästi	-7735
▁kirkasta	-7736
▁koetamme	-7737
▁koivutor	-7738
▁kontissa	-7739
▁kortteer	-7740
▁kuivalla	-7741
▁kulkivat	-7742
▁kulmakar	-7743
▁kumartui	-7744
▁kuolleen	-7745
▁kuranssa	-7746
▁kutsuttu	-7747
▁käsittää	-7748
▁käskemme	-7749
▁käteensä	-7750
▁latvasta	-7751
▁lausuili	-7752
▁liikettä	-7753
▁loimotti	-7754
▁lyyhyssä	-7755
▁löylytys	-7756
▁maksamme	-7757
▁meitäkin	-7758
▁mielestä	-7759
▁mieluisa	-7760
▁muistele	-7761
▁muisteli	-7762
▁murhetta	-7763
▁muutakin	-7764
▁myristen	-7765
▁määrätty	-7766
▁neitonen	-7767
▁neitosen	-7768
▁niskasta	-7769
▁nouskoon	-7770
▁nummelle	-7771
▁nuorempi	-7772
▁nurkkaan	-7773
▁oikeinpa	-7774
▁oikeutta	-7775
▁olisivat	-7776
▁paikkaan	-7777
▁painissa	-7778
▁parvelle	-7779
▁pasteera	-7780
▁peeveliä	-7781
▁peninkul	-7782
▁pienistä	-7783
▁pimeyden	-7784
▁pitäneet	-7785
▁polttama	-7786
▁puolelta	-7787
▁purjehti	-7788
▁pyyntiin	-7789
▁pöydällä	-7790
▁raamatun	-7791
▁raikasta	-7792
▁ratasten	-7793
▁retkelle	-7794
▁rupeemme	-7795
▁saisimme	-7796
▁satamaan	-7797
▁seuraava	-7798
▁sielumme	-7799
▁sieppasi	-7800
▁siivosti	-7801
▁sijaansa	-7802
▁sovintoa	-7803
▁suuntaan	-7804
▁sydämesi	-7805
▁säteilee	-7806
▁tahtonsa	-7807
▁tallukka	-7808
▁tekeillä	-7809
▁tempusta	-7810
▁tiesivät	-7811
▁tuimalla	-7812
▁tuntenut	-7813
▁tuoreita	-7814
▁tyttöjen	-7815
▁tässähän	-7816
▁täydessä	-7817
▁varoitan	-7818
▁varrella	-7819
▁vastakyn	-7820
▁vihainen	-7821
▁vihaisen	-7822
▁vilpitön	-7823
▁yhtäkään	-7824
▁Ahkerasti	-7825
▁Eteenpäin	-7826
▁Härkämäen	-7827
▁Jumalalle	-7828
▁Katsokaat	-7829
▁Kernaasti	-7830
▁Koiviston	-7831
▁Muistanpa	-7832
▁Olemmehan	-7833
▁Tultuansa	-7834
▁Tuollahan	-7835
▁askarteli	-7836
▁eriskumma	-7837
▁haastelit	-7838
▁haltuunsa	-7839
▁herraansa	-7840
▁hevosensa	-7841
▁hikoillen	-7842
▁huohoitta	-7843
▁härjänvuo	-7844
▁ilkivalta	-7845
▁ilmoittaa	-7846
▁itseäskin	-7847
▁jatkoivat	-7848
▁jätettiin	-7849
▁kaattuvan	-7850
▁kahdeksan	-7851
▁kanssapuh	-7852
▁kantoisen	-7853
▁kasakoita	-7854
▁kauankaan	-7855
▁kauheasti	-7856
▁kaulaansa	-7857
▁kertoilee	-7858
▁kiiriskel	-7859
▁kivisellä	-7860
▁koivuinen	-7861
▁kouraansa	-7862
▁kulkemaan	-7863
▁kultaisen	-7864
▁kunnialla	-7865
▁kuolemaan	-7866
▁kuorsaten	-7867
▁kuusiston	-7868
▁laskemaan	-7869
▁laskiessa	-7870
▁laskuansa	-7871
▁lauvantai	-7872
▁lempeästi	-7873
▁lähteköön	-7874
▁matkuetta	-7875
▁merkitsee	-7876
▁mielineet	-7877
▁miellytti	-7878
▁mieltänsä	-7879
▁mietiskel	-7880
▁muuttunut	-7881
▁mälliänsä	-7882
▁männistön	-7883
▁nähtyänsä	-7884
▁olemmehan	-7885
▁pataljoon	-7886
▁pieksiäis	-7887
▁pienempiä	-7888
▁pimeyteen	-7889
▁pohjoseen	-7890
▁porstuvan	-7891
▁provastia	-7892
▁puhtaaksi	-7893
▁puoleensa	-7894
▁puplikaan	-7895
▁puuttunut	-7896
▁ravisteli	-7897
▁rinnoilla	-7898
▁rykmentin	-7899
▁sanottiin	-7900
▁sovintoon	-7901
▁syleillen	-7902
▁syntymäko	-7903
▁taistelon	-7904
▁taivaalla	-7905
▁taivaalle	-7906
▁tarkemmin	-7907
▁tarttunut	-7908
▁tekisimme	-7909
▁terveisiä	-7910
▁testament	-7911
▁tiedetään	-7912
▁toistansa	-7913
▁toivoivat	-7914
▁tunnustan	-7915
▁ulvominen	-7916
▁unestansa	-7917
▁vaelsivat	-7918
▁valkeutta	-7919
▁vartoivat	-7920
▁velisarja	-7921
▁vuoteella	-7922
▁välähteli	-7923
▁Ottakaamme	-7924
▁arvelemaan	-7925
▁ehdittyään	-7926
▁hirvittävä	-7927
▁jokaisella	-7928
▁järkevästi	-7929
▁kaikkialla	-7930
▁kaikkialta	-7931
▁kaikuvalla	-7932
▁katkerasti	-7933
▁kauhistava	-7934
▁kaulukseen	-7935
▁kellenkään	-7936
▁kodostansa	-7937
▁koirinensa	-7938
▁kulkemahan	-7939
▁kummastuen	-7940
▁kunnioiksi	-7941
▁kurjuuteen	-7942
▁kurkkuansa	-7943
▁kutsuttiin	-7944
▁kysymyksen	-7945
▁kärsimystä	-7946
▁käyskellen	-7947
▁leimahteli	-7948
▁lentelivät	-7949
▁luonnistui	-7950
▁maantiellä	-7951
▁muistuttaa	-7952
▁odottamaan	-7953
▁onnettomat	-7954
▁paisteessa	-7955
▁pattisauva	-7956
▁pauhinalla	-7957
▁pirttiinsä	-7958
▁porstuvaan	-7959
▁povessansa	-7960
▁puolestani	-7961
▁päätettiin	-7962
▁päättäneet	-7963
▁saattoivat	-7964
▁salaisesti	-7965
▁sananlasku	-7966
▁suuriakaan	-7967
▁sydäntänsä	-7968
▁syvimmässä	-7969
▁säpäleiksi	-7970
▁talossansa	-7971
▁tanssitaan	-7972
▁tervetuloa	-7973
▁tuijotteli	-7974
▁tyttärensä	-7975
▁tämänkalta	-7976
▁vastauksen	-7977
▁veistellen	-7978
▁viimeinkin	-7979
▁virsikirja	-7980
▁ymmärtänyt	-7981
▁Ensimmäinen	-7982
▁Lähtekäämme	-7983
▁Viertolasta	-7984
▁aapiskirjan	-7985
▁ehtoollisen	-7986
▁harjoitella	-7987
▁hellittänyt	-7988
▁härjänlihaa	-7989
▁ihmislapsen	-7990
▁jalkapuussa	-7991
▁juhlallinen	-7992
▁katsantonsa	-7993
▁katselemaan	-7994
▁kenkätuohia	-7995
▁kipenöitsee	-7996
▁kirkonkylää	-7997
▁kummallisen	-7998
▁kuumuudessa	-7999
▁levähtämään	-8000
▁liikkumatta	-8001
▁maanantaina	-8002
▁merkillinen	-8003
▁männistössä	-8004
▁oikeammiten	-8005
▁pisaraakaan	-8006
▁rauhaisesti	-8007
▁reikäleipää	-8008
▁retkillänsä	-8009
▁rinnallansa	-8010
▁saapasnahka	-8011
▁seitsemästä	-8012
▁sydänmaassa	-8013
▁tappeluksen	-8014
▁toivokaamme	-8015
▁tuijotellen	-8016
▁tulimmaista	-8017
▁tuumiskelin	-8018
▁valtakunnan	-8019
▁viimeiseksi	-8020
▁viinapannun	-8021
▁Äänettöminä	-8022
▁Vuohenkalman	-8023
▁edestakaisin	-8024
▁ensimmäisenä	-8025
▁kahdenpuolen	-8026
▁kirveellänsä	-8027
▁luontokappal	-8028
▁paitasillaan	-8029
▁tarkoitukses	-8030
▁tunnustuksen	-8031
▁veljeksetkin	-8032
▁viskattakoon	-8033
▁voimakkaasti	-8034
▁vuoteillensa	-8035
▁ympärillämme	-8036
▁alakuloisesti	-8037
▁huoneenhallit	-8038
▁ijankaikkinen	-8039
▁kolmekymmentä	-8040
▁tuumiskelivat	-8041
▁kaukaisuudessa	-8042
▁matkaansaattaa	-8043
▁saarnastuoliin	-8044
▁ijankaikkiseksi	-8045
▁äänettömyydessä	-8046
'!	-8047
':	-8048
';	-8049
.»	-8050
18	-8051
IK	-8052
Ko	-8053
OL	-8054
Tä	-8055
Vi	-8056
ed	-8057
hu	-8058
om	-8059
»;	-8060
ÄS	-8061
▁C	-8062
Eer	-8063
IIK	-8064
aat	-8065
ano	-8066
ars	-8067
dat	-8068
ela	-8069
eri	-8070
eät	-8071
här	-8072
iha	-8073
ihä	-8074
ilä	-8075
imu	-8076
kap	-8077
kes	-8078
kor	-8079
kön	-8080
lin	-8081
lää	-8082
mua	-8083
oku	-8084
opp	-8085
pii	-8086
pis	-8087
piv	-8088
pol	-8089
puu	-8090
rie	-8091
sal	-8092
sen	-8093
son	-8094
tes	-8095
tsa	-8096
tty	-8097
uij	-8098
uot	-8099
rus	-8100
uto	-8101
▁18	-8102
▁Jy	-8103
▁Le	-8104
▁Li	-8105
▁yr	-8106
▁öl	-8107
.--»	-8108
IIKA	-8109
Myös	-8110
OUTI	-8111
Tämä	-8112
Yksi	-8113
aari	-8114
aava	-8115
aita	-8116
asin	-8117
assi	-8118
eepa	-8119
eesi	-8120
eeta	-8121
ehan	-8122
ehnä	-8123
elen	-8124
enko	-8125
erro	-8126
evar	-8127
evos	-8128
hapö	-8129
hasi	-8130
iaan	-8131
iasi	-8132
ihky	-8133
ikas	-8134
ilem	-8135
ilin	-8136
imet	-8137
imia	-8138
imur	-8139
inna	-8140
innä	-8141
inän	-8142
inää	-8143
ipas	-8144
isky	-8145
iskö	-8146
itet	-8147
iton	-8148
ivaa	-8149
joja	-8150
joka	-8151
juun	-8152
juur	-8153
juus	-8154
kele	-8155
keri	-8156
kkoa	-8157
kmän	-8158
koir	-8159
ksan	-8160
ksiä	-8161
kuon	-8162
kuri	-8163
kuts	-8164
kysi	-8165
käni	-8166
käyt	-8167
lean	-8168
leet	-8169
llaa	-8170
llia	-8171
maha	-8172
mari	-8173
mene	-8174
mikä	-8175
mina	-8176
mmia	-8177
mmän	-8178
muor	-8179
neen	-8180
okka	-8181
oksa	-8182
onin	-8183
onka	-8184
otee	-8185
oten	-8186
pain	-8187
pall	-8188
pana	-8189
peli	-8190
perä	-8191
ppyä	-8192
puja	-8193
pääs	-8194
rame	-8195
rata	-8196
retk	-8197
riko	-8198
räss	-8199
jy	-8200
Ken	-8201
kio	-8202
kuk	-8203
mäs	-8204
ppo	-8205
tol	-8206
uku	-8207
asto	-8208
elli	-8209
itän	-8210
saan	-8211
saar	-8212
sika	-8213
sikä	-8214
talo	-8215
taut	-8216
teja	-8217
tias	-8218
tija	-8219
tyen	-8220
ukat	-8221
ukij	-8222
uone	-8223
uran	-8224
uret	-8225
utan	-8226
utte	-8227
utua	-8228
uuda	-8229
uuna	-8230
uuni	-8231
uuti	-8232
vier	-8233
vita	-8234
yhkä	-8235
ynti	-8236
örri	-8237
▁Aih	-8238
▁Ell	-8239
▁Hen	-8240
▁Her	-8241
▁Hih	-8242
▁Huo	-8243
▁Ilo	-8244
▁KOL	-8245
▁Kel	-8246
▁Kyl	-8247
▁Kys	-8248
▁Kät	-8249
▁Las	-8250
▁Mat	-8251
▁Mus	-8252
▁Nah	-8253
▁Pie	-8254
▁Pot	-8255
▁Pro	-8256
▁Sav	-8257
▁Vah	-8258
▁Veh	-8259
▁Ver	-8260
▁Vie	-8261
▁Vit	-8262
▁Väl	-8263
▁ase	-8264
▁ets	-8265
▁hos	-8266
▁hyr	-8267
▁hää	-8268
▁inn	-8269
▁jan	-8270
▁juu	-8271
▁kap	-8272
▁lii	-8273
▁luj	-8274
▁mal	-8275
▁mos	-8276
▁myt	-8277
▁mäs	-8278
▁möl	-8279
▁nen	-8280
▁nes	-8281
▁nip	-8282
▁not	-8283
▁nup	-8284
▁nut	-8285
▁nyk	-8286
▁nys	-8287
▁ola	-8288
▁ped	-8289
▁pei	-8290
▁ros	-8291
▁run	-8292
▁rut	-8293
▁ryt	-8294
▁sik	-8295
▁som	-8296
▁tih	-8297
▁tör	-8298
▁uut	-8299
kot	-8300
num	-8301
▁Lö	-8302
▁Su	-8303
hous	-8304
klan	-8305
kula	-8306
sarv	-8307
▁Ais	-8308
▁Isä	-8309
▁ime	-8310
▁nil	-8311
▁poi	-8312
▁vyö	-8313
▁äyh	-8314
Matti	-8315
Poika	-8316
Tässä	-8317
aampi	-8318
anner	-8319
anpas	-8320
asena	-8321
aurin	-8322
dente	-8323
dämme	-8324
dänpä	-8325
eissä	-8326
eksän	-8327
elias	-8328
emman	-8329
emäis	-8330
entta	-8331
esman	-8332
ettun	-8333
halla	-8334
halle	-8335
hassa	-8336
hasta	-8337
ialle	-8338
ileva	-8339
illan	-8340
illit	-8341
ilman	-8342
iloon	-8343
imieh	-8344
impaa	-8345
inaat	-8346
inoma	-8347
isipa	-8348
iskon	-8349
iskut	-8350
istan	-8351
istit	-8352
itsas	-8353
jalta	-8354
jooni	-8355
jästä	-8356
kalut	-8357
kammi	-8358
kasaa	-8359
katti	-8360
katto	-8361
keaan	-8362
kehti	-8363
keina	-8364
kelän	-8365
kierr	-8366
killä	-8367
kista	-8368
kistä	-8369
kiven	-8370
kkeil	-8371
kkini	-8372
kkona	-8373
kkuna	-8374
kkänä	-8375
konne	-8376
ksesi	-8377
kurin	-8378
kynen	-8379
kyssä	-8380
kästi	-8381
köhän	-8382
lasta	-8383
llyil	-8384
mahda	-8385
majan	-8386
misee	-8387
missä	-8388
mmeet	-8389
mmekö	-8390
mpana	-8391
muren	-8392
nalta	-8393
nella	-8394
netty	-8395
noksi	-8396
näksi	-8397
oisat	-8398
oiset	-8399
hat	-8400
ipö	-8401
▁puv	-8402
etten	-8403
evien	-8404
istin	-8405
istyi	-8406
oisna	-8407
oksen	-8408
olaan	-8409
ottua	-8410
palan	-8411
paria	-8412
pasit	-8413
pelit	-8414
ppeen	-8415
ppuna	-8416
pyynn	-8417
rauta	-8418
rinsa	-8419
sillä	-8420
taani	-8421
taapa	-8422
tamme	-8423
tehän	-8424
tessa	-8425
tetty	-8426
tiesi	-8427
tinsa	-8428
tonut	-8429
ttava	-8430
tteli	-8431
täviä	-8432
uille	-8433
uisit	-8434
ukkar	-8435
ukoot	-8436
ukuri	-8437
uneen	-8438
usorm	-8439
uunan	-8440
uvall	-8441
vakos	-8442
venee	-8443
vensa	-8444
verta	-8445
vessa	-8446
vetin	-8447
vuote	-8448
värss	-8449
vätpä	-8450
äniit	-8451
ääksi	-8452
äältä	-8453
äänty	-8454
öttää	-8455
▁Anta	-8456
▁Hous	-8457
▁Hull	-8458
▁Iisa	-8459
▁Ilta	-8460
▁Isra	-8461
▁Jota	-8462
▁Kasa	-8463
▁Koto	-8464
▁Laki	-8465
▁Maan	-8466
▁Nuor	-8467
▁Olis	-8468
▁Pari	-8469
▁Pien	-8470
▁Poik	-8471
▁Pyss	-8472
▁Susi	-8473
▁Suur	-8474
▁Sydä	-8475
▁Talo	-8476
▁Tapi	-8477
▁Teen	-8478
▁Toiv	-8479
▁Tunt	-8480
▁Tänä	-8481
▁Tätä	-8482
▁VELJ	-8483
▁Vaik	-8484
▁Vuor	-8485
▁aiko	-8486
▁alku	-8487
▁ammu	-8488
▁ampa	-8489
▁ansi	-8490
▁auet	-8491
▁eikö	-8492
▁etpä	-8493
▁etun	-8494
▁hais	-8495
▁haju	-8496
▁hang	-8497
▁hank	-8498
▁harr	-8499
▁harv	-8500
▁hass	-8501
▁helä	-8502
▁hevo	-8503
▁huim	-8504
▁huna	-8505
▁hurj	-8506
▁hyrs	-8507
▁hyör	-8508
▁hänn	-8509
▁joul	-8510
▁jylh	-8511
▁jään	-8512
▁kala	-8513
▁kaur	-8514
▁keve	-8515
▁kilj	-8516
▁kimp	-8517
▁kirj	-8518
▁konn	-8519
▁kuon	-8520
▁kuop	-8521
▁kuri	-8522
▁kuun	-8523
▁kyhn	-8524
▁kylä	-8525
▁kähe	-8526
▁kämä	-8527
▁kökö	-8528
▁köyh	-8529
▁lemp	-8530
▁leuk	-8531
▁lohd	-8532
▁luik	-8533
▁lusi	-8534
▁lyhd	-8535
▁lähi	-8536
▁läik	-8537
▁läim	-8538
▁maha	-8539
▁maku	-8540
▁mana	-8541
▁moit	-8542
▁muna	-8543
▁mäyr	-8544
▁möry	-8545
▁möyr	-8546
▁naam	-8547
▁napa	-8548
▁nime	-8549
▁noit	-8550
▁nouk	-8551
▁nyky	-8552
▁näkö	-8553
▁oksi	-8554
▁olle	-8555
▁ovin	-8556
▁paah	-8557
▁pahn	-8558
▁palo	-8559
▁perä	-8560
▁pesä	-8561
▁pieh	-8562
▁piki	-8563
▁pikk	-8564
▁poro	-8565
▁praa	-8566
▁puhe	-8567
▁puun	-8568
▁pyll	-8569
▁pääh	-8570
▁pöyr	-8571
▁pöyt	-8572
▁rapu	-8573
▁riuh	-8574
▁rois	-8575
▁rous	-8576
▁ruik	-8577
▁runs	-8578
▁sain	-8579
▁sals	-8580
▁selä	-8581
▁siin	-8582
▁sile	-8583
▁sivu	-8584
▁syvä	-8585
▁säil	-8586
▁sään	-8587
▁säär	-8588
▁söin	-8589
▁taap	-8590
▁tahr	-8591
▁tirs	-8592
▁tuho	-8593
▁tuis	-8594
▁tuot	-8595
▁uhre	-8596
▁uhri	-8597
▁vast	-8598
▁vauh	-8599
▁vaun	-8600
▁vava	-8601
▁vekk	-8602
▁void	-8603
▁voud	-8604
▁väsy	-8605
▁ylis	-8606
▁yltä	-8607
▁ämmä	-8608
Juhani	-8609
Kuinka	-8610
Tuossa	-8611
aamuna	-8612
atessa	-8613
elitkö	-8614
elkoon	-8615
elkoot	-8616
eltiin	-8617
emassa	-8618
empain	-8619
ertava	-8620
eskeli	-8621
ettuja	-8622
etyllä	-8623
etänsä	-8624
evasta	-8625
hdella	-8626
ihinsa	-8627
ikkaan	-8628
ikkeni	-8629
ikulta	-8630
ilevan	-8631
illään	-8632
impana	-8633
impään	-8634
inässä	-8635
isevaa	-8636
isevan	-8637
isokea	-8638
istäni	-8639
isäkki	-8640
itanne	-8641
itseva	-8642
ittepa	-8643
ittämä	-8644
joukon	-8645
jälkiä	-8646
kaista	-8647
kaistu	-8648
keensa	-8649
keittä	-8650
kemaan	-8651
keutta	-8652
keänsä	-8653
kimaan	-8654
kimään	-8655
kkinen	-8656
kkojen	-8657
ksenne	-8658
käleet	-8659
laisen	-8660
laista	-8661
latvat	-8662
llensä	-8663
maahan	-8664
maalle	-8665
maasta	-8666
metson	-8667
miestä	-8668
muutta	-8669
oinnut	-8670
okseen	-8671
okuono	-8672
olassa	-8673
oomaan	-8674
oteeus	-8675
otonta	-8676
paleen	-8677
penkin	-8678
pussin	-8679
päässä	-8680
rellen	-8681
sausta	-8682
teeton	-8683
teilla	-8684
tetaan	-8685
toamme	-8686
tunnon	-8687
tyneen	-8688
tynnör	-8689
täköön	-8690
ukaksi	-8691
ukolle	-8692
ukseni	-8693
umista	-8694
urasta	-8695
ustani	-8696
uttain	-8697
uttava	-8698
uvista	-8699
viensa	-8700
visena	-8701
voimia	-8702
ydestä	-8703
ytellä	-8704
ytettä	-8705
yttyyn	-8706
yttäjä	-8707
yyppyä	-8708
ässäni	-8709
ättävä	-8710
▁Aapoa	-8711
▁Alkoi	-8712
▁Antti	-8713
▁Aroni	-8714
▁Eikös	-8715
▁Ellei	-8716
▁Ennen	-8717
▁Ensin	-8718
▁Halki	-8719
▁Heheh	-8720
▁Hirmu	-8721
▁Huuda	-8722
▁Hälli	-8723
▁Jassi	-8724
▁Jolla	-8725
▁Jospa	-8726
▁Juhoa	-8727
▁Karja	-8728
▁Kauas	-8729
▁Kerro	-8730
▁Kolme	-8731
▁Kulta	-8732
▁Kutti	-8733
▁Luoja	-8734
▁Lysti	-8735
▁Matin	-8736
▁Muori	-8737
▁Musta	-8738
▁Neljä	-8739
▁Nälkä	-8740
▁PIIKA	-8741
▁Paavo	-8742
▁Pitää	-8743
▁Pohja	-8744
▁Poika	-8745
▁Päivä	-8746
▁Pääni	-8747
▁Ryssä	-8748
▁Saipa	-8749
▁Siell	-8750
▁Suden	-8751
▁Talvi	-8752
▁Tehdä	-8753
▁Totta	-8754
▁Tuima	-8755
▁Tyttö	-8756
▁Vaimo	-8757
▁Viisi	-8758
▁Yksin	-8759
▁aatel	-8760
▁ahman	-8761
▁aitan	-8762
▁aitta	-8763
▁aleni	-8764
▁ampun	-8765
▁arvat	-8766
▁aseet	-8767
▁astel	-8768
▁astun	-8769
▁asuja	-8770
▁atria	-8771
▁avaru	-8772
▁ellen	-8773
▁ellet	-8774
▁etuja	-8775
▁haast	-8776
▁harma	-8777
▁hattu	-8778
▁heiko	-8779
▁hiero	-8780
▁hopea	-8781
▁huika	-8782
▁huipp	-8783
▁hulja	-8784
▁huone	-8785
▁hurme	-8786
▁hällä	-8787
▁häyry	-8788
▁jalko	-8789
▁johan	-8790
▁joina	-8791
▁jolta	-8792
▁jouto	-8793
▁jyrää	-8794
▁jänte	-8795
▁kaari	-8796
▁kalle	-8797
▁kalte	-8798
▁kanki	-8799
▁karhe	-8800
▁kaski	-8801
▁kaste	-8802
▁katon	-8803
▁keski	-8804
▁kevät	-8805
▁kieli	-8806
▁kiika	-8807
▁kiinn	-8808
▁kirko	-8809
▁kirku	-8810
▁kiulu	-8811
▁kivää	-8812
▁kohoo	-8813
▁kolko	-8814
▁komea	-8815
▁kovaa	-8816
▁kukis	-8817
▁kukon	-8818
▁kuluu	-8819
▁kunin	-8820
▁kuono	-8821
▁kuppa	-8822
▁kyrää	-8823
▁kärhä	-8824
▁käsin	-8825
▁käsit	-8826
▁käsiä	-8827
▁ladon	-8828
▁lakas	-8829
▁laupe	-8830
▁lehti	-8831
▁lehto	-8832
▁leuko	-8833
▁lippa	-8834
▁lisää	-8835
▁liuta	-8836
▁loisk	-8837
▁lujan	-8838
▁lumen	-8839
▁luule	-8840
▁luvun	-8841
▁lähes	-8842
▁läsnä	-8843
▁löyly	-8844
▁mahat	-8845
▁maine	-8846
▁mehän	-8847
▁mekas	-8848
▁menee	-8849
▁meret	-8850
▁metso	-8851
▁mitkä	-8852
▁mitäs	-8853
▁monet	-8854
▁munat	-8855
▁myöhä	-8856
▁mässä	-8857
▁mättä	-8858
▁mäyrä	-8859
▁mököt	-8860
▁nahan	-8861
▁nopsa	-8862
▁nyhkä	-8863
▁oivan	-8864
▁oksat	-8865
▁oljet	-8866
▁ollen	-8867
▁oltta	-8868
▁ongen	-8869
▁orret	-8870
▁osaan	-8871
▁otsan	-8872
▁padan	-8873
▁pahen	-8874
▁pakar	-8875
▁palja	-8876
▁pallo	-8877
▁panna	-8878
▁paria	-8879
▁parvi	-8880
▁pelaa	-8881
▁pensa	-8882
▁peris	-8883
▁pesän	-8884
▁peuha	-8885
▁pidän	-8886
▁piiat	-8887
▁piiko	-8888
▁piina	-8889
▁prame	-8890
▁puhui	-8891
▁puhut	-8892
▁puneh	-8893
▁purra	-8894
▁pyhkä	-8895
▁pysyi	-8896
▁pyörä	-8897
▁pääss	-8898
▁rakki	-8899
▁rapaa	-8900
▁rasvo	-8901
▁ravit	-8902
▁repee	-8903
▁rikka	-8904
▁rikos	-8905
▁rotta	-8906
▁ruuna	-8907
▁ryske	-8908
▁ryövä	-8909
▁salaa	-8910
▁salot	-8911
▁sanat	-8912
▁sapat	-8913
▁seist	-8914
▁sekin	-8915
▁sepit	-8916
▁seutu	-8917
▁siema	-8918
▁siipi	-8919
▁siirr	-8920
▁sileä	-8921
▁silmi	-8922
▁sutta	-8923
▁sylki	-8924
▁takin	-8925
▁tavat	-8926
▁tempo	-8927
▁teräs	-8928
▁terää	-8929
▁tieto	-8930
▁tikka	-8931
▁torni	-8932
▁torvi	-8933
▁tuime	-8934
▁tumma	-8935
▁tupaa	-8936
▁turha	-8937
▁turve	-8938
▁tutta	-8939
▁töllö	-8940
▁uljas	-8941
▁vaell	-8942
▁vahto	-8943
▁vaino	-8944
▁valoa	-8945
▁valon	-8946
▁vanno	-8947
▁varah	-8948
▁varas	-8949
▁vasar	-8950
▁vehnä	-8951
▁veisa	-8952
▁vetää	-8953
▁väläh	-8954
▁väärä	-8955
▁yöhön	-8956
▁yöllä	-8957
▁yömme	-8958
▁äkeän	-8959
▁ämmän	-8960
▁öinen	-8961
Jukolan	-8962
Jumalan	-8963
akkunan	-8964
allakin	-8965
anainen	-8966
astettu	-8967
astusta	-8968
attomia	-8969
ehdimme	-8970
eitansa	-8971
elemään	-8972
ellisna	-8973
ellista	-8974
eltävää	-8975
errusta	-8976
esmanni	-8977
etetaan	-8978
ettavaa	-8979
ettunut	-8980
ettömät	-8981
hetkenä	-8982
ikeeraa	-8983
ikkansa	-8984
ikkoset	-8985
illinen	-8986
iltänsä	-8987
iskähti	-8988
issanne	-8989
istetta	-8990
istettu	-8991
istetty	-8992
istivat	-8993
istunpa	-8994
istystä	-8995
isuutta	-8996
itettyä	-8997
itsivat	-8998
ittäisi	-8999
jelkoon	-9000
kattiin	-9001
kelivat	-9002
kittiin	-9003
kkimaan	-9004
lettiin	-9005
marssin	-9006
misesta	-9007
mutöitä	-9008
märässä	-9009
oillaan	-9010
oksensa	-9011
olaiset	-9012
pasivat	-9013
pihalle	-9014
porsaat	-9015
ppiolle	-9016
päisenä	-9017
päivään	-9018
takissa	-9019
teletko	-9020
teletpa	-9021
televän	-9022
telimme	-9023
tettiin	-9024
tomasti	-9025
tynyttä	-9026
tömästi	-9027
ukkunsa	-9028
uksilla	-9029
uskeata	-9030
uutemme	-9031
vänänsä	-9032
yksestä	-9033
yydellä	-9034
yytensä	-9035
▁Enklan	-9036
▁Helsin	-9037
▁Killin	-9038
▁Koetta	-9039
▁Koirat	-9040
▁Lauria	-9041
▁Makasi	-9042
▁Meidän	-9043
▁Minäpä	-9044
▁Mustan	-9045
▁Muutta	-9046
▁Olutta	-9047
▁Paljon	-9048
▁Sebaot	-9049
▁Synkeä	-9050
▁Säästä	-9051
▁Tappel	-9052
▁Tulipa	-9053
▁Tullut	-9054
▁Tuolta	-9055
▁Tuonen	-9056
▁Täyttä	-9057
▁Vanhan	-9058
▁Vimman	-9059
▁aamuun	-9060
▁aikoja	-9061
▁ainoaa	-9062
▁alenee	-9063
▁alkaen	-9064
▁ampuen	-9065
▁ankari	-9066
▁annoin	-9067
▁antain	-9068
▁armaan	-9069
▁arvaat	-9070
▁asetta	-9071
▁avaran	-9072
▁elomme	-9073
▁elukka	-9074
▁elämme	-9075
▁haarat	-9076
▁hankea	-9077
▁harjas	-9078
▁hauska	-9079
▁heikko	-9080
▁hellit	-9081
▁heltii	-9082
▁henget	-9083
▁henkiä	-9084
▁herras	-9085
▁herrat	-9086
▁heräsi	-9087
▁hetkeä	-9088
▁hiiliä	-9089
▁hiiret	-9090
▁huhtoi	-9091
▁humala	-9092
▁huomis	-9093
▁hurjat	-9094
▁hyörii	-9095
▁hämmen	-9096
▁idästä	-9097
▁ilolla	-9098
▁ilosta	-9099
▁iskien	-9100
▁itseni	-9101
▁joissa	-9102
▁joskus	-9103
▁joutua	-9104
▁juhlan	-9105
▁julman	-9106
▁juoman	-9107
▁juosta	-9108
▁jussia	-9109
▁jyrkeä	-9110
▁jyrkkä	-9111
▁jättää	-9112
▁kaappa	-9113
▁kaatua	-9114
▁kadonn	-9115
▁kahvia	-9116
▁kaljaa	-9117
▁kallio	-9118
▁kankea	-9119
▁kannon	-9120
▁kansaa	-9121
▁kansan	-9122
▁karkur	-9123
▁kaskea	-9124
▁kasvaa	-9125
▁katson	-9126
▁katsoo	-9127
▁kauhea	-9128
▁kaukaa	-9129
▁kaupan	-9130
▁kauppa	-9131
▁keitto	-9132
▁keppih	-9133
▁kerska	-9134
▁kiekon	-9135
▁kiekuu	-9136
▁kieles	-9137
▁kiellä	-9138
▁kirjan	-9139
▁kirkku	-9140
▁kitsas	-9141
▁kiuvas	-9142
▁kohina	-9143
▁konsti	-9144
▁kontta	-9145
▁koreat	-9146
▁korkei	-9147
▁kuihtu	-9148
▁kukaan	-9149
▁kukkoa	-9150
▁kultas	-9151
▁kummis	-9152
▁kumoon	-9153
▁kuning	-9154
▁kuolen	-9155
▁kuolin	-9156
▁kuolle	-9157
▁kurjaa	-9158
▁kurraa	-9159
▁kuuman	-9160
▁kuuset	-9161
▁kuvail	-9162
▁kylien	-9163
▁kyllin	-9164
▁kynsin	-9165
▁kärppä	-9166
▁käskee	-9167
▁käskyä	-9168
▁käteen	-9169
▁käyttä	-9170
▁käytös	-9171
▁kölsän	-9172
▁köyhän	-9173
▁lahjaa	-9174
▁lakean	-9175
▁lankee	-9176
▁lasken	-9177
▁lasket	-9178
▁lehmät	-9179
▁leimua	-9180
▁leiriä	-9181
▁leiska	-9182
▁lentää	-9183
▁liepeä	-9184
▁lihaan	-9185
▁lihapa	-9186
▁lihoja	-9187
▁liukka	-9188
▁loiska	-9189
▁luodin	-9190
▁luonut	-9191
▁luotia	-9192
▁luovun	-9193
▁lupaan	-9194
▁lurjus	-9195
▁lykkää	-9196
▁läikky	-9197
▁läksin	-9198
▁läätin	-9199
▁löivät	-9200
▁lörpöt	-9201
▁mahtia	-9202
▁mahtuu	-9203
▁mailla	-9204
▁mainio	-9205
▁maitta	-9206
▁menevä	-9207
▁merkki	-9208
▁mesikä	-9209
▁monena	-9210
▁morsia	-9211
▁muonaa	-9212
▁muotoa	-9213
▁muutan	-9214
▁myyrät	-9215
▁mäeltä	-9216
▁naisia	-9217
▁naista	-9218
▁nallia	-9219
▁naskit	-9220
▁naukin	-9221
▁naukki	-9222
▁nauroi	-9223
▁niillä	-9224
▁noista	-9225
▁nousta	-9226
▁nukkua	-9227
▁nukkuu	-9228
▁nuoria	-9229
▁nurkka	-9230
▁nyrkin	-9231
▁näkyvä	-9232
▁nälkää	-9233
▁ohitse	-9234
▁oinaat	-9235
▁ojalle	-9236
▁olenko	-9237
▁olimme	-9238
▁olisit	-9239
▁omassa	-9240
▁ometta	-9241
▁omiksi	-9242
▁osansa	-9243
▁ovella	-9244
▁pahnan	-9245
▁paikan	-9246
▁painaa	-9247
▁paisui	-9248
▁palkit	-9249
▁pelkoa	-9250
▁petoin	-9251
▁pihaus	-9252
▁piikki	-9253
▁pilviä	-9254
▁pimeys	-9255
▁pimeän	-9256
▁pistin	-9257
▁pistän	-9258
▁pohjin	-9259
▁portin	-9260
▁puhall	-9261
▁pulski	-9262
▁puolet	-9263
▁puolin	-9264
▁puolta	-9265
▁pussin	-9266
▁puuhaa	-9267
▁pylväs	-9268
▁pyrstö	-9269
▁pyydys	-9270
▁pyynti	-9271
▁raatel	-9272
▁reippa	-9273
▁rengit	-9274
▁retken	-9275
▁riksiä	-9276
▁rinnat	-9277
▁rinnus	-9278
▁rintaa	-9279
▁rupeaa	-9280
▁ryyppä	-9281
▁ryysyt	-9282
▁sammui	-9283
▁sanaan	-9284
▁sangen	-9285
▁sanoen	-9286
▁sanoja	-9287
▁savuna	-9288
▁savuun	-9289
▁seassa	-9290
▁seikka	-9291
▁seiniä	-9292
▁seinää	-9293
▁seista	-9294
▁siipeä	-9295
▁silmää	-9296
▁sitkeä	-9297
▁soikot	-9298
▁soitto	-9299
▁soivat	-9300
▁sonnia	-9301
▁sontia	-9302
▁sorsia	-9303
▁sotaan	-9304
▁suitsu	-9305
▁sumuun	-9306
▁suntio	-9307
▁suolet	-9308
▁suonut	-9309
▁suorin	-9310
▁suuret	-9311
▁syleil	-9312
▁syntyi	-9313
▁syypää	-9314
▁säihky	-9315
▁säikäh	-9316
▁taikka	-9317
▁taipuu	-9318
▁tallus	-9319
▁tarjoo	-9320
▁teissä	-9321
▁toivoi	-9322
▁toreli	-9323
▁tornin	-9324
▁tottel	-9325
▁totuus	-9326
▁tuiman	-9327
▁tulena	-9328
▁tulilu	-9329
▁tunkka	-9330
▁tuntur	-9331
▁tuomar	-9332
▁turhia	-9333
▁turkin	-9334
▁tuulia	-9335
▁tuulta	-9336
▁tuumaa	-9337
▁tykkää	-9338
▁typerä	-9339
▁tyytyä	-9340
▁työnnä	-9341
▁tämäkö	-9342
▁täysin	-9343
▁töppös	-9344
▁uljaan	-9345
▁umpeen	-9346
▁unohda	-9347
▁unohti	-9348
▁vaaraa	-9349
▁vaaria	-9350
▁vahtia	-9351
▁vaihei	-9352
▁vaihet	-9353
▁vaimoa	-9354
▁vaimon	-9355
▁vaivan	-9356
▁valeli	-9357
▁valkia	-9358
▁valvoi	-9359
▁vastus	-9360
▁veisaa	-9361
▁veisun	-9362
▁vekama	-9363
▁vereni	-9364
▁viekas	-9365
▁viettä	-9366
▁viheli	-9367
▁viiden	-9368
▁viileä	-9369
▁viiltä	-9370
▁viljaa	-9371
▁vilkas	-9372
▁virran	-9373
▁viskaa	-9374
▁voitat	-9375
▁voiton	-9376
▁vuonna	-9377
▁vuorta	-9378
▁vuosky	-9379
▁värssy	-9380
▁västin	-9381
▁vääriä	-9382
▁yhtenä	-9383
▁Äkisti	-9384
▁äkeinä	-9385
▁älkäät	-9386
astellen	-9387
attomina	-9388
elkaamme	-9389
ilmäinen	-9390
istämänä	-9391
killistä	-9392
kkasivat	-9393
kätähden	-9394
käytteli	-9395
lliseksi	-9396
numeroja	-9397
oillensa	-9398
poikiasi	-9399
poskinen	-9400
ppasivat	-9401
päiseksi	-9402
teitansa	-9403
testamen	-9404
urkkisen	-9405
utettiin	-9406
vakosken	-9407
▁Aapelia	-9408
▁Aisoiss	-9409
▁Armahda	-9410
▁Eerolta	-9411
▁Eivätpä	-9412
▁Enimmin	-9413
▁Hänellä	-9414
▁Hänenpä	-9415
▁Iisakki	-9416
▁Kirottu	-9417
▁Kultani	-9418
▁Kyöstiä	-9419
▁Lukkari	-9420
▁Menkäät	-9421
▁Mäkelän	-9422
▁Nähtiin	-9423
▁Oleppas	-9424
▁Parasta	-9425
▁Saakoon	-9426
▁Sauvall	-9427
▁Seurasi	-9428
▁Siinäpä	-9429
▁Siitäpä	-9430
▁Sonnimä	-9431
▁Taistel	-9432
▁Timokin	-9433
▁Tulivat	-9434
▁Tultiin	-9435
▁Vähänpä	-9436
▁Välistä	-9437
▁Yhdestä	-9438
▁aikansa	-9439
▁aikoina	-9440
▁ainahan	-9441
▁akkunaa	-9442
▁ankaria	-9443
▁armasta	-9444
▁arvaten	-9445
▁asettaa	-9446
▁edessäs	-9447
▁elämään	-9448
▁eläneet	-9449
▁enkelit	-9450
▁erinoma	-9451
▁esimies	-9452
▁etusorm	-9453
▁halkoni	-9454
▁hampain	-9455
▁harkits	-9456
▁haukkin	-9457
▁hautaan	-9458
▁heittoa	-9459
▁heleätä	-9460
▁hellitä	-9461
▁helmaan	-9462
▁hiukset	-9463
▁hohtava	-9464
▁honkien	-9465
▁hosurit	-9466
▁hukassa	-9467
▁hulluus	-9468
▁humalan	-9469
▁hyvällä	-9470
▁häntänä	-9471
▁ihastus	-9472
▁ikuisen	-9473
▁iltaval	-9474
▁iskemme	-9475
▁isketty	-9476
▁isäntää	-9477
▁jaksain	-9478
▁juomaan	-9479
▁juttele	-9480
▁jutteli	-9481
▁jykeviä	-9482
▁jykevät	-9483
▁jyrkkää	-9484
▁jäniksi	-9485
▁järähti	-9486
▁jättilä	-9487
▁kantaen	-9488
▁karttaa	-9489
▁karttui	-9490
▁katolla	-9491
▁kedolla	-9492
▁keikkui	-9493
▁keinoon	-9494
▁kellään	-9495
▁kertoil	-9496
▁ketusta	-9497
▁keväänä	-9498
▁kilvoit	-9499
▁kirjain	-9500
▁kirkais	-9501
▁kiroili	-9502
▁kirotun	-9503
▁kirveen	-9504
▁kivelle	-9505
▁kokenut	-9506
▁korkein	-9507
▁korkeud	-9508
▁koukkua	-9509
▁kovassa	-9510
▁kruutia	-9511
▁kujalla	-9512
▁kukosta	-9513
▁kuninka	-9514
▁kyräten	-9515
▁kyynele	-9516
▁käskylä	-9517
▁käskyni	-9518
▁kääntyy	-9519
▁lakaisi	-9520
▁lapsuka	-9521
▁leipään	-9522
▁levitti	-9523
▁liehako	-9524
▁lihasta	-9525
▁liittyi	-9526
▁lukukin	-9527
▁lumival	-9528
▁luullen	-9529
▁luullut	-9530
▁luvaten	-9531
▁lähelle	-9532
▁lähteen	-9533
▁lävisti	-9534
▁marssia	-9535
▁matalan	-9536
▁melakka	-9537
▁menkäät	-9538
▁meteliä	-9539
▁metsiin	-9540
▁mielisi	-9541
▁mieltäs	-9542
▁minusta	-9543
▁monella	-9544
▁monikin	-9545
▁morsian	-9546
▁morsius	-9547
▁muhkean	-9548
▁muinoin	-9549
▁muistut	-9550
▁murheen	-9551
▁mykkänä	-9552
▁myrskyn	-9553
▁myttyyn	-9554
▁myönnän	-9555
▁mäntyin	-9556
▁mätänis	-9557
▁mökissä	-9558
▁naamaas	-9559
▁nahkasi	-9560
▁nauriin	-9561
▁niinhän	-9562
▁nimeltä	-9563
▁nokiset	-9564
▁nokkela	-9565
▁nousipa	-9566
▁nousnut	-9567
▁nysänsä	-9568
▁näetkös	-9569
▁oletkin	-9570
▁onnemme	-9571
▁opettaa	-9572
▁orressa	-9573
▁osoitta	-9574
▁otteloa	-9575
▁otuksia	-9576
▁pahempi	-9577
▁pakanat	-9578
▁palttua	-9579
▁pankaat	-9580
▁parhaan	-9581
▁paukaus	-9582
▁pehmeän	-9583
▁peittyi	-9584
▁perheen	-9585
▁pienenä	-9586
▁pienten	-9587
▁piiloon	-9588
▁pilviin	-9589
▁pitäisi	-9590
▁poikana	-9591
▁poikina	-9592
▁pojalle	-9593
▁polulla	-9594
▁polvill	-9595
▁pukivat	-9596
▁puolain	-9597
▁puvussa	-9598
▁pyhästi	-9599
▁pyllyil	-9600
▁pyssyni	-9601
▁päästäs	-9602
▁päästää	-9603
▁raikkui	-9604
▁raivosi	-9605
▁revitty	-9606
▁rivissä	-9607
▁roikkaa	-9608
▁ruhtina	-9609
▁rukiita	-9610
▁ruoskan	-9611
▁rupesin	-9612
▁ruskeat	-9613
▁rykelmä	-9614
▁röökinä	-9615
▁sadetta	-9616
▁salissa	-9617
▁sanalla	-9618
▁sanansa	-9619
▁selässä	-9620
▁sentään	-9621
▁seurata	-9622
▁siirtyä	-9623
▁sileätä	-9624
▁sinulta	-9625
▁sisältä	-9626
▁soittaa	-9627
▁suojaan	-9628
▁suuntaa	-9629
▁sydäntä	-9630
▁syksynä	-9631
▁synkeys	-9632
▁syvällä	-9633
▁syvässä	-9634
▁talliin	-9635
▁talutti	-9636
▁tanssia	-9637
▁tanssin	-9638
▁tavaraa	-9639
▁tehköön	-9640
▁teurast	-9641
▁tilamme	-9642
▁todente	-9643
▁toivoen	-9644
▁totella	-9645
▁tuhkana	-9646
▁tuikeat	-9647
▁tuiskua	-9648
▁tukasta	-9649
▁tukkaan	-9650
▁tulemme	-9651
▁tulevat	-9652
▁tulikiv	-9653
▁tuliset	-9654
▁tulkaat	-9655
▁tuotiin	-9656
▁tuppeen	-9657
▁tutisee	-9658
▁tuuhean	-9659
▁tuulien	-9660
▁tyhmyys	-9661
▁tynnöri	-9662
▁uhrinsa	-9663
▁ukkosen	-9664
▁uljasta	-9665
▁useinpa	-9666
▁uskossa	-9667
▁uudessa	-9668
▁vaalean	-9669
▁vaankin	-9670
▁valahti	-9671
▁valkeni	-9672
▁veljell	-9673
▁veriset	-9674
▁verisiä	-9675
▁vetänyt	-9676
▁viattom	-9677
▁vieraan	-9678
▁viheljä	-9679
▁viisaus	-9680
▁vuotena	-9681
▁välikir	-9682
▁välähti	-9683
▁yhdellä	-9684
▁yhtäkin	-9685
▁yksikin	-9686
▁ymmärrä	-9687
▁ymmärsi	-9688
▁ytimeen	-9689
▁äkeästi	-9690
ellessani	-9691
eltäväksi	-9692
eskelivat	-9693
ettavaksi	-9694
harjainen	-9695
istelemme	-9696
istelivät	-9697
isuutensa	-9698
jalkainen	-9699
karvaisen	-9700
karvaisia	-9701
kistellen	-9702
lettiinpä	-9703
mpahtelee	-9704
ottomasti	-9705
punaisena	-9706
päiväisen	-9707
tsalainen	-9708
ähtämättä	-9709
▁Eeroseni	-9710
▁Heinolan	-9711
▁Herresta	-9712
▁Hämeessä	-9713
▁Jumalata	-9714
▁Kiljavan	-9715
▁Kuttilan	-9716
▁Kyllähän	-9717
▁Lähestyi	-9718
▁Makeasti	-9719
▁Metsolan	-9720
▁Mielitkö	-9721
▁Muistele	-9722
▁Olkaamme	-9723
▁Ottakaat	-9724
▁Pietarin	-9725
▁Turkkila	-9726
▁Vehkalan	-9727
▁aapiseni	-9728
▁aapiston	-9729
▁aatoksen	-9730
▁ainiaksi	-9731
▁aisoissa	-9732
▁alaspäin	-9733
▁ankaraan	-9734
▁annappas	-9735
▁antaisin	-9736
▁antakaat	-9737
▁antamaan	-9738
▁apajassa	-9739
▁armaasti	-9740
▁astuneet	-9741
▁auttamat	-9742
▁autuuden	-9743
▁elävältä	-9744
▁entiseen	-9745
▁haastele	-9746
▁halkonne	-9747
▁havuista	-9748
▁heitimme	-9749
▁hiilistö	-9750
▁hohtavat	-9751
▁huomasin	-9752
▁huulensa	-9753
▁huulilla	-9754
▁huutavan	-9755
▁hyvinkin	-9756
▁höyhenet	-9757
▁ilmoisna	-9758
▁iskuista	-9759
▁itkemään	-9760
▁itsekkin	-9761
▁jalkasin	-9762
▁johdatta	-9763
▁joutunut	-9764
▁juuresta	-9765
▁jykevänä	-9766
▁jänikset	-9767
▁kaappasi	-9768
▁kaarteli	-9769
▁kahiseva	-9770
▁kaikessa	-9771
▁kaikilta	-9772
▁kaikunut	-9773
▁kalveana	-9774
▁kalveina	-9775
▁kalvenee	-9776
▁kannusti	-9777
▁kanssaan	-9778
▁kantanut	-9779
▁kanttoor	-9780
▁karjansa	-9781
▁katrilli	-9782
▁katselen	-9783
▁kaulassa	-9784
▁kauppaan	-9785
▁keikahti	-9786
▁keskeltä	-9787
▁kevääksi	-9788
▁keväällä	-9789
▁kiehtoen	-9790
▁kiljahti	-9791
▁kiljuvan	-9792
▁kimppuun	-9793
▁kirkossa	-9794
▁kirottua	-9795
▁kiukusta	-9796
▁kiväärin	-9797
▁kohdalla	-9798
▁kohdalle	-9799
▁kohiseva	-9800
▁kohtalon	-9801
▁kohtasin	-9802
▁koijussa	-9803
▁koirille	-9804
▁kolkossa	-9805
▁kontiota	-9806
▁kostosta	-9807
▁kouluret	-9808
▁kovemmin	-9809
▁kukoista	-9810
▁kurittaa	-9811
▁kuulemme	-9812
▁kuultele	-9813
▁kuultiin	-9814
▁kuuluisa	-9815
▁kuumenee	-9816
▁kuvausta	-9817
▁kyljessä	-9818
▁kymmentä	-9819
▁kysymyks	-9820
▁kyynärän	-9821
▁käsivarr	-9822
▁kätkivät	-9823
▁lakannut	-9824
▁lakealla	-9825
▁lakeassa	-9826
▁lapsensa	-9827
▁laskettu	-9828
▁latvassa	-9829
▁lausunut	-9830
▁leikiksi	-9831
▁leikistä	-9832
▁leikkiin	-9833
▁lennähti	-9834
▁leukansa	-9835
▁liekehti	-9836
▁linnassa	-9837
▁loiskasi	-9838
▁loppunut	-9839
▁luullaan	-9840
▁lähdemme	-9841
▁lähemmäs	-9842
▁lämmittä	-9843
▁lännestä	-9844
▁löylyssä	-9845
▁mainittu	-9846
▁manausta	-9847
▁matoinen	-9848
▁mennessä	-9849
▁merkiksi	-9850
▁mieheltä	-9851
▁miehusta	-9852
▁minäkään	-9853
▁monialle	-9854
▁muhkeita	-9855
▁muistaen	-9856
▁muutamat	-9857
▁muutosta	-9858
▁mäskiksi	-9859
▁naapurit	-9860
▁nallikka	-9861
▁niskassa	-9862
▁noukkasi	-9863
▁nurmella	-9864
▁nähtyään	-9865
▁oikealla	-9866
▁olemmepa	-9867
▁olevansa	-9868
▁ometassa	-9869
▁opettaja	-9870
▁otsaansa	-9871
▁pakkasen	-9872
▁palavata	-9873
▁papinkir	-9874
▁parantaa	-9875
▁parhaita	-9876
▁parvelta	-9877
▁pelastaa	-9878
▁pieneksi	-9879
▁pieniksi	-9880
▁pihoilla	-9881
▁pilvistä	-9882
▁pitkäksi	-9883
▁pituisen	-9884
▁pitämään	-9885
▁pohjasta	-9886
▁poloisia	-9887
▁polvilla	-9888
▁porrasta	-9889
▁potkaisi	-9890
▁poudassa	-9891
▁punainen	-9892
▁puolilta	-9893
▁pyssyjen	-9894
▁pyörässä	-9895
▁päivistä	-9896
▁päivämme	-9897
▁päivästä	-9898
▁päältäni	-9899
▁pääsemme	-9900
▁pääsneet	-9901
▁pöllytys	-9902
▁pörrössä	-9903
▁rakennus	-9904
▁rannalle	-9905
▁rannalta	-9906
▁rapuista	-9907
▁rattaita	-9908
▁retkellä	-9909
▁retkensä	-9910
▁riippuva	-9911
▁rinnassa	-9912
▁rinnasta	-9913
▁riutumus	-9914
▁ruhtinas	-9915
▁rukkaset	-9916
▁rukoilla	-9917
▁runsasta	-9918
▁ruumiini	-9919
▁saatuani	-9920
▁sankarin	-9921
▁sankarit	-9922
▁sanoilla	-9923
▁sanokaat	-9924
▁sanonkin	-9925
▁saunasta	-9926
▁selittää	-9927
▁selkämme	-9928
▁selkänsä	-9929
▁sievästi	-9930
▁sikeässä	-9931
▁sikeästi	-9932
▁silmistä	-9933
▁silmänne	-9934
▁silmäter	-9935
▁sinertäv	-9936
▁soliseva	-9937
▁sukkelan	-9938
▁suurikel	-9939
▁sydämeen	-9940
▁syksyllä	-9941
▁tahdonpa	-9942
▁taitaisi	-9943
▁takkinsa	-9944
▁talveksi	-9945
▁tarhassa	-9946
▁teräinen	-9947
▁toimekas	-9948
▁toimesta	-9949
▁toisesta	-9950
▁toistaan	-9951
▁torkkuen	-9952
▁totisina	-9953
▁tuntuupa	-9954
▁tuomittu	-9955
▁tuskinpa	-9956
▁tynnöriä	-9957
▁tyttönen	-9958
▁täytetty	-9959
▁uhreiksi	-9960
▁uneksuen	-9961
▁vaarassa	-9962
▁vaativat	-9963
▁vaelteli	-9964
▁vaikeata	-9965
▁vaisusti	-9966
▁vanhassa	-9967
▁vanhempi	-9968
▁varoilla	-9969
▁varoitus	-9970
▁vartioit	-9971
▁veisteli	-9972
▁veljemme	-9973
▁veripuna	-9974
▁viholais	-9975
▁viipynyt	-9976
▁viivymme	-9977
▁vimmassa	-9978
▁virkansa	-9979
▁virsikir	-9980
▁viskelee	-9981
▁viulunsa	-9982
▁voimaton	-9983
▁vähimmin	-9984
▁väkisten	-9985
▁yhdeksän	-9986
▁yhteisen	-9987
▁ylpeästi	-9988
▁ymmärrän	-9989
▁ymmärtää	-9990
istelemään	-9991
kappaletta	-9992
murennusta	-9993
▁Juhanikin	-9994
▁Juhanilta	-9995
▁Konkkalan	-9996
▁Kuinkahan	-9997
▁Ojaniitun	-9998
▁Seisoivat	-9999
▁Tietäkäät	-10000
▁Timoteeus	-10001
▁Tuomaskin	-10002
▁Turkkilan	-10003
▁Varsinkin	-10004
▁Veljesten	-10005
▁Vihaisena	-10006
▁aapiainen	-10007
▁ankarassa	-10008
▁arvelivat	-10009
▁asettanut	-10010
▁autuitten	-10011
▁edessänne	-10012
▁emäntänsä	-10013
▁entisille	-10014
▁entisistä	-10015
▁hampaista	-10016
▁hauteessa	-10017
▁heittänyt	-10018
▁helvettiä	-10019
▁honkaisen	-10020
▁huhkaimen	-10021
▁humalassa	-10022
▁huminalla	-10023
▁hyöriskel	-10024
▁hämärässä	-10025
▁ihmettele	-10026
▁ikäänkuin	-10027
▁iloleikki	-10028
▁irvistäen	-10029
▁iskettiin	-10030
▁isäntänsä	-10031
▁junkkarit	-10032
▁juoksevat	-10033
▁juoksunsa	-10034
▁kaatuivat	-10035
▁kajahteli	-10036
▁kaltainen	-10037
▁kamaralla	-10038
▁karhealta	-10039
▁karmealla	-10040
▁katrillia	-10041
▁katsahdit	-10042
▁katsahtaa	-10043
▁kauhistun	-10044
▁kerrotaan	-10045
▁keräjänkä	-10046
▁kiirehtiä	-10047
▁kiitosvir	-10048
▁kirkkaana	-10049
▁kiskotaan	-10050
▁kohahtaen	-10051
▁koiratkin	-10052
▁kolmannen	-10053
▁komppania	-10054
▁korkeutta	-10055
▁kuinkahan	-10056
▁kuinkaspa	-10057
▁kumisevan	-10058
▁kuolettaa	-10059
▁kuultelee	-10060
▁kuumoitti	-10061
▁kyyneleet	-10062
▁käenpoika	-10063
▁käytellen	-10064
▁kömppeili	-10065
▁laattiata	-10066
▁lantakasa	-10067
▁lapsiansa	-10068
▁latvoissa	-10069
▁lautamies	-10070
▁levotonna	-10071
▁liepeästi	-10072
▁lukemisen	-10073
▁lumisella	-10074
▁lähteesen	-10075
▁lähteneet	-10076
▁lämmittää	-10077
▁menneistä	-10078
▁miekkansa	-10079
▁mieleensä	-10080
▁miellyttä	-10081
▁minnekkin	-10082
▁minunkaan	-10083
▁molempain	-10084
▁muistakaa	-10085
▁muuttanut	-10086
▁myrskyssä	-10087
▁mättäällä	-10088
▁nallikkaa	-10089
▁niittujen	-10090
▁nylkemään	-10091
▁nyrkkinsä	-10092
▁nälkäiset	-10093
▁närkästyi	-10094
▁ohitsemme	-10095
▁olemmekin	-10096
▁onnetonta	-10097
▁osoittaen	-10098
▁paistiksi	-10099
▁pakanoita	-10100
▁pappilaan	-10101
▁parhaassa	-10102
▁peloittaa	-10103
▁pienoseni	-10104
▁pikimusta	-10105
▁pinnistys	-10106
▁poikiansa	-10107
▁punoittaa	-10108
▁puuttuman	-10109
▁pyytämään	-10110
▁rakenteli	-10111
▁rankaisee	-10112
▁ravistaen	-10113
▁remahteli	-10114
▁retkeilee	-10115
▁riemuiten	-10116
▁rupesimme	-10117
▁saattaisi	-10118
▁sadatteli	-10119
▁samosivat	-10120
▁selällään	-10121
▁sepittämä	-10122
▁siellähän	-10123
▁sielläkin	-10124
▁sieluansa	-10125
▁siirrymme	-10126
▁suhinalla	-10127
▁surkeassa	-10128
▁sydämissä	-10129
▁sydämmeni	-10130
▁sylissään	-10131
▁synkeällä	-10132
▁syntyisin	-10133
▁tahtoneet	-10134
▁taivaasen	-10135
▁taluttaen	-10136
▁tarinoita	-10137
▁tarkoitti	-10138
▁tekeminen	-10139
▁temmellys	-10140
▁tiedätkin	-10141
▁toistakin	-10142
▁tuhanteen	-10143
▁tulematta	-10144
▁tulisesti	-10145
▁tulisissa	-10146
▁tuollahan	-10147
▁umpisokea	-10148
▁unohtanut	-10149
▁uudistalo	-10150
▁valmiiksi	-10151
▁vaunuissa	-10152
▁veistelee	-10153
▁velikulta	-10154
▁verisellä	-10155
▁vertaista	-10156
▁vihaisena	-10157
▁viimeinpä	-10158
▁viimeiset	-10159
▁viimeistä	-10160
▁väsymättä	-10161
▁yhdenkään	-10162
▁ystävästä	-10163
▁yölliseen	-10164
ittämisestä	-10165
mättömyyden	-10166
▁Ainoastaan	-10167
▁Ilvesjärvi	-10168
▁Jukolaiset	-10169
▁Kauhistuen	-10170
▁Oivallinen	-10171
▁Tapahtuipa	-10172
▁Valeleppas	-10173
▁Viimeisenä	-10174
▁alastomina	-10175
▁etunenässä	-10176
▁haavojansa	-10177
▁hellitteli	-10178
▁helvetiksi	-10179
▁hirmutöitä	-10180
▁hiuskarvan	-10181
▁hurskasten	-10182
▁hävityksen	-10183
▁jauhokuono	-10184
▁joutsimies	-10185
▁juopuneena	-10186
▁kadotuksen	-10187
▁kappaleita	-10188
▁kartanolla	-10189
▁katsahteli	-10190
▁katseltiin	-10191
▁katsomassa	-10192
▁kaupunkiin	-10193
▁kidastansa	-10194
▁kierrellen	-10195
▁kihlakalut	-10196
▁kiljunalla	-10197
▁kiljuvalla	-10198
▁kirveskynä	-10199
▁kiukkuinen	-10200
▁kohtasivat	-10201
▁kukkasilla	-10202
▁kurkkuunsa	-10203
▁kuusistoon	-10204
▁kädellänsä	-10205
▁kärmeitten	-10206
▁lukeakkaan	-10207
▁lyhykäinen	-10208
▁lähestyisi	-10209
▁lävistetty	-10210
▁löylytystä	-10211
▁maailmalle	-10212
▁makkaroita	-10213
▁mielisinpä	-10214
▁muistoonsa	-10215
▁määrättiin	-10216
▁nauttimaan	-10217
▁nuorimpaan	-10218
▁nyrkkiänsä	-10219
▁oloillansa	-10220
▁omantunnon	-10221
▁onnellisna	-10222
▁osoittanut	-10223
▁ottakaamme	-10224
▁paukahteli	-10225
▁pehmitetty	-10226
▁peitteeksi	-10227
▁pelastanut	-10228
▁perkeleitä	-10229
▁perkelettä	-10230
▁perätysten	-10231
▁piimäparta	-10232
▁pimeydessä	-10233
▁pinnisteli	-10234
▁pohjosesta	-10235
▁puhettansa	-10236
▁pulloratta	-10237
▁punersivat	-10238
▁pyörähteli	-10239
▁pääsemästä	-10240
▁päästyänsä	-10241
▁pöllyttäjä	-10242
▁ratsastaen	-10243
▁riivatusti	-10244
▁rohkenivat	-10245
▁rovastille	-10246
▁rukoilemme	-10247
▁rukoilivat	-10248
▁saattamaan	-10249
▁seurakunta	-10250
▁singahteli	-10251
▁sorkkiansa	-10252
▁talonpojan	-10253
▁tavallisen	-10254
▁tehtävänsä	-10255
▁teroitettu	-10256
▁tuommoisia	-10257
▁tuulispään	-10258
▁tuumiskeli	-10259
▁tynnöristä	-10260
▁ukkospilvi	-10261
▁uneksuivat	-10262
▁unohtaneet	-10263
▁vaeltamaan	-10264
▁vaikenivat	-10265
▁vainioilla	-10266
▁valjetessa	-10267
▁valkeuteen	-10268
▁vastuksiin	-10269
▁vietteeksi	-10270
▁vihoissaan	-10271
▁vilpitöntä	-10272
▁viskasivat	-10273
▁voitelivat	-10274
▁välillemme	-10275
▁väännellen	-10276
▁yhteiseksi	-10277
▁äänellänsä	-10278
emäisillänsä	-10279
▁Huutakaamme	-10280
▁Jukolaisten	-10281
▁Luhtaniitun	-10282
▁Parakraaffi	-10283
▁Tammistossa	-10284
▁Tammistosta	-10285
▁Tervakosken	-10286
▁aapiskirjat	-10287
▁atrioinneet	-10288
▁ehtoollista	-10289
▁hampaitansa	-10290
▁harjoitteli	-10291
▁hartaudella	-10292
▁helmeilevää	-10293
▁heristellen	-10294
▁hiihtelivät	-10295
▁hirmuiseksi	-10296
▁hirmumyrsky	-10297
▁houkuttelee	-10298
▁hummaukseen	-10299
▁hurjapäistä	-10300
▁ihmeellistä	-10301
▁ilmoittanut	-10302
▁iltahetkenä	-10303
▁isännyyteen	-10304
▁jalkapuuhun	-10305
▁jäljessänsä	-10306
▁kallionkiel	-10307
▁kamoittavan	-10308
▁kantapäissä	-10309
▁kantoisella	-10310
▁katsahtivat	-10311
▁katsannolla	-10312
▁kauluksesta	-10313
▁kaupungissa	-10314
▁kerjäläinen	-10315
▁keskellänsä	-10316
▁kirkkotietä	-10317
▁kirmaistiin	-10318
▁kiukkuisena	-10319
▁koillisessa	-10320
▁kristittyjä	-10321
▁kummallakin	-10322
▁kumppaninsa	-10323
▁kuusistossa	-10324
▁kynnyksellä	-10325
▁kärsivällis	-10326
▁käydessämme	-10327
▁lapsekkaita	-10328
▁lautamiehen	-10329
▁leivänpalan	-10330
▁mahdollista	-10331
▁massahtelee	-10332
▁miekallansa	-10333
▁mielestänsä	-10334
▁mullerrusta	-10335
▁murenaakaan	-10336
▁niskassamme	-10337
▁nyrkillänsä	-10338
▁oppiaksensa	-10339
▁palkinnoksi	-10340
▁pelastamaan	-10341
▁peloittavaa	-10342
▁pensastosta	-10343
▁permannolla	-10344
▁pirtissänsä	-10345
▁pirtistänsä	-10346
▁porstuvasta	-10347
▁provastille	-10348
▁puolestansa	-10349
▁puolipäivän	-10350
▁purjehdimme	-10351
▁puuskuttaen	-10352
▁pöllähtivät	-10353
▁retkellensä	-10354
▁räiskynällä	-10355
▁saaliinensa	-10356
▁saalistansa	-10357
▁saavuttanut	-10358
▁sammaleisen	-10359
▁santaisella	-10360
▁sudentarhan	-10361
▁suksillansa	-10362
▁tanssittiin	-10363
▁tuijoitteli	-10364
▁tuiskahteli	-10365
▁tuulenpesää	-10366
▁vallesmanni	-10367
▁vanhimmasta	-10368
▁vankkureita	-10369
▁vastakynttä	-10370
▁veljiltänsä	-10371
▁vieressänsä	-10372
▁viheliäinen	-10373
▁vikkelämmin	-10374
▁voimallisen	-10375
▁ylisniskoin	-10376
▁ymmärtämään	-10377
▁Koettakaamme	-10378
▁Rientäkäämme	-10379
▁aatoksissaan	-10380
▁avioliittoon	-10381
▁harjanteella	-10382
▁hengettömänä	-10383
▁herttaisessa	-10384
▁hiihtelemään	-10385
▁hillitsemään	-10386
▁härjänvuotia	-10387
▁ilmoittamaan	-10388
▁kahvinkeittä	-10389
▁kallistuivat	-10390
▁katsahdellen	-10391
▁keskivälissä	-10392
▁killistellen	-10393
▁kohtuullinen	-10394
▁koirasmetson	-10395
▁kokoontuivat	-10396
▁kristillisen	-10397
▁levottomaksi	-10398
▁lumivalkeana	-10399
▁metsonpoikaa	-10400
▁pasteerailee	-10401
▁peninkulmien	-10402
▁pystyvalkian	-10403
▁rakentelivat	-10404
▁saavuttamaan	-10405
▁sanomattoman	-10406
▁tarkoittanut	-10407
▁tuhansittain	-10408
▁tuijoitellen	-10409
▁tuumiskellut	-10410
▁tyytyväisinä	-10411
▁ulkopuolella	-10412
▁vihamiehensä	-10413
▁ympyrjäisinä	-10414
▁Hiidenkivelle	-10415
▁Ilvesjärvelle	-10416
▁Neljäkymmentä	-10417
▁Voimallisesti	-10418
▁atrioitsemaan	-10419
▁jokapäiväinen	-10420
▁kaksikymmentä	-10421
▁kaksinkerroin	-10422
▁kummallisesta	-10423
▁nahkapeitturi	-10424
▁pelastuksemme	-10425
▁peloittavasti	-10426
▁sammaleiselle	-10427
▁tervaskantoja	-10428
▁vihamiestensä	-10429
▁viherjöitsevä	-10430
▁Männistönmuori	-10431
▁harjoittelivat	-10432
▁hiljaisuudessa	-10433
▁keskustelemaan	-10434
▁kunniallisesti	-10435
▁läimäyttelivät	-10436
▁murheellisesti	-10437
▁mustanpunainen	-10438
▁tallinparvella	-10439
▁toinentoisensa	-10440
▁toinentoistansa	-10441
Hy	-10442
Ki	-10443
Ol	-10444
SE	-10445
Va	-10446
hy	-10447
je	-10448
kh	-10449
nu	-10450
su	-10451
äy	-10452
DES	-10453
EIT	-10454
Hel	-10455
Jaa	-10456
Käy	-10457
Tar	-10458
aja	-10459
ale	-10460
apo	-10461
ara	-10462
esk	-10463
eyd	-10464
ihd	-10465
ivä	-10466
jah	-10467
jap	-10468
kah	-10469
kky	-10470
ksä	-10471
kyr	-10472
lia	-10473
lmä	-10474
löö	-10475
moa	-10476
muo	-10477
myr	-10478
nas	-10479
nes	-10480
pim	-10481
poo	-10482
pua	-10483
pyn	-10484
ros	-10485
ryt	-10486
set	-10487
suk	-10488
sun	-10489
tät	-10490
töö	-10491
upu	-10492
yjä	-10493
yll	-10494
äys	-10495
öit	-10496
▁--	-10497
▁Ho	-10498
▁Ro	-10499
mio	-10500
▁Kö	-10501
▁Ve	-10502
...»	-10503
EKSE	-10504
Kauh	-10505
Mene	-10506
Meni	-10507
ahaa	-10508
aisi	-10509
alja	-10510
arvo	-10511
asit	-10512
asoo	-10513
avat	-10514
eimm	-10515
emen	-10516
enet	-10517
enpä	-10518
esus	-10519
etan	-10520
etyn	-10521
haam	-10522
htel	-10523
hätä	-10524
iesi	-10525
ijyä	-10526
ilys	-10527
iman	-10528
imma	-10529
inan	-10530
inin	-10531
ital	-10532
itar	-10533
itiä	-10534
jova	-10535
kain	-10536
kaul	-10537
kene	-10538
kkun	-10539
kkyä	-10540
kons	-10541
kylk	-10542
käla	-10543
lauk	-10544
llyä	-10545
llön	-10546
mail	-10547
mani	-10548
mion	-10549
mmon	-10550
mola	-10551
mpaa	-10552
mpas	-10553
mpiä	-10554
mpär	-10555
muja	-10556
olää	-10557
onni	-10558
oppi	-10559
pale	-10560
para	-10561
pats	-10562
peta	-10563
pias	-10564
pino	-10565
pivo	-10566
poja	-10567
ppii	-10568
ppää	-10569
puun	-10570
puus	-10571
ruuk	-10572
sani	-10573
silm	-10574
sinä	-10575
ssut	-10576
stal	-10577
sään	-10578
tass	-10579
tekö	-10580
tälä	-10581
töjä	-10582
umpp	-10583
urat	-10584
utoi	-10585
veni	-10586
vuor	-10587
ykel	-10588
ylle	-10589
yrön	-10590
ysil	-10591
ytön	-10592
yydä	-10593
äkin	-10594
örää	-10595
▁Aha	-10596
▁Ehd	-10597
▁Hin	-10598
▁Jul	-10599
Mi	-10600
Voi	-10601
olv	-10602
oti	-10603
▁ev	-10604
▁up	-10605
holl	-10606
kapu	-10607
noka	-10608
paro	-10609
uhia	-10610
▁Jyr	-10611
▁Jäl	-10612
▁Jää	-10613
▁Kam	-10614
▁Kei	-10615
▁Ket	-10616
▁Lih	-10617
▁Lii	-10618
▁Syl	-10619
▁Väs	-10620
▁YHD	-10621
▁Yht	-10622
▁aih	-10623
▁ajo	-10624
▁apu	-10625
▁elo	-10626
▁emo	-10627
▁hie	-10628
▁hoo	-10629
▁hor	-10630
▁imm	-10631
▁kek	-10632
▁kyö	-10633
▁köh	-10634
▁let	-10635
▁liv	-10636
▁loh	-10637
▁myn	-10638
▁möy	-10639
▁ohd	-10640
▁ots	-10641
▁poj	-10642
▁rie	-10643
▁ryp	-10644
▁räv	-10645
▁sih	-10646
▁sut	-10647
▁tyl	-10648
▁tyr	-10649
▁tyy	-10650
▁tön	-10651
▁uis	-10652
▁uus	-10653
▁äkö	-10654
▁ärj	-10655
...--	-10656
EKSET	-10657
Herra	-10658
Kaisa	-10659
Mikko	-10660
aalle	-10661
aavan	-10662
ahtaa	-10663
anian	-10664
annaa	-10665
asipa	-10666
attia	-10667
attis	-10668
attua	-10669
autti	-10670
dasta	-10671
dissä	-10672
dolle	-10673
eetön	-10674
ekaat	-10675
ellas	-10676
eltää	-10677
enkin	-10678
ennen	-10679
ereen	-10680
evätä	-10681
halko	-10682
harja	-10683
hdake	-10684
hinta	-10685
härkä	-10686
iaisk	-10687
iinaa	-10688
iinne	-10689
ikaat	-10690
ilmat	-10691
imman	-10692
ineet	-10693
inhan	-10694
innan	-10695
intua	-10696
ipolv	-10697
ipuol	-10698
ituis	-10699
bb	-10700
Kul	-10701
hev	-10702
itu	-10703
tem	-10704
työ	-10705
aili	-10706
itys	-10707
reja	-10708
▁Mon	-10709
ELJÄS	-10710
essas	-10711
jattu	-10712
jellä	-10713
juttu	-10714
jänis	-10715
kahti	-10716
kanne	-10717
katen	-10718
kelta	-10719
kerin	-10720
kessa	-10721
kevat	-10722
kilju	-10723
kkaat	-10724
kkain	-10725
kkipi	-10726
kkoka	-10727
kukko	-10728
kunne	-10729
kuopp	-10730
kutsi	-10731
kuvat	-10732
kylän	-10733
käksi	-10734
käran	-10735
käten	-10736
käypä	-10737
lalle	-10738
lauma	-10739
lleni	-10740
läpes	-10741
maito	-10742
maton	-10743
matun	-10744
miset	-10745
mmeen	-10746
mmeni	-10747
mmesi	-10748
moten	-10749
nonen	-10750
nämme	-10751
oakin	-10752
oovan	-10753
osten	-10754
ottis	-10755
pappi	-10756
parat	-10757
peili	-10758
perin	-10759
peätä	-10760
pohja	-10761
ppien	-10762
pässi	-10763
rasti	-10764
raten	-10765
retki	-10766
rojen	-10767
ruuna	-10768
sakra	-10769
sataa	-10770
silta	-10771
skaan	-10772
teltu	-10773
terve	-10774
tohon	-10775
tomat	-10776
toova	-10777
tulle	-10778
tuuma	-10779
tyttä	-10780
tyypä	-10781
tävää	-10782
tönsä	-10783
uijia	-10784
uinen	-10785
usipa	-10786
utana	-10787
utuen	-10788
utuol	-10789
velee	-10790
vämme	-10791
västä	-10792
ykmän	-10793
yttön	-10794
äiset	-10795
ärkeä	-10796
äälle	-10797
öistä	-10798
▁Aamu	-10799
Jus	-10800
enn	-10801
ekse	-10802
over	-10803
pohj	-10804
▁Pöy	-10805
▁all	-10806
▁elj	-10807
▁ort	-10808
▁tup	-10809
hetys	-10810
malle	-10811
misia	-10812
pesää	-10813
säkki	-10814
yssää	-10815
▁Auta	-10816
▁Enkä	-10817
▁Enkö	-10818
▁Joko	-10819
▁KAHD	-10820
▁Kaiv	-10821
▁Kana	-10822
▁Kiit	-10823
▁Koko	-10824
▁Kulk	-10825
▁Laps	-10826
▁Miks	-10827
▁Näet	-10828
▁Onne	-10829
▁Otti	-10830
▁Puhu	-10831
▁Pull	-10832
▁Rann	-10833
▁SEIT	-10834
▁Saat	-10835
▁Sera	-10836
▁Siir	-10837
▁Sota	-10838
▁Syön	-10839
▁Tamp	-10840
▁Tarv	-10841
▁Ulja	-10842
▁Uusi	-10843
▁Varr	-10844
▁Veit	-10845
▁anti	-10846
▁asuk	-10847
▁asuu	-10848
▁auti	-10849
▁avaa	-10850
▁avos	-10851
▁elat	-10852
▁elik	-10853
▁ereh	-10854
▁hier	-10855
▁home	-10856
▁huiv	-10857
▁hyrä	-10858
▁hämy	-10859
▁hävä	-10860
▁imee	-10861
▁jopa	-10862
▁kaah	-10863
▁kehn	-10864
▁kima	-10865
▁krou	-10866
▁kuud	-10867
▁kyyr	-10868
▁kyyt	-10869
▁käsk	-10870
▁käyn	-10871
▁kömm	-10872
▁kömö	-10873
▁lies	-10874
▁luen	-10875
▁luke	-10876
▁löys	-10877
▁maah	-10878
▁mako	-10879
▁mels	-10880
▁musi	-10881
▁mäet	-10882
▁mäll	-10883
▁naas	-10884
▁nään	-10885
▁ohja	-10886
▁oika	-10887
▁olit	-10888
▁olki	-10889
▁opit	-10890
▁osat	-10891
▁paid	-10892
▁palj	-10893
▁pani	-10894
▁pass	-10895
▁piel	-10896
▁pohd	-10897
▁poja	-10898
▁poru	-10899
aap	-10900
hea	-10901
ivet	-10902
main	-10903
ress	-10904
uava	-10905
▁Vik	-10906
▁nap	-10907
iskuu	-10908
karit	-10909
kojen	-10910
mäkeä	-10911
suova	-10912
▁Kaat	-10913
▁Mimm	-10914
▁Määr	-10915
▁povi	-10916
▁pren	-10917
▁puki	-10918
▁pämp	-10919
▁pöyd	-10920
▁raha	-10921
▁rako	-10922
▁rapp	-10923
▁ries	-10924
▁roih	-10925
▁roim	-10926
▁ruom	-10927
▁ruos	-10928
▁ruuh	-10929
▁ruve	-10930
▁räss	-10931
▁sair	-10932
▁siki	-10933
▁sill	-10934
▁soid	-10935
▁sois	-10936
▁syön	-10937
▁takk	-10938
▁tarj	-10939
▁taut	-10940
▁teet	-10941
▁tunn	-10942
▁tunt	-10943
▁tyyd	-10944
▁töll	-10945
▁uisa	-10946
▁ulla	-10947
▁unip	-10948
▁vaij	-10949
▁vars	-10950
▁veik	-10951
▁viik	-10952
▁vuot	-10953
▁välj	-10954
▁äkkä	-10955
▁äskö	-10956
▁öitä	-10957
Heikin	-10958
Kauhea	-10959
Niinpä	-10960
Seuraa	-10961
Ventta	-10962
assaan	-10963
assasi	-10964
astuja	-10965
dellen	-10966
ekkään	-10967
elakki	-10968
elevan	-10969
elivät	-10970
emistä	-10971
empata	-10972
enttää	-10973
estari	-10974
ettaan	-10975
etyksi	-10976
evalle	-10977
evällä	-10978
gollis	-10979
hammas	-10980
hdelta	-10981
htelet	-10982
ikalle	-10983
ikappa	-10984
ikkoon	-10985
ikkyis	-10986
ikolle	-10987
ikolää	-10988
ikosta	-10989
ikseen	-10990
ilassa	-10991
ilette	-10992
illani	-10993
illeet	-10994
imella	-10995
imilla	-10996
impain	-10997
impina	-10998
inemme	-10999
Kos	-11000
anto	-11001
kkiö	-11002
usen	-11003
veis	-11004
vele	-11005
▁lon	-11006
▁lui	-11007
▁ölj	-11008
eestä	-11009
hilla	-11010
iakin	-11011
kyttä	-11012
llata	-11013
uttuu	-11014
▁Hehh	-11015
▁Jopa	-11016
▁Rats	-11017
▁kuis	-11018
▁luut	-11019
▁ploo	-11020
▁rääk	-11021
▁suin	-11022
iniska	-11023
innass	-11024
isarin	-11025
isemme	-11026
isevät	-11027
isiksi	-11028
isinsa	-11029
iskoin	-11030
iskäys	-11031
ismies	-11032
issäni	-11033
isteri	-11034
istyks	-11035
itellä	-11036
ivästä	-11037
iäinen	-11038
jaanit	-11039
juhlan	-11040
kaansa	-11041
kaavan	-11042
keaksi	-11043
kirkko	-11044
kirves	-11045
kitaan	-11046
kittel	-11047
kivoim	-11048
kkasen	-11049
komaat	-11050
ksellä	-11051
ksisin	-11052
kuttaa	-11053
kuussa	-11054
käleen	-11055
lakkar	-11056
liiton	-11057
llanne	-11058
llekin	-11059
llisin	-11060
llämme	-11061
lämäki	-11062
läästi	-11063
maamme	-11064
maljaa	-11065
meensa	-11066
moista	-11067
neeksi	-11068
neensä	-11069
oinhan	-11070
oisena	-11071
oiskis	-11072
oitaan	-11073
oitten	-11074
ojansa	-11075
osilla	-11076
ossani	-11077
ostaan	-11078
ostani	-11079
ottava	-11080
ottuna	-11081
paikan	-11082
pensas	-11083
peällä	-11084
peänsä	-11085
poikia	-11086
porstu	-11087
puussa	-11088
päivää	-11089
päästä	-11090
riisen	-11091
rässyä	-11092
sitaan	-11093
taasti	-11094
teestä	-11095
televä	-11096
tomaan	-11097
ttävät	-11098
täkään	-11099
Lähd	-11100
kaus	-11101
mpia	-11102
tuas	-11103
ynkä	-11104
▁Ahd	-11105
▁Ruk	-11106
dotti	-11107
neksi	-11108
temme	-11109
tomia	-11110
torni	-11111
tuipa	-11112
uudan	-11113
▁kope	-11114
▁lauh	-11115
▁löyd	-11116
▁saiv	-11117
▁suoj	-11118
▁vang	-11119
kaupun	-11120
makkar	-11121
toomme	-11122
ukalle	-11123
ukiksi	-11124
ukkaan	-11125
ukkaro	-11126
unoita	-11127
urykel	-11128
utemme	-11129
utissa	-11130
uutesi	-11131
vaatte	-11132
vainen	-11133
vallan	-11134
vinkiä	-11135
vinnut	-11136
voinpa	-11137
voitta	-11138
väinen	-11139
yskeli	-11140
yttöni	-11141
älukij	-11142
ässään	-11143
▁Aapel	-11144
▁Annan	-11145
▁Eijaa	-11146
▁Eivät	-11147
▁Ettäs	-11148
▁Eukko	-11149
▁Haari	-11150
▁Hevos	-11151
▁Honka	-11152
▁Hullu	-11153
▁Huoma	-11154
▁Hyvän	-11155
▁Jalli	-11156
▁Johan	-11157
▁Kaape	-11158
▁Kauni	-11159
▁Kaura	-11160
▁Kiitä	-11161
▁Kruun	-11162
▁Kului	-11163
▁Kunni	-11164
▁Kurja	-11165
▁Kyrön	-11166
▁Kysyi	-11167
▁Lakki	-11168
▁Luhta	-11169
▁Mörää	-11170
▁Niitä	-11171
▁Nimen	-11172
▁Nouse	-11173
▁Paava	-11174
▁Pitkä	-11175
▁Potra	-11176
▁Puhal	-11177
▁Rauha	-11178
▁Routi	-11179
▁Rynkä	-11180
▁Salli	-11181
▁Samaa	-11182
▁Sanoi	-11183
▁Sipir	-11184
▁Sonni	-11185
▁Surut	-11186
▁Syvän	-11187
▁Tulee	-11188
▁Turku	-11189
▁Turun	-11190
▁Vihan	-11191
▁ahven	-11192
▁aidat	-11193
▁aikan	-11194
▁alkaa	-11195
▁allas	-11196
▁apuun	-11197
▁arkio	-11198
▁arkun	-11199
isl	-11200
jos	-11201
lau	-11202
piä	-11203
määr	-11204
uhta	-11205
vuus	-11206
▁Huu	-11207
▁alh	-11208
▁pap	-11209
ikuor	-11210
uloja	-11211
▁Aita	-11212
▁kaas	-11213
▁kraa	-11214
▁peil	-11215
▁ripp	-11216
▁sall	-11217
atulle	-11218
einaat	-11219
iltani	-11220
ivalla	-11221
mmehan	-11222
mmitty	-11223
mpikin	-11224
▁Kyltä	-11225
▁Lausu	-11226
▁aseen	-11227
▁aseta	-11228
▁astut	-11229
▁auken	-11230
▁edell	-11231
▁ehtiä	-11232
▁entis	-11233
▁erota	-11234
▁eräma	-11235
▁esiko	-11236
▁estää	-11237
▁etuan	-11238
▁harha	-11239
▁havun	-11240
▁hehku	-11241
▁helli	-11242
▁hinna	-11243
▁hohte	-11244
▁huoju	-11245
▁huvit	-11246
▁hytty	-11247
▁hyödy	-11248
▁häijy	-11249
▁häitä	-11250
▁iijaa	-11251
▁iskun	-11252
▁isois	-11253
▁istun	-11254
▁jalon	-11255
▁jouta	-11256
▁juhta	-11257
▁juoda	-11258
▁juoni	-11259
▁jutel	-11260
▁jysky	-11261
▁jyvät	-11262
▁järki	-11263
▁jäärä	-11264
▁kahta	-11265
▁kahvi	-11266
▁kalut	-11267
▁kamos	-11268
▁kansi	-11269
▁karru	-11270
▁katto	-11271
▁katua	-11272
▁keräj	-11273
▁kidan	-11274
▁kieto	-11275
▁kimma	-11276
▁kinta	-11277
▁kipin	-11278
▁kitas	-11279
▁kivim	-11280
▁kohda	-11281
▁koipe	-11282
▁koita	-11283
▁komen	-11284
▁korte	-11285
▁koton	-11286
▁kotop	-11287
▁kuhka	-11288
▁kuhmo	-11289
▁kukku	-11290
▁kulon	-11291
▁käysk	-11292
▁laina	-11293
▁lakia	-11294
▁lauma	-11295
▁lempe	-11296
▁lensi	-11297
▁levät	-11298
▁lihat	-11299
gin	-11300
tös	-11301
aska	-11302
etsi	-11303
▁Epä	-11304
kkila	-11305
leuka	-11306
losta	-11307
vinän	-11308
vitta	-11309
▁Elle	-11310
▁ampu	-11311
▁hame	-11312
▁kevä	-11313
▁kyps	-11314
▁mörä	-11315
▁säng	-11316
▁ärjä	-11317
estäni	-11318
htelin	-11319
iminen	-11320
▁Nahka	-11321
▁Sinun	-11322
▁Virna	-11323
▁aherr	-11324
▁liike	-11325
▁liipp	-11326
▁liitt	-11327
▁likan	-11328
▁linja	-11329
▁lokaa	-11330
▁luikk	-11331
▁luuli	-11332
▁lyhen	-11333
▁lääke	-11334
▁malta	-11335
▁masto	-11336
▁munia	-11337
▁mylly	-11338
▁mäkii	-11339
▁mökki	-11340
▁naima	-11341
▁neits	-11342
▁nimen	-11343
▁nokka	-11344
▁nosta	-11345
▁nurru	-11346
▁nylki	-11347
▁näkis	-11348
▁näytä	-11349
▁ohdak	-11350
▁ojast	-11351
▁olkis	-11352
▁omana	-11353
▁otsaa	-11354
▁paino	-11355
▁panen	-11356
▁pannu	-11357
▁panta	-11358
▁passi	-11359
▁patsa	-11360
▁pedon	-11361
▁pelas	-11362
▁petoa	-11363
▁pikii	-11364
▁pikip	-11365
▁pohjo	-11366
▁potki	-11367
▁poven	-11368
▁proto	-11369
▁puhta	-11370
▁puhua	-11371
▁puhuu	-11372
▁punar	-11373
▁puola	-11374
▁puren	-11375
▁pusse	-11376
▁pysäh	-11377
▁pysäy	-11378
▁rahaa	-11379
▁rahat	-11380
▁raiti	-11381
▁reisi	-11382
▁reuto	-11383
▁revit	-11384
▁riipu	-11385
▁riitä	-11386
▁risti	-11387
▁runto	-11388
▁rähmä	-11389
▁räikk	-11390
▁saapa	-11391
▁saapu	-11392
▁saati	-11393
▁saisi	-11394
▁salon	-11395
▁samen	-11396
▁sarko	-11397
▁seipä	-11398
▁senpä	-11399
heän	-11400
peys	-11401
vätä	-11402
▁Kie	-11403
▁Uut	-11404
▁hyy	-11405
▁nir	-11406
▁sän	-11407
essin	-11408
uvaan	-11409
valta	-11410
▁Verr	-11411
▁osan	-11412
▁piin	-11413
ikalla	-11414
iskuna	-11415
kautti	-11416
kkolan	-11417
llisiä	-11418
tuutta	-11419
▁Hahaa	-11420
▁Hyvää	-11421
▁Jumpp	-11422
▁Kuppa	-11423
▁Talon	-11424
▁Tuuli	-11425
▁huhto	-11426
▁hyypi	-11427
▁kuver	-11428
▁luita	-11429
▁lähen	-11430
▁pirun	-11431
▁sieka	-11432
▁sikaa	-11433
▁somma	-11434
▁sorme	-11435
▁sormi	-11436
▁sotke	-11437
▁sukim	-11438
▁sukka	-11439
▁suutu	-11440
▁syhel	-11441
▁syhyy	-11442
▁sytyt	-11443
▁syven	-11444
▁syvän	-11445
▁taipu	-11446
▁takku	-11447
▁talli	-11448
▁talot	-11449
▁tammi	-11450
▁teeri	-11451
▁teräv	-11452
▁tieno	-11453
▁tiimm	-11454
▁touha	-11455
▁touko	-11456
▁tuhon	-11457
▁tulit	-11458
▁tähkä	-11459
▁täysi	-11460
▁töyke	-11461
▁töyry	-11462
▁uniho	-11463
▁vaipu	-11464
▁valti	-11465
▁verik	-11466
▁veroa	-11467
▁verra	-11468
▁vetoa	-11469
▁viill	-11470
▁viita	-11471
▁vilpp	-11472
▁vimma	-11473
▁yleni	-11474
▁äijän	-11475
▁ämpär	-11476
▁ärryt	-11477
▁öisen	-11478
aisitko	-11479
antaita	-11480
eksensä	-11481
elliset	-11482
eltävän	-11483
emiseen	-11484
emputus	-11485
eskella	-11486
essanne	-11487
etuilla	-11488
fiimein	-11489
haltija	-11490
ikkesin	-11491
iksikin	-11492
imakkar	-11493
intäkin	-11494
ipittää	-11495
isinkin	-11496
iskahda	-11497
iskatun	-11498
istavat	-11499
hih	-11500
him	-11501
▁Mö	-11502
▁hm	-11503
ität	-11504
känä	-11505
misi	-11506
nien	-11507
ujen	-11508
väen	-11509
ätty	-11510
ehtia	-11511
ipöyt	-11512
kkani	-11513
kkola	-11514
mutta	-11515
tellä	-11516
▁Sääs	-11517
▁kakk	-11518
▁lään	-11519
▁nuij	-11520
▁nylj	-11521
▁odot	-11522
▁piis	-11523
itystä	-11524
keinoa	-11525
keällä	-11526
ksähti	-11527
parkaa	-11528
▁pella	-11529
▁pisto	-11530
▁rupea	-11531
▁seila	-11532
▁suotu	-11533
ettivat	-11534
istusta	-11535
istämme	-11536
isuuden	-11537
isyyttä	-11538
itaakos	-11539
itsimme	-11540
ittekin	-11541
ittensa	-11542
ituilla	-11543
jatonna	-11544
juhlaan	-11545
juttuja	-11546
kahteli	-11547
kalteva	-11548
kappale	-11549
kassaan	-11550
katkism	-11551
kevällä	-11552
kisinpä	-11553
kisteli	-11554
kkaanko	-11555
kkolain	-11556
kkoonsa	-11557
kkäästi	-11558
kseeraa	-11559
kustani	-11560
kutteli	-11561
kähteli	-11562
llekaan	-11563
llenkin	-11564
llisena	-11565
llisenä	-11566
läätälä	-11567
maankin	-11568
mekosta	-11569
mestari	-11570
misensa	-11571
mmäisen	-11572
mpiäkin	-11573
nahasta	-11574
olainen	-11575
ollinen	-11576
onnehan	-11577
ostamme	-11578
ottomia	-11579
poikani	-11580
pulliin	-11581
päiseen	-11582
rahampa	-11583
raiskan	-11584
retkill	-11585
sittiin	-11586
stuansa	-11587
taammin	-11588
takseen	-11589
talonsa	-11590
talossa	-11591
tasivat	-11592
tauteja	-11593
telkööt	-11594
tellaan	-11595
tunutta	-11596
tyneenä	-11597
täänpäs	-11598
tömässä	-11599
mon	-11600
jina	-11601
▁Imp	-11602
eetat	-11603
htele	-11604
khaar	-11605
tetut	-11606
vestä	-11607
vuori	-11608
äärät	-11609
▁Sekä	-11610
▁aate	-11611
▁haal	-11612
▁itku	-11613
▁make	-11614
▁piik	-11615
▁turs	-11616
iakaan	-11617
iskaat	-11618
menttu	-11619
otteli	-11620
tomana	-11621
vastus	-11622
voilla	-11623
▁eukon	-11624
▁myyrä	-11625
▁ohran	-11626
▁raket	-11627
▁selko	-11628
▁telki	-11629
▁uunia	-11630
▁äköit	-11631
attavan	-11632
estystä	-11633
uhtinas	-11634
ukselle	-11635
utamies	-11636
utetaan	-11637
uttaisi	-11638
vistoon	-11639
ytellen	-11640
ässämme	-11641
ästäkin	-11642
▁Hallin	-11643
▁Hehheh	-11644
▁Heistä	-11645
▁Hemmon	-11646
▁Hillit	-11647
▁Huikea	-11648
▁Härjät	-11649
▁Juoksi	-11650
▁Jussin	-11651
▁Juttuu	-11652
▁Kaitar	-11653
▁Kiesus	-11654
▁Kiittä	-11655
▁Killiä	-11656
▁Koetti	-11657
▁Korkea	-11658
▁Kreeta	-11659
▁Kuitti	-11660
▁Kylläs	-11661
▁Kyltät	-11662
▁Kymmen	-11663
▁Käänty	-11664
▁Könnin	-11665
▁Köntit	-11666
▁Linnut	-11667
▁Mikkoa	-11668
▁Mitäpä	-11669
▁NELJÄS	-11670
▁Näinpä	-11671
▁Olenko	-11672
▁Olette	-11673
▁Olkaat	-11674
▁Otahan	-11675
▁Paljas	-11676
▁Pianpa	-11677
▁Piekse	-11678
▁Pitäis	-11679
▁Poikia	-11680
▁Poikki	-11681
▁SEITSE	-11682
▁Saaman	-11683
▁Saapas	-11684
▁Saunan	-11685
▁Surkea	-11686
▁Taasen	-11687
▁Tanner	-11688
▁Tattis	-11689
▁Turkin	-11690
▁Unonen	-11691
▁Vaikea	-11692
▁Valkea	-11693
▁Vastat	-11694
▁Viaton	-11695
▁Ymmärr	-11696
▁ahding	-11697
▁ahosta	-11698
▁ajasta	-11699
inga	-11700
itus	-11701
verr	-11702
▁hol	-11703
eutta	-11704
ksiin	-11705
oksan	-11706
▁Hähh	-11707
▁Hämä	-11708
▁Neit	-11709
▁myöh	-11710
▁romm	-11711
evarin	-11712
istani	-11713
ivansa	-11714
▁Huuti	-11715
▁Laske	-11716
▁Oliko	-11717
▁aarni	-11718
▁höyry	-11719
▁jäädä	-11720
▁kovat	-11721
▁kurra	-11722
▁miesi	-11723
▁noidu	-11724
Eerosta	-11725
kaatpas	-11726
merikan	-11727
verroin	-11728
▁Hähhäh	-11729
▁Hämälä	-11730
▁Pahoin	-11731
▁Porstu	-11732
▁aittaa	-11733
▁alaspa	-11734
▁ammeet	-11735
▁annoit	-11736
▁anoppi	-11737
▁apriko	-11738
▁arolta	-11739
▁arvaan	-11740
▁arvoon	-11741
▁asettu	-11742
▁atriaa	-11743
▁ehkäpä	-11744
▁elinka	-11745
▁elosta	-11746
▁emmekä	-11747
▁eteeni	-11748
▁haaksi	-11749
▁haarun	-11750
▁halkos	-11751
▁hammas	-11752
▁hamppu	-11753
▁hankke	-11754
▁harvas	-11755
▁harven	-11756
▁hattar	-11757
▁haukan	-11758
▁havuja	-11759
▁heilut	-11760
▁helinä	-11761
▁henkeä	-11762
▁herneh	-11763
▁hienon	-11764
▁hiessä	-11765
▁hietaa	-11766
▁hiihtä	-11767
▁hikoen	-11768
▁himmeä	-11769
▁hiotta	-11770
▁huhmar	-11771
▁huiska	-11772
▁huolit	-11773
▁huomat	-11774
▁hyörin	-11775
▁härkän	-11776
▁höyryy	-11777
▁idässä	-11778
▁ihmeen	-11779
▁ilkeen	-11780
▁iltahä	-11781
▁iskeil	-11782
▁itkekö	-11783
▁jaksoi	-11784
▁jalkaa	-11785
▁jalope	-11786
▁janosi	-11787
▁johtaa	-11788
▁joutil	-11789
▁juoksu	-11790
▁juovuk	-11791
▁jussin	-11792
▁jyräys	-11793
▁jytinä	-11794
▁jäivät	-11795
▁järkev	-11796
▁järviä	-11797
▁kahaus	-11798
▁kahnus	-11799
▁NO	-11800
työn	-11801
öyry	-11802
▁Sul	-11803
▁himo	-11804
▁poim	-11805
Toisen	-11806
anneet	-11807
evillä	-11808
hirren	-11809
kutsui	-11810
ukkuva	-11811
vuodat	-11812
▁Hyvät	-11813
▁Viksa	-11814
▁körri	-11815
▁sulle	-11816
illisiä	-11817
otellen	-11818
ureessa	-11819
▁Karjan	-11820
▁Pyssyt	-11821
▁Tärkeä	-11822
▁aaveet	-11823
▁jupisi	-11824
▁kainon	-11825
▁kaltit	-11826
▁kaluja	-11827
▁kannen	-11828
▁kannua	-11829
▁karang	-11830
▁karjat	-11831
▁karkut	-11832
▁karpal	-11833
▁karvat	-11834
▁kastaa	-11835
▁kastua	-11836
▁kastui	-11837
▁katken	-11838
▁keksit	-11839
▁kelmeä	-11840
▁kenkär	-11841
▁kenoka	-11842
▁kerrat	-11843
▁ketään	-11844
▁kevään	-11845
▁kielen	-11846
▁kieppa	-11847
▁kiireh	-11848
▁kiivaa	-11849
▁kilpaa	-11850
▁kiltin	-11851
▁kilvan	-11852
▁kirkuu	-11853
▁kirosi	-11854
▁kiskoi	-11855
▁kitaan	-11856
▁kiulut	-11857
▁koipea	-11858
▁kokona	-11859
▁kolkon	-11860
▁kompas	-11861
▁koneen	-11862
▁korean	-11863
▁korpea	-11864
▁korska	-11865
▁koukun	-11866
▁kourin	-11867
▁kuhila	-11868
▁kuitti	-11869
▁kulaus	-11870
▁kuohuu	-11871
▁kuokka	-11872
▁kuolee	-11873
▁kuppaa	-11874
▁kurkea	-11875
▁kurkia	-11876
▁kutsum	-11877
▁kuuden	-11878
▁kuulla	-11879
▁kuumaa	-11880
▁kuussa	-11881
▁kylmiä	-11882
▁kyltät	-11883
▁kyräil	-11884
▁käheän	-11885
▁kärkäs	-11886
▁kärpät	-11887
▁käskys	-11888
▁käytti	-11889
▁kääpiä	-11890
▁laatti	-11891
▁lakiin	-11892
▁lannan	-11893
▁lauloi	-11894
▁laulua	-11895
▁lausua	-11896
▁leipoo	-11897
▁lemmen	-11898
▁lennät	-11899
!»--	-11900
aara	-11901
örpi	-11902
▁näy	-11903
kaste	-11904
kkeja	-11905
koira	-11906
käsen	-11907
pänsä	-11908
riepu	-11909
uumme	-11910
▁hämä	-11911
▁isol	-11912
▁knor	-11913
▁lill	-11914
▁mier	-11915
▁pyyt	-11916
ellaan	-11917
kaulus	-11918
puulla	-11919
ttimme	-11920
udasta	-11921
▁Muist	-11922
▁Ralla	-11923
▁förpi	-11924
▁isäsi	-11925
▁kunno	-11926
▁motko	-11927
▁turpa	-11928
tamista	-11929
▁Otamme	-11930
▁Viinaa	-11931
▁hämärä	-11932
▁kiskon	-11933
▁koetus	-11934
▁lihava	-11935
▁liinat	-11936
▁liitty	-11937
▁likist	-11938
▁lintus	-11939
▁liukui	-11940
▁loisto	-11941
▁loppua	-11942
▁loppuu	-11943
▁luikku	-11944
▁lukien	-11945
▁lumeen	-11946
▁luodit	-11947
▁luolat	-11948
▁luudan	-11949
▁luulet	-11950
▁luulin	-11951
▁luuran	-11952
▁länsit	-11953
▁lääkär	-11954
▁löimme	-11955
▁maansa	-11956
▁makean	-11957
▁marjaa	-11958
▁matkue	-11959
▁meitti	-11960
▁melske	-11961
▁menipä	-11962
▁metsäv	-11963
▁miekat	-11964
▁mielii	-11965
▁mielit	-11966
▁minuun	-11967
▁moiska	-11968
▁mojova	-11969
▁moskaa	-11970
▁muassa	-11971
▁muisti	-11972
▁munako	-11973
▁muoria	-11974
▁muotos	-11975
▁murhan	-11976
▁murhar	-11977
▁murkin	-11978
▁mustel	-11979
▁muutos	-11980
▁muutti	-11981
▁mykkin	-11982
▁myllyn	-11983
▁mäkien	-11984
▁mättää	-11985
▁mökkiä	-11986
▁nahjus	-11987
▁naukui	-11988
▁nauraa	-11989
▁naurua	-11990
▁nelisk	-11991
▁noidan	-11992
▁noidat	-11993
▁noissa	-11994
▁noitia	-11995
▁nuolet	-11996
▁nylkeä	-11997
▁nyrkit	-11998
▁nythän	-11999
▁Nu	-12000
▁Yö	-12001
uhti	-12002
uten	-12003
önsä	-12004
▁aas	-12005
▁mil	-12006
lapsi	-12007
▁Hiki	-12008
▁haja	-12009
▁hiip	-12010
▁luim	-12011
▁vaah	-12012
teensa	-12013
▁Ankar	-12014
▁Taava	-12015
▁aivos	-12016
▁iloss	-12017
▁itkua	-12018
▁keruu	-12019
▁kileä	-12020
▁latin	-12021
▁lypsä	-12022
▁matal	-12023
▁sovit	-12024
▁turva	-12025
▁Hällin	-12026
▁Parati	-12027
▁elävän	-12028
▁heleän	-12029
▁jalkas	-12030
▁jäänyt	-12031
▁keltar	-12032
▁kivika	-12033
▁kuulee	-12034
▁kuusta	-12035
▁köllit	-12036
▁lyijyä	-12037
▁nahkia	-12038
▁nyökyt	-12039
▁nälkäv	-12040
▁ohdake	-12041
▁ojassa	-12042
▁ojensi	-12043
▁olento	-12044
▁olihan	-12045
▁olkoot	-12046
▁olleen	-12047
▁olutki	-12048
▁omilla	-12049
▁onnell	-12050
▁opetat	-12051
▁orsien	-12052
▁ortten	-12053
▁ottaen	-12054
▁ottelo	-12055
▁paahte	-12056
▁painia	-12057
▁painui	-12058
▁paisto	-12059
▁paisuu	-12060
▁palava	-12061
▁paljas	-12062
▁palvel	-12063
▁pappia	-12064
▁pariin	-12065
▁peikot	-12066
▁pienem	-12067
▁pihkal	-12068
▁piikat	-12069
▁piispa	-12070
▁pilkan	-12071
▁pimeni	-12072
▁pitkiä	-12073
▁pitäis	-12074
▁pohdin	-12075
▁poissa	-12076
▁porras	-12077
▁poskil	-12078
▁poveen	-12079
▁poveni	-12080
▁puolis	-12081
▁puolus	-12082
▁puserr	-12083
▁puuhat	-12084
▁puukko	-12085
▁puussa	-12086
▁pyhien	-12087
▁pyhään	-12088
▁pyrkim	-12089
▁pystyy	-12090
▁pysyvä	-12091
▁pyytää	-12092
▁pyöräh	-12093
▁pyörää	-12094
▁päätin	-12095
▁päätty	-12096
▁päätyi	-12097
▁päätön	-12098
▁raaksi	-12099
▁B	-12100
lun	-12101
▁Jär	-12102
▁ist	-12103
ivyön	-12104
kussa	-12105
netta	-12106
▁Laur	-12107
▁Mars	-12108
▁knää	-12109
ettäen	-12110
maailm	-12111
▁Hiisi	-12112
▁Sehän	-12113
▁jumis	-12114
▁kirma	-12115
▁tavaa	-12116
▁vaivu	-12117
▁verka	-12118
▁vikur	-12119
ilemään	-12120
uessaan	-12121
▁Rajamä	-12122
▁Rupesi	-12123
▁Senhän	-12124
▁hieros	-12125
▁hullua	-12126
▁kellon	-12127
▁kettua	-12128
▁korpin	-12129
▁koukut	-12130
▁kurjia	-12131
▁kurkun	-12132
▁kysyit	-12133
▁niskas	-12134
▁näreen	-12135
▁oppila	-12136
▁puujal	-12137
▁pääsit	-12138
▁raappa	-12139
▁raikka	-12140
▁raippa	-12141
▁raitti	-12142
▁rakkaa	-12143
▁rantaa	-12144
▁rautoi	-12145
▁riemua	-12146
▁riikin	-12147
▁riitaa	-12148
▁rommit	-12149
▁rosvot	-12150
▁ruisku	-12151
▁ruunan	-12152
▁ruusua	-12153
▁ruveta	-12154
▁ryhtyi	-12155
▁ryssän	-12156
▁räisky	-12157
▁rääkkä	-12158
▁saatat	-12159
▁saivar	-12160
▁sammut	-12161
▁saneli	-12162
▁sanoma	-12163
▁saparo	-12164
▁sarvit	-12165
▁sateli	-12166
▁sauvaa	-12167
▁savuaa	-12168
▁seinät	-12169
▁seisos	-12170
▁selkää	-12171
▁seppää	-12172
▁seutua	-12173
▁sielua	-12174
▁siipiä	-12175
▁sijoit	-12176
▁siunaa	-12177
▁soilla	-12178
▁soimaa	-12179
▁soitta	-12180
▁sormea	-12181
▁sorsan	-12182
▁sotaor	-12183
▁sotkee	-12184
▁sukset	-12185
▁sukula	-12186
▁sukuun	-12187
▁suulta	-12188
▁suussa	-12189
▁syksyn	-12190
▁sysiha	-12191
▁syttyi	-12192
▁syttyy	-12193
▁syvien	-12194
▁syöksi	-12195
▁säästä	-12196
▁söimme	-12197
▁taidon	-12198
▁taipua	-12199
tie	-12200
oits	-12201
ynsä	-12202
▁Nim	-12203
▁hun	-12204
▁sir	-12205
aalta	-12206
kapul	-12207
kenyt	-12208
lakki	-12209
mölöö	-12210
▁Ahah	-12211
▁anne	-12212
▁ontu	-12213
▁rans	-12214
▁tiuh	-12215
ikissä	-12216
▁Tikka	-12217
▁jalli	-12218
▁muser	-12219
▁pauke	-12220
▁piste	-12221
▁puita	-12222
▁pyysi	-12223
▁vinha	-12224
tomalla	-12225
▁Sanoin	-12226
▁hurjaa	-12227
▁ihanin	-12228
▁kaahaa	-12229
▁kahisi	-12230
▁kiirah	-12231
▁kiukun	-12232
▁messin	-12233
▁mällis	-12234
▁ottelu	-12235
▁puhees	-12236
▁ratsas	-12237
▁ruumen	-12238
▁takerr	-12239
▁takkia	-12240
▁talona	-12241
▁tarkas	-12242
▁tarkoi	-12243
▁tarpee	-12244
▁teistä	-12245
▁tempaa	-12246
▁tiuhan	-12247
▁tiukka	-12248
▁tornia	-12249
▁toteen	-12250
▁touvat	-12251
▁tralla	-12252
▁tuittu	-12253
▁tulipa	-12254
▁tumman	-12255
▁tuntia	-12256
▁tuomit	-12257
▁tuoppi	-12258
▁turpun	-12259
▁turvat	-12260
▁tuskan	-12261
▁tuulet	-12262
▁tyhjää	-12263
▁tyyntä	-12264
▁työnsä	-12265
▁tähtes	-12266
▁tähtiä	-12267
▁uhkeat	-12268
▁uisken	-12269
▁ukolle	-12270
▁ukulin	-12271
▁uuteen	-12272
▁vaisun	-12273
▁vaivaa	-12274
▁vaival	-12275
▁valken	-12276
▁valvei	-12277
▁varret	-12278
▁vaunut	-12279
▁velkaa	-12280
▁vellin	-12281
▁vetäen	-12282
▁viaton	-12283
▁vihais	-12284
▁vihani	-12285
▁vihasi	-12286
▁viheri	-12287
▁vihoit	-12288
▁viidan	-12289
▁viikat	-12290
▁villit	-12291
▁virkaa	-12292
▁vitkaa	-12293
▁voisin	-12294
▁voitin	-12295
▁vuokra	-12296
▁välima	-12297
▁yskien	-12298
▁öiseen	-12299
▁Z	-12300
enut	-12301
kkan	-12302
kkyy	-12303
ynpä	-12304
▁187	-12305
▁emä	-12306
avita	-12307
ikkia	-12308
isuus	-12309
itsev	-12310
teena	-12311
tänne	-12312
uvoja	-12313
▁elle	-12314
▁mäki	-12315
▁röhö	-12316
▁tiuk	-12317
▁täyd	-12318
▁vähä	-12319
htanut	-12320
hännän	-12321
imeksi	-12322
jaalla	-12323
rellut	-12324
tunnus	-12325
▁Muuta	-12326
▁huhma	-12327
▁lanke	-12328
▁lasta	-12329
▁mekko	-12330
▁parka	-12331
▁pukit	-12332
▁rysky	-12333
▁soida	-12334
▁viera	-12335
ellystä	-12336
janoova	-12337
▁Kekkur	-12338
▁ansion	-12339
▁avaten	-12340
▁heihin	-12341
▁hoikka	-12342
▁laisku	-12343
▁leksot	-12344
▁lähden	-12345
▁puuhun	-12346
▁pyhänä	-12347
▁taikin	-12348
▁uhosta	-12349
ESTOISTA	-12350
Impivaar	-12351
aamaisia	-12352
ahteleva	-12353
aikaisen	-12354
atkaamme	-12355
auringon	-12356
dossansa	-12357
eilemaan	-12358
eilemään	-12359
eillensä	-12360
eiltansa	-12361
ellisten	-12362
etaanpas	-12363
ettakaan	-12364
ettuansa	-12365
ettäköön	-12366
hapöllön	-12367
imiehenä	-12368
intainen	-12369
isevilla	-12370
isevästä	-12371
isimmeko	-12372
isimmekö	-12373
iskellyt	-12374
iskuilla	-12375
iskäytti	-12376
issakaan	-12377
istellyt	-12378
istuivat	-12379
istukoon	-12380
istyksen	-12381
itkaamme	-12382
ittaessa	-12383
ittamaan	-12384
jassansa	-12385
joitansa	-12386
kaistiin	-12387
kastiksi	-12388
kekäleet	-12389
kiläiset	-12390
kistävää	-12391
kunnalle	-12392
kymmenen	-12393
löylyssä	-12394
mahainen	-12395
makkaraa	-12396
mmallaan	-12397
mmikossa	-12398
mmäiseen	-12399
Et	-12400
'».	-12401
Kun	-12402
Älä	-12403
äke	-12404
kann	-12405
kimm	-12406
sasi	-12407
usto	-12408
▁Rak	-12409
▁söi	-12410
ianne	-12411
ilevä	-12412
▁into	-12413
▁muur	-12414
▁Äläs	-12415
ksessä	-12416
otamme	-12417
▁Lähet	-12418
▁ahoja	-12419
▁jaloa	-12420
▁mujua	-12421
▁piikk	-12422
▁rutto	-12423
▁töpsä	-12424
▁varat	-12425
ettavan	-12426
kelivät	-12427
ksiämme	-12428
nustaen	-12429
▁Herraa	-12430
▁Läheni	-12431
▁Voitta	-12432
▁heinän	-12433
▁joukon	-12434
▁kuonoa	-12435
▁näihin	-12436
▁näköjä	-12437
▁olisko	-12438
▁ryökäl	-12439
▁satuja	-12440
▁teloja	-12441
▁vuodet	-12442
hateille	-12443
neetkaan	-12444
nollisen	-12445
nurkassa	-12446
nustanpa	-12447
oituksen	-12448
peltojen	-12449
puolelle	-12450
remputus	-12451
sarviset	-12452
teisessä	-12453
uissansa	-12454
ukkaansa	-12455
ukkutuol	-12456
uksistas	-12457
vastusta	-12458
ynnistys	-12459
yykäämme	-12460
yyttänsä	-12461
ättäköön	-12462
öitsevän	-12463
öitsivät	-12464
▁Aapraha	-12465
▁Aatamin	-12466
▁Eerokin	-12467
▁Ennusti	-12468
▁Harjoit	-12469
▁Hiiteen	-12470
▁Hyvästi	-12471
▁Ihanata	-12472
▁Kamajan	-12473
▁Katsele	-12474
▁Kiiskiä	-12475
▁Kiusaus	-12476
▁Koettaa	-12477
▁Kruunun	-12478
▁Kuinkas	-12479
▁Kylläpä	-12480
▁Lystipä	-12481
▁Menköön	-12482
▁Mikolla	-12483
▁Mikosta	-12484
▁Näinhän	-12485
▁Olisipa	-12486
▁Paavali	-12487
▁Parolan	-12488
▁Porsaan	-12489
▁Ruotsin	-12490
▁Sanotko	-12491
▁Sanottu	-12492
▁Sebaoti	-12493
▁Siinäkö	-12494
▁Sinulla	-12495
▁Taivaan	-12496
▁Timolle	-12497
▁Tulipas	-12498
▁Vaikeni	-12499
ilän	-12500
▁Elä	-12501
▁Käs	-12502
▁Onn	-12503
▁nyp	-12504
▁oud	-12505
keimm	-12506
kival	-12507
väksi	-12508
▁Kuus	-12509
▁Syyt	-12510
▁Vill	-12511
▁liev	-12512
▁sang	-12513
ivasta	-12514
jaista	-12515
keansa	-12516
ltakin	-12517
paisti	-12518
täälle	-12519
▁ampuu	-12520
▁huisk	-12521
▁lujaa	-12522
▁monil	-12523
▁nojat	-12524
▁palho	-12525
▁pesty	-12526
▁satoi	-12527
▁villi	-12528
isiinpa	-12529
▁aseita	-12530
▁himmen	-12531
▁hurska	-12532
▁kytevä	-12533
▁laskea	-12534
▁liekit	-12535
▁mannaa	-12536
▁onneas	-12537
▁palkka	-12538
▁sitkis	-12539
▁sukuni	-12540
▁vahvat	-12541
mmarissa	-12542
▁Housuni	-12543
▁Vappuna	-12544
▁Veljeni	-12545
▁Ymmärrä	-12546
▁aamurus	-12547
▁aapisto	-12548
▁ahoilla	-12549
▁aikamme	-12550
▁ainoana	-12551
▁aitasta	-12552
▁aivosta	-12553
▁ajellen	-12554
▁altansa	-12555
▁ammensi	-12556
▁ammunto	-12557
▁ankarin	-12558
▁annetta	-12559
▁arvelua	-12560
▁aseissa	-12561
▁astuvat	-12562
▁auttaen	-12563
▁auttais	-12564
▁avaraan	-12565
▁avaruus	-12566
▁edistyi	-12567
▁ehdimme	-12568
▁eksyttä	-12569
▁eläimen	-12570
▁emmehän	-12571
▁enkeliä	-12572
▁ennusti	-12573
▁entiset	-12574
▁entisiä	-12575
▁epäillä	-12576
▁eräältä	-12577
▁eräästä	-12578
▁eteemme	-12579
▁etenkin	-12580
▁etsimme	-12581
▁etsivät	-12582
▁ettehän	-12583
▁ettemme	-12584
▁etuanne	-12585
▁etäällä	-12586
▁etäältä	-12587
▁eväänsä	-12588
▁hajussa	-12589
▁hampaan	-12590
▁harakat	-12591
▁harakka	-12592
▁harjasn	-12593
▁haukoit	-12594
▁hauskaa	-12595
▁hekumaa	-12596
▁herkkua	-12597
▁herneet	-12598
▁heräten	-12599
aik	-12600
sii	-12601
unn	-12602
ajan	-12603
huiv	-12604
lapi	-12605
▁joi	-12606
▁kep	-12607
▁sah	-12608
jussa	-12609
kähän	-12610
panaa	-12611
▁maho	-12612
▁nave	-12613
▁teit	-12614
akkasi	-12615
ltamme	-12616
mmekin	-12617
skassa	-12618
uohuva	-12619
▁Annas	-12620
▁Menen	-12621
▁Tuomm	-12622
▁haisu	-12623
▁karju	-12624
▁lukem	-12625
▁mahan	-12626
▁oliko	-12627
▁rapas	-12628
istensa	-12629
tarhaan	-12630
▁Liikku	-12631
▁Toinen	-12632
▁Toisin	-12633
▁jymisi	-12634
▁kiveen	-12635
▁kolkko	-12636
▁korppi	-12637
▁kylmät	-12638
▁löylyn	-12639
▁naappa	-12640
▁opetus	-12641
▁piippu	-12642
▁tahtoa	-12643
▁tiehes	-12644
▁tunsin	-12645
▁velliä	-12646
intäkään	-12647
kuttelee	-12648
▁Sikolää	-12649
▁Vitkoin	-12650
▁herätti	-12651
▁hevosia	-12652
▁himmeän	-12653
▁hioitta	-12654
▁hirmuja	-12655
▁hirveen	-12656
▁hirviön	-12657
▁huhkain	-12658
▁huonees	-12659
▁huviksi	-12660
▁hylkeen	-12661
▁hymyili	-12662
▁hälinää	-12663
▁hämärän	-12664
▁hänenpä	-12665
▁hänessä	-12666
▁hävitti	-12667
▁höyrysi	-12668
▁ihanaan	-12669
▁ikuiset	-12670
▁illasta	-12671
▁ilmalla	-12672
▁ilminen	-12673
▁ilvehti	-12674
▁immestä	-12675
▁iskenyt	-12676
▁iskulla	-12677
▁istuvan	-12678
▁isällis	-12679
▁itkussa	-12680
▁itkusta	-12681
▁itsehän	-12682
▁itsekin	-12683
▁jalkani	-12684
▁jalosta	-12685
▁jossain	-12686
▁juhtien	-12687
▁juovuke	-12688
▁jupiste	-12689
▁juupeli	-12690
▁juureva	-12691
▁jyrisee	-12692
▁jääkäät	-12693
▁kaarena	-12694
▁kadotti	-12695
▁kahleet	-12696
▁kahtena	-12697
▁kajahti	-12698
▁kakarat	-12699
aid	-12700
ake	-12701
anna	-12702
inko	-12703
▁Jal	-12704
▁Ovi	-12705
varti	-12706
öyhtö	-12707
▁avio	-12708
▁liva	-12709
▁syöt	-12710
ikulan	-12711
isasti	-12712
isissa	-12713
itkaat	-12714
piihan	-12715
▁Juhon	-12716
▁Pappi	-12717
▁jämät	-12718
▁kadun	-12719
▁lasia	-12720
▁särki	-12721
▁tuloa	-12722
▁viedä	-12723
ippansa	-12724
kelloin	-12725
tistani	-12726
▁Ovatko	-12727
▁Työhön	-12728
▁harppa	-12729
▁jaksan	-12730
▁keitin	-12731
▁kurjen	-12732
▁laulan	-12733
▁levähd	-12734
▁lirisi	-12735
▁pituus	-12736
▁pullea	-12737
▁puntti	-12738
▁tallia	-12739
▁teräks	-12740
▁tultua	-12741
▁tutkin	-12742
▁veistä	-12743
ruhtinas	-12744
yttämään	-12745
▁Tämähän	-12746
▁heimola	-12747
▁huikeat	-12748
▁jämäten	-12749
▁kalteva	-12750
▁kalvean	-12751
▁kamoten	-12752
▁kanalja	-12753
▁kantele	-12754
▁kantoja	-12755
▁karaten	-12756
▁karhuja	-12757
▁karhuna	-12758
▁karkula	-12759
▁karvari	-12760
▁kasarmi	-12761
▁katkism	-12762
▁kattoon	-12763
▁katumus	-12764
▁kauanpa	-12765
▁kauroja	-12766
▁keikaus	-12767
▁keikkan	-12768
▁keittää	-12769
▁kelloin	-12770
▁kelmeän	-12771
▁kenkära	-12772
▁kerjälä	-12773
▁kerroin	-12774
▁kestävä	-12775
▁kesällä	-12776
▁kesäyön	-12777
▁kettuja	-12778
▁kiellän	-12779
▁kiertää	-12780
▁kiikkuu	-12781
▁kilisee	-12782
▁kilisev	-12783
▁kinkeri	-12784
▁kiroten	-12785
▁kirvees	-12786
▁kiskoen	-12787
▁kivemme	-12788
▁kivessä	-12789
▁kohotta	-12790
▁kohotti	-12791
▁kohtalo	-12792
▁koiruoh	-12793
▁koittaa	-12794
▁konstit	-12795
▁korviin	-12796
▁koskena	-12797
▁kosolta	-12798
▁kosteat	-12799
En	-12800
puur	-12801
uvun	-12802
ikoon	-12803
issit	-12804
paran	-12805
sikat	-12806
tuupa	-12807
▁Sall	-12808
▁akan	-12809
Muista	-12810
elkööt	-12811
etuksi	-12812
viinaa	-12813
▁Seisa	-12814
▁Sydän	-12815
▁VOUTI	-12816
▁antur	-12817
▁heike	-12818
▁kehrä	-12819
▁pohta	-12820
emmaksi	-12821
iksenne	-12822
issänne	-12823
retkell	-12824
telette	-12825
vastoin	-12826
▁Lausui	-12827
▁huutoa	-12828
▁mäkeen	-12829
▁naudat	-12830
▁nuoret	-12831
▁paidan	-12832
▁roteva	-12833
▁ryskyi	-12834
▁sivuun	-12835
▁surmaa	-12836
▁syliin	-12837
▁torvea	-12838
▁tunnet	-12839
▁Turhaan	-12840
▁kohtapa	-12841
▁kristit	-12842
▁kuivana	-12843
▁kukoksi	-12844
▁kulkeva	-12845
▁kuoleva	-12846
▁kuoltua	-12847
▁kupista	-12848
▁kuppari	-12849
▁kurinaa	-12850
▁kurjaan	-12851
▁kuvansa	-12852
▁kyhnien	-12853
▁kylmänä	-12854
▁kylmään	-12855
▁kynsiss	-12856
▁kärhämä	-12857
▁käsillä	-12858
▁käsitti	-12859
▁käsittä	-12860
▁käykäät	-12861
▁käyppäs	-12862
▁käytiin	-12863
▁kääntää	-12864
▁ladaten	-12865
▁ladossa	-12866
▁ladosta	-12867
▁laiskat	-12868
▁lakkasi	-12869
▁lapsena	-12870
▁lapseni	-12871
▁latvoja	-12872
▁laulain	-12873
▁laupias	-12874
▁lehteen	-12875
▁leikkuu	-12876
▁leimusi	-12877
▁leivisk	-12878
▁lemahti	-12879
▁lepistö	-12880
▁liepeet	-12881
▁liesuun	-12882
▁liiaksi	-12883
▁likisti	-12884
▁likisty	-12885
▁lisäksi	-12886
▁loiskin	-12887
▁lopusta	-12888
▁lujalla	-12889
▁lukenut	-12890
▁lukkoon	-12891
▁luolaan	-12892
▁luonnot	-12893
▁luoteja	-12894
▁lusikka	-12895
▁lähimmä	-12896
▁lähinnä	-12897
▁läpitse	-12898
▁lävestä	-12899
▁Uh	-12900
▁yll	-12901
anssi	-12902
eukko	-12903
kkoja	-12904
messa	-12905
teeni	-12906
tinut	-12907
▁Asui	-12908
▁ehto	-12909
▁siat	-12910
iainen	-12911
mailla	-12912
mpujen	-12913
ollaan	-12914
▁Salom	-12915
▁aivot	-12916
▁avoin	-12917
▁kiiti	-12918
▁luopu	-12919
▁nahat	-12920
▁papit	-12921
▁raiva	-12922
▁tokko	-12923
hdellut	-12924
kesivat	-12925
▁Mamman	-12926
▁Ruokko	-12927
▁huutia	-12928
▁irviss	-12929
▁juhdan	-12930
▁kiitän	-12931
▁korvan	-12932
▁multaa	-12933
▁neljäs	-12934
▁pohjat	-12935
▁riisui	-12936
▁sattui	-12937
▁tienoo	-12938
▁tuonut	-12939
▁veljeä	-12940
▁vesuri	-12941
▁Pahasti	-12942
▁Pohjaan	-12943
▁katosta	-12944
▁korvani	-12945
▁mahansa	-12946
▁maiskut	-12947
▁makeita	-12948
▁makkara	-12949
▁makuvar	-12950
▁marjoja	-12951
▁marssin	-12952
▁meinaat	-12953
▁meittiä	-12954
▁mekasta	-12955
▁menisin	-12956
▁menneet	-12957
▁menosta	-12958
▁merellä	-12959
▁meressä	-12960
▁mertoja	-12961
▁mielien	-12962
▁mieskin	-12963
▁miljuun	-12964
▁minkäla	-12965
▁mitäkin	-12966
▁monasti	-12967
▁monesta	-12968
▁mullisa	-12969
▁murkina	-12970
▁mykkinä	-12971
▁myrskyt	-12972
▁mäikkyi	-12973
▁mässätä	-12974
▁määräys	-12975
▁mökkiin	-12976
▁nahassa	-12977
▁nahkoja	-12978
▁naiseen	-12979
▁naisten	-12980
▁narreja	-12981
▁naukuva	-12982
▁nauruun	-12983
▁nautoja	-12984
▁nauttia	-12985
▁neljänä	-12986
▁nimensä	-12987
▁nojaten	-12988
▁nokisen	-12989
▁nurjana	-12990
▁nurkkia	-12991
▁nähköön	-12992
▁näkynyt	-12993
▁oikeata	-12994
▁oksalla	-12995
▁oksalta	-12996
▁olevain	-12997
▁olikaan	-12998
▁olishan	-12999
asu	-13000
jää	-13001
heat	-13002
muus	-13003
▁jör	-13004
▁myl	-13005
uiden	-13006
▁Mahd	-13007
▁Pane	-13008
▁ahta	-13009
▁ajaa	-13010
▁narr	-13011
▁vara	-13012
ihinsä	-13013
kkasta	-13014
värssy	-13015
▁Jokos	-13016
▁Monen	-13017
▁histo	-13018
▁hoita	-13019
▁huoku	-13020
▁kölsä	-13021
▁seppä	-13022
▁vaski	-13023
▁ylväs	-13024
aatosta	-13025
eskelin	-13026
eydellä	-13027
parkoja	-13028
▁Hieman	-13029
▁Luojan	-13030
▁huhdan	-13031
▁hännän	-13032
▁kaulaa	-13033
▁kurjat	-13034
▁luotta	-13035
▁muilla	-13036
▁polsta	-13037
▁ryssää	-13038
▁sarvee	-13039
▁suojaa	-13040
▁taloja	-13041
▁teiska	-13042
▁tiesin	-13043
▁tuotta	-13044
oistamme	-13045
▁aherrus	-13046
▁häiritä	-13047
▁hälveni	-13048
▁kohteli	-13049
▁luonnon	-13050
▁lykkäsi	-13051
▁läheltä	-13052
▁olisipa	-13053
▁oljille	-13054
▁ollessa	-13055
▁oluella	-13056
▁onnensa	-13057
▁otappas	-13058
▁otsalla	-13059
▁otsilla	-13060
▁otukset	-13061
▁paitaan	-13062
▁palanut	-13063
▁palavan	-13064
▁palavia	-13065
▁paljain	-13066
▁palosta	-13067
▁pappien	-13068
▁parahti	-13069
▁parhain	-13070
▁parkuen	-13071
▁paukkuu	-13072
▁peitota	-13073
▁peittoa	-13074
▁peljätä	-13075
▁pelkäät	-13076
▁pelosta	-13077
▁perhana	-13078
▁periltä	-13079
▁pesänsä	-13080
▁petojen	-13081
▁piehtar	-13082
▁pieninä	-13083
▁pilkkas	-13084
▁pilvenä	-13085
▁pimeään	-13086
▁pimitti	-13087
▁pinosta	-13088
▁piplian	-13089
▁pisteli	-13090
▁pitelin	-13091
▁pitivät	-13092
▁pitkänä	-13093
▁pitkään	-13094
▁pitänyt	-13095
▁plottis	-13096
▁pohtaen	-13097
▁poikani	-13098
▁poistui	-13099
Jos	-13100
kop	-13101
▁Ur	-13102
leiv	-13103
▁Kal	-13104
▁Kan	-13105
▁Tuu	-13106
▁ast	-13107
iijaa	-13108
jiksi	-13109
▁koni	-13110
▁kosi	-13111
▁käki	-13112
▁mess	-13113
▁nykä	-13114
housut	-13115
htaisi	-13116
oksiin	-13117
otteko	-13118
pielet	-13119
rikaan	-13120
▁Tulin	-13121
▁huuli	-13122
▁jalat	-13123
▁kusta	-13124
▁penik	-13125
▁rikki	-13126
▁rivin	-13127
▁selki	-13128
▁tulle	-13129
▁tuore	-13130
Jussina	-13131
eillaan	-13132
illisen	-13133
japuita	-13134
▁KOLMAS	-13135
▁kaista	-13136
▁kilahd	-13137
▁kiskoa	-13138
▁leivot	-13139
▁nurinn	-13140
▁töykeä	-13141
▁vuohen	-13142
▁ylpeys	-13143
ittäkäät	-13144
llisestä	-13145
▁Loimaan	-13146
▁Minunpa	-13147
▁knääkkä	-13148
▁kunnaan	-13149
▁kutsuen	-13150
▁kylvöön	-13151
▁nykyään	-13152
▁pannuni	-13153
▁paranta	-13154
▁poistuu	-13155
▁pojalla	-13156
▁pojilla	-13157
▁pojille	-13158
▁porstua	-13159
▁portaan	-13160
▁potkien	-13161
▁prameus	-13162
▁protoko	-13163
▁puhalla	-13164
▁puhkaus	-13165
▁punaten	-13166
▁puolees	-13167
▁puoless	-13168
▁puronen	-13169
▁puskien	-13170
▁puskuri	-13171
▁puuhaan	-13172
▁puuttuu	-13173
▁pyhkeil	-13174
▁pyhkien	-13175
▁pykälät	-13176
▁pysynyt	-13177
▁pyöveli	-13178
▁päiväpa	-13179
▁pääkään	-13180
▁päättyy	-13181
▁päättää	-13182
▁päätäkö	-13183
▁päätäni	-13184
▁raikkuu	-13185
▁rajalle	-13186
▁rakasti	-13187
▁rakenna	-13188
▁rakkaus	-13189
▁rankais	-13190
▁rantaan	-13191
▁raskaan	-13192
▁rattaat	-13193
▁rientää	-13194
▁riiheen	-13195
▁rohkene	-13196
▁rohkeus	-13197
▁rotevan	-13198
▁ruotsin	-13199
jien	-13200
kiem	-13201
liha	-13202
uoks	-13203
jesta	-13204
mille	-13205
pesän	-13206
tuisi	-13207
▁Kesä	-13208
▁Vaim	-13209
▁traa	-13210
keiksi	-13211
▁Näitä	-13212
▁Verta	-13213
▁hymyä	-13214
▁jyviä	-13215
▁kovia	-13216
▁käänn	-13217
▁luona	-13218
▁napaa	-13219
▁nutut	-13220
▁pyörö	-13221
▁selin	-13222
istellä	-13223
ykselle	-13224
▁kantaa	-13225
▁kavala	-13226
▁kyntti	-13227
▁kärpän	-13228
▁luemme	-13229
▁potraa	-13230
▁pyrynä	-13231
▁tuskit	-13232
▁viides	-13233
▁vimman	-13234
▁vinkui	-13235
isimmepa	-13236
istamaan	-13237
▁Hänestä	-13238
▁Karasoo	-13239
▁Karilan	-13240
▁haaraan	-13241
▁huutoon	-13242
▁kanuuna	-13243
▁kivinen	-13244
▁kuristi	-13245
▁piispan	-13246
▁plakkar	-13247
▁päätään	-13248
▁ruskean	-13249
▁ryyppää	-13250
▁ryökäle	-13251
▁röyheän	-13252
▁röykkiö	-13253
▁saakeli	-13254
▁saaneen	-13255
▁saaneet	-13256
▁saavuta	-13257
▁samalta	-13258
▁sananen	-13259
▁sanasen	-13260
▁sanomal	-13261
▁sanoman	-13262
▁saunaan	-13263
▁seikkaa	-13264
▁seisnut	-13265
▁seisten	-13266
▁selkeni	-13267
▁selkäni	-13268
▁selkäsi	-13269
▁selkääs	-13270
▁setänsä	-13271
▁siipien	-13272
▁sijalla	-13273
▁silakan	-13274
▁silmäin	-13275
▁silmäsi	-13276
▁siniset	-13277
▁soikoon	-13278
▁soitten	-13279
▁somasti	-13280
▁sudelle	-13281
▁suhteen	-13282
▁suinkin	-13283
▁sukkela	-13284
▁sulivat	-13285
▁suoloja	-13286
▁suoraan	-13287
▁suostui	-13288
▁surkein	-13289
▁suutari	-13290
▁suutele	-13291
▁syksyyn	-13292
▁sylissä	-13293
▁syntejä	-13294
▁syntiin	-13295
▁syödään	-13296
▁syöneet	-13297
▁syötiin	-13298
▁säkeniä	-13299
iri	-13300
tee	-13301
kivä	-13302
pyyn	-13303
ttiä	-13304
ulas	-13305
▁Hur	-13306
▁Pur	-13307
▁Rev	-13308
▁rät	-13309
suopa	-13310
▁esti	-13311
▁etkö	-13312
▁huip	-13313
▁keri	-13314
▁paks	-13315
▁särj	-13316
▁vois	-13317
pöydän	-13318
voimin	-13319
▁eleli	-13320
▁likka	-13321
▁nauru	-13322
▁pahka	-13323
▁paljo	-13324
eltänsä	-13325
ottuina	-13326
tavaksi	-13327
ureista	-13328
vinänsä	-13329
▁Löytyy	-13330
▁Tunnen	-13331
▁astuis	-13332
▁jukuri	-13333
▁kamara	-13334
▁kannus	-13335
▁karttu	-13336
▁nurkat	-13337
▁peruna	-13338
▁reikiä	-13339
▁saappa	-13340
▁saunaa	-13341
▁toivoa	-13342
▁tuopin	-13343
ulmaisen	-13344
▁Tässäkö	-13345
▁aittaan	-13346
▁kaappia	-13347
▁kartano	-13348
▁kasteli	-13349
▁kasvoja	-13350
▁kihisev	-13351
▁kiivaat	-13352
▁kirotut	-13353
▁määräsi	-13354
▁palaisi	-13355
▁pelaili	-13356
▁pyytäen	-13357
▁päivien	-13358
▁säkkiin	-13359
▁säästää	-13360
▁tahtoni	-13361
▁taisipa	-13362
▁taloksi	-13363
▁talonsa	-13364
▁tapansa	-13365
▁tappelu	-13366
▁tarinat	-13367
▁tarjona	-13368
▁tarkoin	-13369
▁tarttui	-13370
▁tavarat	-13371
▁teiskaa	-13372
▁temmata	-13373
▁temmell	-13374
▁tienoon	-13375
▁tiuskea	-13376
▁toivoni	-13377
▁tomppel	-13378
▁tomuksi	-13379
▁torniin	-13380
▁tottele	-13381
▁tuhatta	-13382
▁tuhkaan	-13383
▁tuijoit	-13384
▁tuikean	-13385
▁tuleman	-13386
▁tulesta	-13387
▁tulipas	-13388
▁tulivas	-13389
▁tulleet	-13390
▁tulossa	-13391
▁tultiin	-13392
▁tuokaat	-13393
▁tuomari	-13394
▁turpeen	-13395
▁turvapa	-13396
▁turviin	-13397
▁tutkien	-13398
▁tuumaan	-13399
vaih	-13400
ellia	-13401
mmale	-13402
ttäen	-13403
▁joku	-13404
▁omia	-13405
emasta	-13406
itsoja	-13407
juonia	-13408
netkos	-13409
▁halut	-13410
▁juoma	-13411
▁panis	-13412
▁renki	-13413
▁rikas	-13414
▁tuhka	-13415
kivelle	-13416
paitten	-13417
ttamaan	-13418
ähtävät	-13419
▁Jussia	-13420
▁ainoan	-13421
▁jäykkä	-13422
▁kuvata	-13423
▁kynsiä	-13424
▁nilkut	-13425
▁oravan	-13426
▁rähmäs	-13427
▁sorsat	-13428
▁torpan	-13429
▁virtaa	-13430
dessämme	-13431
▁Ahtolan	-13432
▁Eerolle	-13433
▁Tuletko	-13434
▁Varhain	-13435
▁autuaan	-13436
▁ettette	-13437
▁hyvillä	-13438
▁mahassa	-13439
▁mujussa	-13440
▁myrkkyä	-13441
▁nahkavi	-13442
▁nälkään	-13443
▁rikottu	-13444
▁sanasta	-13445
▁totisen	-13446
▁tuumani	-13447
▁tyttöjä	-13448
▁tytärtä	-13449
▁tähdätä	-13450
▁tähteni	-13451
▁tänäkin	-13452
▁tärisee	-13453
▁tärkein	-13454
▁tärkeän	-13455
▁tärähti	-13456
▁tässäpä	-13457
▁täysinä	-13458
▁täyttyi	-13459
▁töykeän	-13460
▁uhkaili	-13461
▁uhkeaan	-13462
▁uhkeita	-13463
▁uhriksi	-13464
▁ulettui	-13465
▁ulkomuo	-13466
▁ummisti	-13467
▁unihour	-13468
▁unisena	-13469
▁urosten	-13470
▁useampi	-13471
▁uudesta	-13472
▁vaaksan	-13473
▁vahvoja	-13474
▁vaikkei	-13475
▁vaimoja	-13476
▁vakavan	-13477
▁valalla	-13478
▁vanhaan	-13479
▁vanhoja	-13480
▁vankeud	-13481
▁vapaana	-13482
▁vapiset	-13483
▁varjona	-13484
▁varpuja	-13485
▁vartoen	-13486
▁vasaran	-13487
▁vasikan	-13488
▁vasikka	-13489
▁vauhtia	-13490
▁vedettä	-13491
▁veistin	-13492
▁veitset	-13493
▁vekkuli	-13494
▁veressä	-13495
▁verestä	-13496
▁veretön	-13497
▁verhoon	-13498
▁verosta	-13499
Ta	-13500
»!	-13501
öä	-13502
Per	-13503
ppoa	-13504
▁Ala	-13505
▁Mel	-13506
▁Sor	-13507
Tuuli	-13508
mpaan	-13509
tteja	-13510
▁Nuot	-13511
▁rikk	-13512
loissa	-13513
tuolla	-13514
▁Noita	-13515
▁eukot	-13516
▁kaita	-13517
▁kuhna	-13518
▁löydä	-13519
▁mulli	-13520
▁ollee	-13521
▁ongel	-13522
▁riivi	-13523
▁suosi	-13524
▁uljaa	-13525
issamme	-13526
kerillä	-13527
mmenien	-13528
oidetta	-13529
oksesta	-13530
rukalle	-13531
▁Nousee	-13532
▁Pitkin	-13533
▁almana	-13534
▁jaksat	-13535
▁juonia	-13536
▁kiehuu	-13537
▁lännen	-13538
▁peiton	-13539
▁uhkasi	-13540
▁uneksi	-13541
▁vaipuu	-13542
ikukkaro	-13543
keudesta	-13544
ustamaan	-13545
▁Lähellä	-13546
▁Perhana	-13547
▁hikoili	-13548
▁kidassa	-13549
▁korkeat	-13550
▁lauleli	-13551
▁leksoit	-13552
▁miellyt	-13553
▁saakoot	-13554
▁talteen	-13555
▁torppaa	-13556
▁vertaan	-13557
▁viereen	-13558
▁vihelsi	-13559
▁viisaud	-13560
▁vilkkuu	-13561
▁villits	-13562
▁vilppiä	-13563
▁visasta	-13564
▁viskeli	-13565
▁vitkoin	-13566
▁vuoroon	-13567
▁vuorten	-13568
▁vuoteen	-13569
▁vähenee	-13570
▁vähänpä	-13571
▁väikkyy	-13572
▁väkensä	-13573
▁välttää	-13574
▁väsymys	-13575
▁yhteisk	-13576
▁yleisen	-13577
▁ylkänsä	-13578
▁ympyriä	-13579
▁ystävää	-13580
▁ytimiin	-13581
▁Äläppäs	-13582
▁ähellys	-13583
▁äkkinen	-13584
▁ääneksi	-13585
▁äänestä	-13586
▁äärellä	-13587
▁äärestä	-13588
▁öisellä	-13589
Männistön	-13590
Seitsemän	-13591
astimeksi	-13592
elliseksi	-13593
huoneesta	-13594
inmiesten	-13595
istavalle	-13596
isteleviä	-13597
istettiin	-13598
itsevalla	-13599
karh	-13600
ittaviksi	-13601
kaammepas	-13602
kaltaisia	-13603
kapulassa	-13604
karvaiset	-13605
kertainen	-13606
kilpeänsä	-13607
kkoinensa	-13608
llisuuden	-13609
mattomana	-13610
nahkainen	-13611
nahkaisen	-13612
oitkaamme	-13613
partainen	-13614
pintainen	-13615
poikasena	-13616
poikaseni	-13617
silmäisen	-13618
telemättä	-13619
telkaamme	-13620
tuumainen	-13621
yyksiämme	-13622
äniitinen	-13623
▁Aapiskir	-13624
▁Aaponkin	-13625
▁Amerikan	-13626
▁Elleivät	-13627
▁Haarikat	-13628
▁Hemmolan	-13629
▁Henkemme	-13630
▁Herralle	-13631
▁Hirveätä	-13632
▁Humisten	-13633
▁Huomenna	-13634
▁Huusivat	-13635
▁Ihmisten	-13636
▁Israelin	-13637
▁Jotenkin	-13638
▁Kahdelta	-13639
▁Kaikilla	-13640
▁Kaikkein	-13641
▁Kirkkoon	-13642
▁Koivulan	-13643
▁Kortteli	-13644
▁Kulkivat	-13645
▁Kuulinpa	-13646
▁Kuulkaas	-13647
▁Kuuluipa	-13648
▁Kyyttöni	-13649
▁Lukekaat	-13650
▁Lukkarin	-13651
▁Luuletko	-13652
▁Meneppäs	-13653
▁Ojapuita	-13654
▁Olivatpa	-13655
▁Paikalla	-13656
▁Parolaan	-13657
▁Paukahta	-13658
▁Peloitta	-13659
▁Pitääkös	-13660
▁Provasti	-13661
▁Rannalla	-13662
▁Sanokaas	-13663
▁Selvästi	-13664
▁Siitähän	-13665
▁Suomessa	-13666
▁Suomesta	-13667
▁Sylvinän	-13668
▁Syntinen	-13669
▁Taavetin	-13670
▁Tappelus	-13671
▁Tarkasti	-13672
▁Tiedänpä	-13673
▁Tietäkää	-13674
▁Tuhkalan	-13675
▁Tuleppas	-13676
▁Tultuaan	-13677
▁Tunturin	-13678
▁Tuostapa	-13679
▁Vahvasti	-13680
▁Venlalta	-13681
▁Verraton	-13682
▁aapistoa	-13683
▁aarteita	-13684
▁aatellut	-13685
▁ahkeraan	-13686
▁aisoista	-13687
▁akkunalä	-13688
▁alempana	-13689
▁alkamaan	-13690
▁alkoivat	-13691
▁ampuisit	-13692
▁annoimme	-13693
▁aprikoit	-13694
▁arvoisat	-13695
▁asetetut	-13696
▁asiaansa	-13697
▁asioissa	-13698
▁astukoon	-13699
▁astuppas	-13700
▁astutaan	-13701
▁asukkaat	-13702
▁atrialle	-13703
▁atriansa	-13704
▁atriasta	-13705
▁auetessa	-13706
▁aukaisit	-13707
▁aukaista	-13708
▁aurinkoa	-13709
▁auttaisi	-13710
▁avaralle	-13711
▁avaralta	-13712
▁edellään	-13713
▁elelivät	-13714
▁elleivät	-13715
▁elukkain	-13716
▁emäntien	-13717
▁ennustaa	-13718
▁ennustus	-13719
▁erosivat	-13720
▁erottiin	-13721
▁etelästä	-13722
▁etteivät	-13723
▁fläätälä	-13724
▁haavamme	-13725
▁halkonui	-13726
▁hallavan	-13727
▁haluansa	-13728
▁hameensa	-13729
▁hangella	-13730
▁harjattu	-13731
▁harkitsi	-13732
▁hassusti	-13733
▁hattunsa	-13734
▁havaitsi	-13735
▁hedelmät	-13736
▁heikkeni	-13737
▁heleijaa	-13738
▁heleässä	-13739
▁hienoksi	-13740
▁hikoilla	-13741
▁hillitse	-13742
▁hinnaksi	-13743
▁hirmuisi	-13744
▁hohtavan	-13745
▁housunsa	-13746
▁hulluksi	-13747
▁hullumpi	-13748
▁humiseva	-13749
▁huomaten	-13750
▁huoneita	-13751
▁hurraten	-13752
▁huulilta	-13753
▁huutelee	-13754
▁huutonsa	-13755
▁hälläkkä	-13756
▁hänenkin	-13757
▁häntänsä	-13758
▁härkänen	-13759
▁ihanaksi	-13760
▁ihanampi	-13761
▁ikuiseen	-13762
▁ilkeästi	-13763
▁ilmestys	-13764
▁ilmoista	-13765
▁ilmoitti	-13766
▁iloisten	-13767
▁iloitsee	-13768
▁iskemään	-13769
▁iskeneet	-13770
▁isännyys	-13771
▁jaettiin	-13772
▁jaloissa	-13773
▁jaloista	-13774
▁jokaista	-13775
▁joukosta	-13776
▁juhdalta	-13777
▁julmasti	-13778
▁juostiin	-13779
▁jupisten	-13780
▁juttelee	-13781
▁juurelta	-13782
▁jynkästi	-13783
▁jäljelle	-13784
▁jälkensä	-13785
▁kaarneen	-13786
▁kaartaen	-13787
▁kahvissa	-13788
▁kaikelle	-13789
▁kaikilla	-13790
▁kaikkien	-13791
▁kainosti	-13792
▁kaksikin	-13793
▁kalleita	-13794
▁kaltevan	-13795
▁kankensa	-13796
▁kantamat	-13797
▁kanuunan	-13798
▁karheata	-13799
▁karhusta	-13800
▁karjalle	-13801
▁karjassa	-13802
▁kartanoa	-13803
▁kasoihin	-13804
▁kastettu	-13805
▁kasvanut	-13806
▁kasvatti	-13807
▁katkeraa	-13808
▁katsahta	-13809
▁katsanto	-13810
▁katsonpa	-13811
▁kattilaa	-13812
▁kauhtana	-13813
▁kauniina	-13814
▁keinosta	-13815
▁kekäleet	-13816
▁kelkassa	-13817
▁kellahti	-13818
▁keppihev	-13819
▁kertomus	-13820
▁kertonut	-13821
▁keveästi	-13822
▁kiikahti	-13823
▁kiitämme	-13824
▁kiitänpä	-13825
▁killissä	-13826
▁kimmassa	-13827
▁kimpussa	-13828
▁kinoksia	-13829
▁kirjansa	-13830
▁kirjassa	-13831
▁kirveeni	-13832
▁kiulussa	-13833
▁kiusattu	-13834
▁kivääriä	-13835
▁kohisten	-13836
▁kohottaa	-13837
▁koipensa	-13838
▁koiramme	-13839
▁koivesta	-13840
▁koivussa	-13841
▁kolkosta	-13842
▁kolmekin	-13843
▁kolmella	-13844
▁konsteja	-13845
▁korjatut	-13846
▁korkeata	-13847
▁korkeita	-13848
▁koroitti	-13849
▁kortteli	-13850
▁korvaani	-13851
▁korvansa	-13852
▁kotoonsa	-13853
▁kouralla	-13854
▁kourista	-13855
▁kuihtuva	-13856
▁kuiskasi	-13857
▁kuivaksi	-13858
▁kuivalle	-13859
▁kukistui	-13860
▁kuljeksi	-13861
▁kulkenut	-13862
▁kulkunsa	-13863
▁kulmalla	-13864
▁kultakyl	-13865
▁kultansa	-13866
▁kumonnut	-13867
▁kumpikin	-13868
▁kuninkaa	-13869
▁kunniaan	-13870
▁kuohuvaa	-13871
▁kuohuvan	-13872
▁kuolleet	-13873
▁kuristuu	-13874
▁kurkkuas	-13875
▁kurkkuni	-13876
▁kurkusta	-13877
▁kuulevat	-13878
▁kuulitte	-13879
▁kuulkoon	-13880
▁kuullaan	-13881
▁kuulleet	-13882
▁kuumassa	-13883
▁kuusissa	-13884
▁kuusista	-13885
▁kuvailee	-13886
▁kyljelle	-13887
▁kyljellä	-13888
▁kyljestä	-13889
▁kyljistä	-13890
▁kylmällä	-13891
▁kylmästä	-13892
▁kylvämme	-13893
▁kynsissä	-13894
▁kyynysil	-13895
▁kyyryssä	-13896
▁kyöpelit	-13897
▁käsiänsä	-13898
▁käydessä	-13899
▁käytetty	-13900
▁käärinyt	-13901
▁käärivät	-13902
▁köniinsä	-13903
▁lainaksi	-13904
▁lainehti	-13905
▁laitanne	-13906
▁lakealle	-13907
▁lakeasta	-13908
▁latomaan	-13909
▁lausuvan	-13910
▁leimahta	-13911
▁leipänsä	-13912
▁leivälle	-13913
▁leivällä	-13914
▁lemmitty	-13915
▁leveällä	-13916
▁levottom	-13917
▁levännyt	-13918
▁liehahti	-13919
▁liehtoen	-13920
▁liekissä	-13921
▁liemessä	-13922
▁liikutta	-13923
▁liippasi	-13924
▁likemmäs	-13925
▁linnansa	-13926
▁lintuset	-13927
▁loiskien	-13928
▁lotkahti	-13929
▁loukkuja	-13930
▁lujemmin	-13931
▁luolista	-13932
▁luontoni	-13933
▁luulisin	-13934
▁luulivat	-13935
▁lyhdettä	-13936
▁lähdetkö	-13937
▁läksimme	-13938
▁lämmitti	-13939
▁lännessä	-13940
▁löyttiin	-13941
▁maallani	-13942
▁maantien	-13943
▁maarunsa	-13944
▁maatansa	-13945
▁maatessa	-13946
▁maatkoon	-13947
▁mahdilla	-13948
▁mainitun	-13949
▁maksaisi	-13950
▁mansikka	-13951
▁mareissa	-13952
▁masentaa	-13953
▁matkalle	-13954
▁matkansa	-13955
▁merimies	-13956
▁metsistä	-13957
▁metsästy	-13958
▁miehiksi	-13959
▁miehille	-13960
▁miehistä	-13961
▁miehukas	-13962
▁miekalla	-13963
▁mielenne	-13964
▁mielimur	-13965
▁mielisin	-13966
▁mistähän	-13967
▁mistäkin	-13968
▁mitenkäs	-13969
▁monenkin	-13970
▁monipolv	-13971
▁montakin	-13972
▁moristen	-13973
▁muhkeata	-13974
▁muitakin	-13975
▁mukaansa	-13976
▁mullikka	-13977
▁multahir	-13978
▁murheeni	-13979
▁muristen	-13980
▁muutamia	-13981
▁myhäilee	-13982
▁myhäilys	-13983
▁myyräksi	-13984
▁myötänsä	-13985
▁mölisten	-13986
▁naamalla	-13987
▁nahkahih	-13988
▁nahkamme	-13989
▁nahkansa	-13990
▁naisesta	-13991
▁naurisha	-13992
▁nielköön	-13993
▁niitulta	-13994
▁nokisten	-13995
▁nouseepa	-13996
▁nousevan	-13997
▁nousivat	-13998
▁nuhdella	-13999
▁nuorasta	-14000
▁nurkissa	-14001
▁nurkkiin	-14002
▁nykistää	-14003
▁nyljetty	-14004
▁nälkämme	-14005
▁nälkävuo	-14006
▁näyttäen	-14007
▁odottaen	-14008
▁oikealta	-14009
▁oikeasta	-14010
▁oikeasti	-14011
▁ojankoon	-14012
▁olisinpa	-14013
▁oliskaan	-14014
▁olkaamme	-14015
▁olutjuus	-14016
▁omettaan	-14017
▁omistaja	-14018
▁onneansa	-14019
▁osoittaa	-14020
▁otavassa	-14021
▁oteltiin	-14022
▁otettiin	-14023
▁ottakoon	-14024
▁paiskasi	-14025
▁paisutti	-14026
▁pakanain	-14027
▁pakaroja	-14028
▁pakkasta	-14029
▁pakoitta	-14030
▁pakoitti	-14031
▁palamaan	-14032
▁paljaana	-14033
▁pantiksi	-14034
▁pappissä	-14035
▁parhaina	-14036
▁parsille	-14037
▁parvella	-14038
▁pataljon	-14039
▁patruuna	-14040
▁paukahti	-14041
▁paukkina	-14042
▁peijooni	-14043
▁peikkoja	-14044
▁pelastui	-14045
▁pelastus	-14046
▁peljästy	-14047
▁pelloksi	-14048
▁pellolle	-14049
▁peltomme	-14050
▁penkillä	-14051
▁pensasto	-14052
▁periköön	-14053
▁peräänsä	-14054
▁peukalos	-14055
▁pidellen	-14056
▁pienessä	-14057
▁piestiin	-14058
▁pilvinen	-14059
▁pilvissä	-14060
▁pinnasta	-14061
▁pistelee	-14062
▁pistosta	-14063
▁pitkäsen	-14064
▁pituutta	-14065
▁pohjassa	-14066
▁poijussa	-14067
▁poikanen	-14068
▁poikaset	-14069
▁poikkesi	-14070
▁poltettu	-14071
▁portilla	-14072
▁portilta	-14073
▁poskelle	-14074
▁poskessa	-14075
▁poveemme	-14076
▁puettuna	-14077
▁puheista	-14078
▁punaiset	-14079
▁punerrus	-14080
▁punertui	-14081
▁puoleeni	-14082
▁puolisko	-14083
▁pureskel	-14084
▁purevana	-14085
▁pussiini	-14086
▁pussissa	-14087
▁puukkoni	-14088
▁pykälään	-14089
▁pyssymme	-14090
▁pyssynsä	-14091
▁pyssystä	-14092
▁pysäytti	-14093
▁pyydämme	-14094
▁päivissä	-14095
▁päivätyö	-14096
▁päähänsä	-14097
▁pääkuori	-14098
▁päälläni	-14099
▁päässään	-14100
▁päättäen	-14101
▁päätämme	-14102
▁pöllähti	-14103
▁pöydälle	-14104
▁pöydässä	-14105
▁pöydästä	-14106
▁pöytyrin	-14107
▁raivaten	-14108
▁rakastaa	-14109
▁rakastan	-14110
▁rakastuu	-14111
▁rankaise	-14112
▁raudasta	-14113
▁rehellis	-14114
▁retkillä	-14115
▁riemuksi	-14116
▁rikeeraa	-14117
▁rintaani	-14118
▁ripittää	-14119
▁rippikir	-14120
▁riutuvat	-14121
▁rovastin	-14122
▁ruohisto	-14123
▁rupesipa	-14124
▁ryöhäävä	-14125
▁ryöväriä	-14126
▁röhöttää	-14127
▁saarnaan	-14128
▁saarnasi	-14129
▁saartuva	-14130
▁saatanan	-14131
▁sadoitta	-14132
▁saloissa	-14133
▁sammakko	-14134
▁sanoisin	-14135
▁sanoitko	-14136
▁sanotaan	-14137
▁sattunut	-14138
▁saunamme	-14139
▁saunaton	-14140
▁seikasta	-14141
▁seisotte	-14142
▁seisovat	-14143
▁seistään	-14144
▁seljästä	-14145
▁selkäran	-14146
▁selkääni	-14147
▁selvästi	-14148
▁senkalta	-14149
▁seurasin	-14150
▁sielläpä	-14151
▁siinähän	-14152
▁sohiseva	-14153
▁sonninsa	-14154
▁sormusta	-14155
▁suloisen	-14156
▁summaton	-14157
▁suojasta	-14158
▁suolasta	-14159
▁surmaksi	-14160
▁suudella	-14161
▁suuresti	-14162
▁suurusta	-14163
▁suustani	-14164
▁sydämien	-14165
▁sydämmen	-14166
▁syksykes	-14167
▁syliinsä	-14168
▁synnistä	-14169
▁synnytti	-14170
▁syntistä	-14171
▁syrjässä	-14172
▁syvyyden	-14173
▁säteetön	-14174
▁tahtovat	-14175
▁taidosta	-14176
▁taitonsa	-14177
▁takatass	-14178
▁taloamme	-14179
▁taloissa	-14180
▁tammista	-14181
▁tannerta	-14182
▁tapaista	-14183
▁tappelee	-14184
▁tarpeiks	-14185
▁tavailee	-14186
▁temmelsi	-14187
▁tempaili	-14188
▁tempasit	-14189
▁tiedätte	-14190
▁tiehensä	-14191
▁tielleni	-14192
▁tietysti	-14193
▁tietänyt	-14194
▁tiimalla	-14195
▁tilaansa	-14196
▁tinapull	-14197
▁todistaa	-14198
▁toimensa	-14199
▁toimessa	-14200
▁toimissa	-14201
▁toisessa	-14202
▁toisilta	-14203
▁toivottu	-14204
▁tonttuja	-14205
▁torellen	-14206
▁torpassa	-14207
▁tottakin	-14208
▁toverini	-14209
▁tuhannet	-14210
▁tuhlaaja	-14211
▁tukkaani	-14212
▁tuliaisk	-14213
▁tulipuna	-14214
▁tunkiota	-14215
▁tunnettu	-14216
▁tunsivat	-14217
▁tuohesta	-14218
▁tuoksusi	-14219
▁tuomitse	-14220
▁turhasta	-14221
▁turkkiin	-14222
▁turkkila	-14223
▁turpeita	-14224
▁tuskissa	-14225
▁tuulessa	-14226
▁tuulissa	-14227
▁tuumasta	-14228
▁tuuppasi	-14229
▁tuutissa	-14230
▁tyhjäksi	-14231
▁tyhjästä	-14232
▁tyhmästi	-14233
▁tynnyrin	-14234
▁tynnörin	-14235
▁tähtenne	-14236
▁tärkeään	-14237
▁täytynyt	-14238
▁töyrylle	-14239
▁uhkeampi	-14240
▁uhriansa	-14241
▁uhriensa	-14242
▁uneksuin	-14243
▁unohtaen	-14244
▁useammin	-14245
▁vahingon	-14246
▁vahinkoa	-14247
▁vahvista	-14248
▁vaiheita	-14249
▁vaikutus	-14250
▁vainooja	-14251
▁vakavina	-14252
▁valkeana	-14253
▁valkeata	-14254
▁vanhaksi	-14255
▁vanhalle	-14256
▁vapaassa	-14257
▁vapiseva	-14258
▁vasikkaa	-14259
▁vastasin	-14260
▁vastusta	-14261
▁vatsansa	-14262
▁veisussa	-14263
▁veljenne	-14264
▁veljille	-14265
▁verhossa	-14266
▁verisenä	-14267
▁viehätti	-14268
▁viehättä	-14269
▁vietteli	-14270
▁vihaista	-14271
▁vihamies	-14272
▁vihollis	-14273
▁viidasta	-14274
▁viinamyr	-14275
▁viinasta	-14276
▁viistoon	-14277
▁vikkelän	-14278
▁vilinätä	-14279
▁vilkkaan	-14280
▁villityt	-14281
▁virkanne	-14282
▁virrassa	-14283
▁visainen	-14284
▁voidetta	-14285
▁voimakas	-14286
▁voimilla	-14287
▁voittipa	-14288
▁voudille	-14289
▁vuodatti	-14290
▁vuodelta	-14291
▁väkivoim	-14292
▁väsyneen	-14293
▁vääntäen	-14294
▁vääntäin	-14295
▁yhteistä	-14296
▁yhtyivät	-14297
▁yleiseen	-14298
▁ylempänä	-14299
▁ylistäen	-14300
▁ylöspäin	-14301
▁ymmärrät	-14302
▁yritystä	-14303
▁yskimään	-14304
▁äyräällä	-14305
▁äärettöm	-14306
▁öillistä	-14307
Elettiinpä	-14308
Muistellen	-14309
asilmäinen	-14310
emmästäkin	-14311
isilmäistä	-14312
istuksessa	-14313
istyksestä	-14314
kaltaisena	-14315
mattomaksi	-14316
rekiläiset	-14317
retkelläni	-14318
uksistansa	-14319
veikkoseni	-14320
älukijoita	-14321
▁Aapelille	-14322
▁Aroniittu	-14323
▁Enklannin	-14324
▁Hartaasti	-14325
▁Harvoinpa	-14326
▁Hirmuista	-14327
▁Honkamäen	-14328
▁Hyvänmäen	-14329
▁Ilmausipa	-14330
▁Jaakkolan	-14331
▁Jumppilan	-14332
▁Karsitaan	-14333
▁Kasakoita	-14334
▁Katsoppas	-14335
▁Kiitoksia	-14336
▁Koetetaan	-14337
▁Lapinmaan	-14338
▁Lauletaan	-14339
▁Lautamies	-14340
▁Liioinkin	-14341
▁Mimmoinen	-14342
▁Nimismies	-14343
▁Parastani	-14344
▁Routiosta	-14345
▁Saakaamme	-14346
▁Sanaakaan	-14347
▁Sellaiset	-14348
▁Seuraavan	-14349
▁Siellähän	-14350
▁Sydämmeni	-14351
▁Taitaakos	-14352
▁Tampereen	-14353
▁Teerimäki	-14354
▁Tehtyänsä	-14355
▁Toukolaan	-14356
▁Tuoltahan	-14357
▁Tuomaasta	-14358
▁Tuonnehan	-14359
▁VELJEKSET	-14360
▁Viimeinpä	-14361
▁Väsymättä	-14362
▁aapiaista	-14363
▁aatelkaas	-14364
▁aatokseni	-14365
▁aittaansa	-14366
▁aivossani	-14367
▁ajattelin	-14368
▁ajelemaan	-14369
▁aljettiin	-14370
▁ammenteli	-14371
▁ampumamat	-14372
▁ampumavar	-14373
▁annokseen	-14374
▁anturoita	-14375
▁armaitten	-14376
▁arvaathan	-14377
▁asettivat	-14378
▁astelemme	-14379
▁asteltiin	-14380
▁atrioitsi	-14381
▁auttakaat	-14382
▁edessänsä	-14383
▁eläkäämme	-14384
▁emännäksi	-14385
▁emännöits	-14386
▁entisessä	-14387
▁entisestä	-14388
▁erämaassa	-14389
▁esimiehen	-14390
▁esivallan	-14391
▁etsiskeli	-14392
▁etäiselle	-14393
▁haarnisko	-14394
▁haaroissa	-14395
▁haastelee	-14396
▁haastelet	-14397
▁haastelin	-14398
▁haastella	-14399
▁haavoista	-14400
▁hampaansa	-14401
▁harjakset	-14402
▁harmistui	-14403
▁hartaalla	-14404
▁harvemmin	-14405
▁harvoinpa	-14406
▁haukkunut	-14407
▁hauskassa	-14408
▁hauteesen	-14409
▁havutukki	-14410
▁heitellen	-14411
▁hellittää	-14412
▁helteinen	-14413
▁hempeästi	-14414
▁hengähtää	-14415
▁henkeänsä	-14416
▁herättävä	-14417
▁hevosella	-14418
▁hietainen	-14419
▁hiiskahda	-14420
▁hiljaista	-14421
▁hirveäksi	-14422
▁hirveästä	-14423
▁hohtavana	-14424
▁hohteessa	-14425
▁huikealla	-14426
▁huimausta	-14427
▁hullummin	-14428
▁huokailee	-14429
▁huomaamme	-14430
▁huoneensa	-14431
▁huoneesen	-14432
▁huoneesta	-14433
▁huudellen	-14434
▁huudoista	-14435
▁hyrisivät	-14436
▁hyrskähti	-14437
▁härjätkin	-14438
▁hävitetty	-14439
▁ihmetellä	-14440
▁ihmiseksi	-14441
▁ihmisistä	-14442
▁iloiselle	-14443
▁iltavalki	-14444
▁irvistävä	-14445
▁isoisämme	-14446
▁isältänsä	-14447
▁itkevällä	-14448
▁jaettuina	-14449
▁jalkainsa	-14450
▁jatkamaan	-14451
▁joutomaan	-14452
▁joutuivat	-14453
▁julmistui	-14454
▁jumalaton	-14455
▁jumalatto	-14456
▁juoksevan	-14457
▁juopuneen	-14458
▁juostessa	-14459
▁jykevällä	-14460
▁jylisevän	-14461
▁jyrinällä	-14462
▁jytinällä	-14463
▁jäniksenä	-14464
▁jäsenissä	-14465
▁kaatuneen	-14466
▁kaikkival	-14467
▁kaivellen	-14468
▁kallistaa	-14469
▁kalveasta	-14470
▁kamarasta	-14471
▁kammiossa	-14472
▁kamostuen	-14473
▁kantoinen	-14474
▁kantoista	-14475
▁kantoivat	-14476
▁karankoja	-14477
▁karheasti	-14478
▁karkaavan	-14479
▁karmeasti	-14480
▁kartanoon	-14481
▁karvautta	-14482
▁kasvaneet	-14483
▁katsannon	-14484
▁katsellut	-14485
▁katsoppas	-14486
▁kauempana	-14487
▁kauhistuu	-14488
▁kaukainen	-14489
▁kaukaisen	-14490
▁kaukaista	-14491
▁keihäänsä	-14492
▁keikkuvan	-14493
▁kellastun	-14494
▁kenokaula	-14495
▁kerskaili	-14496
▁keskenään	-14497
▁kiihoitti	-14498
▁kiiltäviä	-14499
▁kiiltävän	-14500
▁kiiltävät	-14501
▁kiirehtii	-14502
▁kiitokset	-14503
▁kiitollis	-14504
▁kiivaalla	-14505
▁kiivastui	-14506
▁kilakassa	-14507
▁kimpaleen	-14508
▁kiristäen	-14509
▁kirjaansa	-14510
▁kirjainta	-14511
▁kirkastui	-14512
▁kirkkaina	-14513
▁kiroillen	-14514
▁kirouksen	-14515
▁kirveellä	-14516
▁kirvesten	-14517
▁kitsausta	-14518
▁kiukaalta	-14519
▁kiukkunsa	-14520
▁kiusanhen	-14521
▁koettanut	-14522
▁koettikin	-14523
▁kohotamme	-14524
▁kohottaen	-14525
▁kohtaamme	-14526
▁koillinen	-14527
▁koivuista	-14528
▁kolisteli	-14529
▁korjaamme	-14530
▁korkeassa	-14531
▁korttelin	-14532
▁korviinsa	-14533
▁kouluttaa	-14534
▁kouraamme	-14535
▁kristityt	-14536
▁kuivettun	-14537
▁kulauttaa	-14538
▁kulkeneet	-14539
▁kullenkin	-14540
▁kultaiset	-14541
▁kunniansa	-14542
▁kuolemaas	-14543
▁kuolemata	-14544
▁kuolleina	-14545
▁kurkkunsa	-14546
▁kutsumaan	-14547
▁kutsutaan	-14548
▁kuulemaan	-14549
[...]
